#version: 0.2 - Trained by `huggingface/tokenizers`
Ġ t
Ġ a
h e
i n
r e
Ġt he
o n
e r
Ġ s
Ġ w
a t
Ġ o
e n
Ġ c
i t
i s
a n
o r
Ġ b
e s
e d
Ġ f
in g
Ġ p
o u
Ġa n
a l
Ġt o
a r
Ġ m
Ġ in
Ġo f
Ġ d
Ġ h
a s
â Ģ
i c
Ġan d
Ġt h
l e
o m
i on
l l
en t
Ġ n
Ġ l
Ġ re
s t
v e
l y
Ġ e
r o
Ġb e
Ġ g
i d
u t
a c
o t
Ġ T
Ġ I
Ġth at
Ġ on
a y
Ġ S
Ġ is
e t
i m
a m
a d
o w
i g
s e
Ġf or
âĢ Ļ
Ġ A
v er
u r
c t
l d
Ġ C
Ġ u
Ġs t
Ġ y
Ġ it
Ġ he
i r
at ion
it h
Ġw h
Ġ M
c e
t er
o l
Ġw e
i l
Ġw ith
Ġa s
Ġ B
c h
i ll
n d
Ġ P
Ġw as
er s
Ġy ou
k e
Ġ âĢ
Ġc on
Ġd e
Ġ r
he r
i f
at e
Ġa t
a g
Ġh a
Ġ W
Ġs e
Ġ H
o re
Ġp ro
u l
p p
m ent
r i
Ġa re
Ġ D
es t
u s
Ġ 1
Ġc om
is t
an d
Ġ R
o p
a in
ĠT he
Ġ 2
ig h
r om
Ġ (
or t
o d
Ġn e
Ġ F
u n
u m
Ġe x
re s
a b
âĢ Ŀ
Ġn ot
Ġ v
Ġ N
Ġha ve
es s
it y
ou ld
e m
Ġo r
t h
Ġb y
o s
an t
Ġ G
i ve
Ġf rom
Ġa l
e l
' s
o c
ar t
Ġs u
Ġ L
Ġs h
Ġth is
n t
q u
igh t
p e
u st
Ġ le
Ġ E
i es
en d
Ġc h
Ġs a
ou t
Ġa b
T he
al l
i e
ac k
0 0
re d
ĠâĢ ľ
Ġh as
al ly
Ġ J
Ġp l
Ġg o
ar d
i v
om e
Ġh is
a p
o st
g h
e ar
Ġ O
ou r
Ġt r
as t
Ġ j
a k
u d
Ġd o
Ġthe y
Ġb ut
Ġw or
Ġc an
r ou
Ġw ill
g e
Ġsa id
Ġw he
Ġ U
ic h
Ġ k
o k
Ġa ll
Ġ "
Ġwh o
id e
Ġin t
am e
t her
an s
i al
Ġo ut
f f
Ġthe ir
on g
e ct
p l
ic e
p t
u re
ag e
Ġm ore
on e
ac t
ion s
Ġm e
i ke
Ġu p
ou s
in e
Ġa d
Ġab out
r a
at ed
b er
Ġon e
Ġwe re
o g
Ġs o
Ġu s
im e
e p
Ġ K
Ġh ad
a re
u b
i a
c c
Ġw ould
Ġ2 0
Ġc l
Ġ im
in d
Ġwh ich
a ke
u e
i z
ver y
Ġcon t
Ġa g
Ġt e
Ġof f
Ġcom p
Ġbe en
ĠS t
Ġu n
s o
Ġ en
p er
ig n
a u
ĠT h
ar y
ac e
i p
Ġy ear
e w
Ġl ike
e re
v en
o ok
Ġin c
ay s
Ġm an
Ġp e
r y
o se
Ġre s
Ġp er
it e
ab le
or d
as s
Ġs p
i re
ĠI n
Ġo ther
m er
Ġs ome
i le
i b
en ce
op le
Ġ20 1
k s
ic al
Ġo ver
ation s
Ġthe re
res s
ul t
Ġd is
ow n
in t
Ġne w
Ġal so
Ġa r
Ġth an
Ġbe c
Ġthe m
an ce
r u
ou nt
ou gh
Ġa pp
p ort
Ġp art
a il
Ġyou r
Ġwhe n
Ġwh at
re e
on d
or m
Ġpe ople
Ġs c
f ter
Ġ qu
as e
a v
ĠC h
Ġj ust
Ġan y
Ġ Y
Ġit s
Ġt ime
ac h
ĠI t
Ġk n
Ġhe r
en s
Ġm y
l ic
Ġre c
Ġ 3
Ġg et
re at
Ġ if
Ġ V
. âĢĿ
i an
Ġint o
Ġwor k
ou nd
ir st
Ġt w
ve l
ct ion
Ġn o
d u
ing s
or y
Ġo ur
ic k
it ion
id ent
or s
o b
Ġp re
Ġpl ay
o ve
an g
Ġ -
in k
au se
w n
t e
ad e
h ing
at es
ar k
am p
Ġs he
Ġ ro
Ġp ol
Ġc o
ver s
, âĢĿ
Ġa fter
n e
Ġc ould
Ġf irst
Ġh ow
ĠH e
Ġ1 9
i ous
Ġa cc
nd er
a w
i ld
on s
Ġh im
' t
Ġp o
Ġat t
Ġon ly
Ġf e
. .
ic t
he d
Ġp r
Ġtw o
o v
r it
is h
Ġs pe
âĢ ľ
Ġcom m
f orm
Ġa ct
w e
Ġb l
f t
er v
. "
Ġbe t
Ġde c
n ing
Ġb ack
c es
Ġm ost
o od
c k
ĠâĢ ĵ
Ġa m
if f
o y
Ġd id
rou gh
at er
rou nd
Ġag ain
Ġ 4
u al
d ay
Ġw ant
is e
Ġu nder
Ġd es
u ll
se l
Ġcon s
Ġbec ause
Ġn ow
l ud
m an
Ġyear s
ĠâĢ Ķ
ent s
ub lic
ter n
e c
Ġne ed
Ġe ven
is s
Ġin v
ĠW e
Ġkn ow
Ġ $
Ġse e
ment s
t ing
Ġad d
c ed
o ld
Ġin d
, "
Ġse c
f ore
Ġe very
u ch
ur n
Ġ 5
Ġsu pp
Ġm ake
pe ct
oc k
Ġthe se
ĠU n
Ġe m
o ll
Ġwhe re
j ect
I n
ation al
x t
ver n
Ġb u
Ġl ook
T h
os s
ĠA nd
Ġd on
Ġe v
Ġw ay
at ing
um p
Ġre m
Ġbe ing
Ġr ight
ro w
i ly
le ct
Ġm ay
n g
Ġthe n
Ġman y
ie w
Ġd iff
Ġre l
Ġde f
as on
ĠB ut
Ġc all
as ed
Ġth ink
on t
ak ing
i ed
ĠT r
l es
Ġinc lud
mer ic
Ġre g
Ġim p
) .
at h
it ed
ri b
Ġth rough
Ġsh ould
Ġ [
e ll
Ġs y
Ġp res
Ġs ay
ur ing
Ġth ose
Ġ very
ow er
t y
Ġf l
Ġl ast
ot her
Ġm uch
if ic
ĠTh is
Ġst ate
Ġsh ow
it ies
t le
at ive
s s
he n
Ġb r
ar g
Ġwe ll
ot h
al s
Ġp h
ĠW h
Ġd own
Ġc ount
- -
u nd
Ġ2 00
Ġdo es
ic s
Ġo wn
Ġu se
Ġbe l
ar ly
Ġ end
Ġas s
an ge
t s
ĠA meric
ter s
Ġl ong
Ġbe fore
in ce
om et
w ard
g r
Ġgo vern
Ġm on
ib le
u p
Ġre port
Ġst art
Ġ ke
u es
ĠN ew
Ġf in
Ġte am
b le
ol og
if e
Ġm ade
re n
Ġsu ch
en er
ers on
) ,
ou n
i x
is m
c om
il ity
l p
Ġgo ing
e k
Ġs m
Ġwor ld
ist s
f ul
u ally
âĢ Ķ
Ġst ud
Ġgo od
Ġa c
I t
t ain
Ġe ff
Ġsu b
Ġg ame
Ġs ur
Ġagain st
Ġs et
or k
Ġg u
it s
Ġpo int
Ġ 6
Ġ ent
y s
ar s
g an
l i
Ġst ill
st em
Ġpro v
rou p
Ġwh ile
Ġhe lp
Ġle ad
ill ion
00 0
Ġo b
Ġm in
c y
e f
an k
im es
al k
a x
we en
m s
Ġs ays
Ġpro du
Ġg r
c ess
Ġs im
Ġin ter
Ġin st
Ġst r
Ġc ol
i o
Ġt ake
Ġcon f
sel f
ar ch
u res
Ġs ame
Ġth ough
Ġdiff ere
e ver
Ġoff ic
Ġc r
Ġbet ween
a h
o ol
oll ow
ut ion
us s
Ġdis c
a ir
Ġo p
Ġh igh
re ad
ĠR e
l and
Ġs ign
Ġl aw
w ay
g g
Ġ ed
Ġn um
am es
n er
Ġgovern ment
h ip
he s
l ed
at ch
c ent
an y
Ġs omet
Ġt er
vel op
t ed
W e
Ġin s
t en
Ġre f
Ġr un
Ġtr ans
Ġs er
Ġf ound
iv es
Ġa round
at her
a ve
Ġhe re
Ġth ree
Ġm ed
Ġm em
Ġre al
Ġus ed
o ot
ou se
v ed
Ġex p
c i
Ġ1 0
ĠY ou
ce pt
a z
Ġre ally
Ġsy stem
v ing
c on
Ġsupp ort
Ġm od
ĠA r
Ġg roup
Ġ 7
c er
in s
Ġc our
et s
al e
Ġh and
Ġp ublic
Ġre t
Ġspe c
y ing
ĠL e
p r
Ġg reat
t on
Ġc ur
ire ct
Ġex t
en se
Ġc ar
al th
Ġw om
Ġf am
ĠI s
ĠC om
Ġf act
Ġf r
ĠTr ump
. [
Ġha pp
Ġex per
Ġd ay
ĠThe y
p h
Ġf ind
Ġc ap
Ġb oth
ut h
Ġre ad
ĠA l
ul ar
Ġl it
o h
Ġre p
Ġd et
in es
Ġs l
ĠS h
ic es
Ġd uring
ĠA s
e red
Ġc re
ak es
Ġb ig
Ġde velop
is ion
t he
m in
Ġp erson
Ġto ld
Ġmon th
Ġ 8
e x
ĠC l
Ġf ollow
Ġs ince
a red
Ġs erv
Ġis s
ic ally
ag es
Ġ 0
Ġwe ek
Ġf ew
m ed
Ġw ar
ord ing
Ġpol it
Ġc ent
i vers
ort h
as h
v es
Ġle g
a j
g et
Ġex pl
Ġl ot
ĠS e
Ġbel ie
Ġg ener
r ic
Ġto o
Ġo pp
d er
re nt
W h
Ġre qu
Ġpro t
Ġcont in
Ġ 9
an c
i et
at a
ent ion
b ers
Ġf il
iz ed
Ġp ut
Ġc le
Ġres p
n ess
Ġan other
Ġsomet hing
ĠI f
Ġin f
Ġdiffere nt
ch ool
ĠD e
ut e
Ġl oc
2 0
Ġinv est
Ġs oc
Ġc or
Ġc he
Ġp ower
u c
Ġhe ad
Ġp ass
i ence
Ġcomm un
Ġre le
ĠF r
Ġar t
Ġl ife
o x
Ġf ar
Ġm et
th ing
Ġv ot
od y
Ġpl an
Ġc amp
Ġth ings
n ed
Ġp oss
ant s
Th is
ere st
Ġ '
Ġm ight
i er
ar ge
ro ss
Ġas k
iz e
v iew
Ġde p
Ġe ach
Ġch ild
Ġne ver
in ess
i k
ĠA n
Ġne xt
Ġm ark
Ġsec ond
Ġqu est
ie ld
Ġde m
ĠF or
Ġad v
Ġcom e
i ent
Ġg ot
Ġb us
Ġb est
Ġ .
it al
t t
Ġop en
ĠTh at
Ġall ow
ĠâĢ ĺ
Ġse em
ĠU S
r at
Ġp ost
Ġfe el
n ce
Ġper cent
ĠP ro
p le
gr am
c l
Ġp ri
Ġinc re
Ġd irect
Ġh ome
u g
i red
Ġd ist
s on
Ġcont ro
ĠR ep
os ed
Ġres ult
or n
Ġh ard
l ess
ate ly
Ġcomp le
ch n
Ġpl ace
Ġc are
Ġim port
Ġa v
con om
Ġin form
Ġinclud ing
Ġwith out
Ġh um
Ġm illion
am a
Ġpro ble
Ġ ide
Ġbu ild
ĠB l
Ġto p
a im
g y
one y
Ġnum ber
Ġcount ry
r al
Ġg l
Ġst and
re t
u ro
ri end
c o
ab ly
is hed
Ġe l
Ġf our
Ġbet ter
w ays
Ġpart ic
Ġm ov
Ġrec ent
Ġt ri
r ation
Ġint erest
B ut
Ġl ess
Ġle t
Ġlit tle
Ġse ason
e ad
l ine
Ġt urn
Ġbe h
1 0
Ġapp ro
Ġb ro
r act
Ġc ase
l ing
is ed
Ġcall ed
a pp
Ġm il
en cy
Ġd r
Ġatt ack
Ġre st
Ġle ft
Ġp op
Ġan n
Ġ Z
ĠThe re
Ġm ove
Ġdid n
Ġke ep
in a
Ġf ull
Ġf un
ĠI nd
Ġm ain
od e
er ing
b e
Ġeff ect
m e
aj or
Ġt est
in al
le g
Ġus ing
Ġpre v
Ġpro gram
at ure
Ġv al
t o
Ġp ay
Ġe ar
Ġpol ice
Ġe conom
Ġw rit
Ġnew s
Ġw in
Ġfor m
Ġp os
Ġs it
ĠAmeric an
Ġd ata
Ġle vel
olog y
in ed
iv ing
Ġch ar
ain s
read y
Ġsm all
Ġl ist
r ap
H e
u ck
Ġe as
Ġwom en
Ġs chool
m it
id ed
g er
' re
_ _
Ġpro cess
Ġch ange
Ġcur rent
ir d
Ġh ist
pl oy
re en
Ġd ri
Ġp rom
us ed
Ġpres ident
Ġcomp any
i ans
ĠS o
oh n
Ġre ce
Ġal ready
Ġm at
ĠUn ited
w it
Ġt y
ru ct
Ġwh y
Ġb re
Ġex pect
Ġu nt
ĠH ow
Ġm oney
Ġs ol
Ġte chn
Ġl ater
ĠO b
Ġal ways
r on
ĠS he
Ġb ook
Ġoffic ial
Ġ Q
st and
Ġbus iness
a ign
Ġpro ject
ĠP h
Ġb o
Ġth ing
Ġor gan
as es
Ġcl ass
Ġcl aim
Ġinform ation
Ġt alk
ivers ity
.. .
Ġab le
a ff
Ġj ob
ard s
Ġch ang
Ġre se
le ction
Ġdes ign
Ġpro f
Ġv is
Ġm ajor
Ġf ree
Ġst ory
iv en
ur s
ĠB e
ĠC an
er tain
Ġhe alth
Ġp ast
Ġ- -
he re
Ġo per
i or
Ġm ust
Ġa way
ĠA d
Ġc ity
ou th
Ġs k
amp le
s c
uth or
pt ion
r ist
ur al
Ġimport ant
Ġhapp en
Ġk ill
Ġp at
ac y
u red
Ġg row
ur y
Ġ1 8
Ġo ld
end ing
Ġle ast
ur ity
Ġdoes n
iss ion
Ġ est
Ġv ar
ain ed
Ġc ost
Ġ =
id es
ne y
Ġm en
Ġcamp aign
Ġcon st
ĠG o
Ġh op
Ġte ll
S t
el s
s ide
Ġ1 2
Ġd ays
Ġst re
Ġc ame
âĢ ¦
id er
Ġed it
Ġa ff
Ġen ough
res ident
ĠM ar
Ġv iew
Ġm aking
o ad
Ġk ind
5 0
er n
cc ess
er al
Ġrec ord
Ġl arge
ĠS p
Ġm ar
us h
Ġf riend
Ġfam ily
le y
Ġe lect
b y
Ġpol ic
Ġt ax
at or
Ġpolit ical
A s
Ġv ide
al ity
is ing
Ġunt il
if ied
pp ed
iv ed
are nt
r or
Ġde b
e e
Ġde al
ion al
-- --
au gh
al f
Ġwork ing
I f
ri es
ĠJ ohn
b s
ĠRep ublic
Ġto ok
an e
u ed
Ġl ine
is ter
ain ing
Ġ ve
Ġ es
Ġa ir
1 1
Ġact ually
Ġme an
Ġbec ome
Ġf ore
ĠP l
oc rat
Ġin tern
em ber
i ol
ap s
on y
w are
w ork
Ġof ten
Ġg ive
Ġf und
ĠS c
ot t
Ġacc ording
an n
Ġe ver
Ġfor mer
Ġw on
ĠE uro
Ġg ames
o int
m ost
y ear
ar ing
w h
en g
Ġwor d
iz ation
Ġt imes
Ġn ame
Ġhum an
Ġret urn
Ġb as
Ġor der
Ġb it
g in
Ġde v
ĠD em
1 9
ĠR uss
i qu
ĠA ll
Ġp ar
Ġper form
is on
Ġmark et
ut ure
ĠM c
ra ft
Ġs ing
f or
Ġse ver
Ġ19 9
ĠS y
Ġw r
ic le
ĠA t
The re
it her
ĠC on
Ġdo ing
ĠO r
Ġchar ac
ro p
Ġapp ear
Ġf ac
id d
s h
ak en
m ber
Ġn ight
Ġplay ers
c hed
ĠM ay
Ġto day
Ġr a
Ġl a
Ġle ar
Ġe arly
Ġha ving
Ġse en
Ġp ot
Ġsoc ial
Ġev ent
Ġc rit
Ġmed ia
E R
Ġ1 5
Ġchild ren
ĠP resident
art ment
id ence
Ġwhe ther
/ /
Ġme et
en e
Ġcontro l
ious ly
Ġsu re
Ġw ent
Ġsever al
Ġp ress
Ġpro p
Ġf ive
at s
Ġquest ion
Ġe qu
Ġw ater
Ġyou ng
ĠY ork
or ies
un e
i um
Ġo cc
Ġmil it
ot s
b r
Ġlike ly
Ġex ample
and s
Ġc ertain
Ġmem bers
Ġd one
i ver
Ġar g
Ġan t
Ġs ide
ĠC ol
Ġ vers
ĠSt ates
Ġsh ort
Ġen g
le t
Ġinv ol
ĠM r
en n
Ġsu ccess
ent ial
Ġal ong
end ed
b all
ĠEuro pe
em pt
ver t
i ally
Ġh our
l f
A nd
1 2
Ġf ight
ag ue
Ġse x
Ġact iv
Ġ ,
st er
Ġwith in
Ġdes c
ĠOb ama
ub l
Ġcour se
Ġmonth s
u ff
it ing
Ġon ce
ul ation
Ġf uture
Ġinvest ig
ĠO n
Ġam ong
re w
n ect
Ġunder stand
Ġa uthor
ort un
our n
Ġposs ible
gg est
ur ch
ĠB r
Ġch o
Ġcon cer
Ġthough t
Ġme ans
im ate
Ġproble m
Ġkn own
ĠC ar
Ġav ail
it ive
Ġv iol
Ġpri v
g ress
m y
on es
Ġ1 1
l er
Ġprodu ct
ĠN o
Ġprot ect
oc i
iv id
Ġy et
al d
Ġac ross
Ġm akes
Ġn on
Ġf ail
Ġh old
Ġloc al
ĠT e
Ġsu ggest
Ġcommun ity
Ġre ason
âĢ ĵ
in c
ed eral
ĠW hen
Ġ ]
ĠSt ate
b ack
Ġ &
Y ou
p or
n ot
Ġor ig
ver age
Ġm us
Ġask ed
Ġ201 6
ens ive
Ġother s
Ġg iven
Ġreport ed
Ġbelie ve
Ġl ight
Ġvide o
or ld
ag ed
b ook
i ber
Ġstr ong
Ġget ting
Ġpro b
Ġb en
an ces
o ber
ĠH ouse
it ions
Ġann oun
Ġ ident
ir on
Ġc a
ore d
Ġl im
Ġ3 0
Ġs ent
Ġ i
ĠC o
iet y
Ġs our
3 0
ĠCh rist
Ġc reat
as hing
am s
ĠUn iversity
ur ther
Ġc ut
. ,
Ġcon d
' ve
am ent
Ġn et
ar m
Ġl and
Ġcl ose
Ġb at
Ġn ational
Ġsa f
Ġind ust
Ġstart ed
F or
Ġavail able
ĠM in
Ġacc ount
Ġde ath
res ent
Ġb ased
Ġh ig
Ġl ow
o f
as ter
ĠDem ocrat
Ġfollow ing
u se
Ġhist ory
Ġpart y
Ġiss ue
ĠC ent
Ġl ove
ort s
re st
Ġm om
Ġ201 5
Ġ X
sel ves
u ment
Ġag o
ut es
ab ility
Ġtr ying
Ġcom es
Ġem ploy
p ro
get her
Ġto gether
in ation
her s
Ġal most
Ġf oc
ĠA m
u ly
ĠF l
e b
ĠAmeric a
Ġide a
re ed
Ġacc ess
Ġser ies
Ġcomm it
ie f
il ar
A T
ĠS en
ail s
Ġtr ad
Ġcle ar
Ġpr act
Ġis n
Ġimp ro
ition al
ĠO ne
Ġ #
ra el
Ġ1 6
ĠWh at
Ġadd ed
th ough
ĠB ro
Ġexper ience
un ch
wit ter
Ġh it
1 5
ere nce
ust om
Ġh alf
int on
a f
g ed
Ġ201 4
Ġfil m
Ġlook ing
Ġr ul
Ġany thing
og rap
Ġan al
Ġs ix
r ing
Ġm iss
ivid ual
Ġl ive
Ġcomple te
Ġare a
Ġf av
ra w
Ġr is
a i
min ist
ĠCom m
Ġsay ing
r ict
ĠE x
Ġpres ent
n es
ot e
a id
ĠCan ad
er man
ci ally
e v
Ġb ad
ĠE ng
ru g
u ge
Ġa ut
Ġt aken
Ġv ict
ĠP r
Ġcour t
er t
ĠT o
Ġb ill
Ġcomp et
Ġph ot
at ors
ow s
Ġent ire
Ġbeh ind
pl ay
Ġtr y
Wh at
' m
Ġne ar
Ġ z
i en
ward s
ĠP ol
I N
Ġpro per
Ġt re
Ġf ace
Ġm ult
Ġm or
Ġmilit ary
Ġsec urity
Ġ Â
Ġstud y
s y
Ġr ather
Ġ er
Ġ1 4
ĠD on
Ġdisc uss
Ġqu ick
ĠW ar
Ġsing le
Ġth reat
Ġf ood
os p
Ġind ividual
Ġp ubl
Ġ |
Ġto t
A n
Ġm ind
ĠM an
Ġwant ed
ĠS ec
Ġf all
ap er
ir c
ĠA f
Ġpolic y
ĠB rit
am ed
id s
al es
ĠG r
ĠN orth
at ic
Ġsome one
o ff
ĠD ep
O n
Ġm ess
le ment
Ġplay er
Ġre du
ll ing
Ġbr ing
Ġke y
p ar
r is
Ġcomp an
Ġc ult
Ġbl ack
Ġatt empt
Ġspec ial
tt p
Ġcom b
Ġs um
p ly
Ġt aking
ĠN ational
O N
if y
ĠIs rael
ĠB ar
W hen
v iron
ashing ton
Ġf oot
ol ution
d d
Ġ1 7
Ġ1 3
Ġsp ace
ic ult
Ġfr ont
Ġpre t
Ġrese arch
Ġ /
Ġel se
el t
g o
Ġprob ably
Ġb ody
1 6
Ġnot hing
ĠCl inton
ro te
c hes
Ġc ou
. )
Ġcon nect
ĠI m
a ult
ĠC al
ĠC ity
ĠW orld
Ġcom ing
m ing
Ġs w
Ġj o
Ġdesc rib
o ver
Ġhow ever
Ġben ef
Ġc oun
Ġsim ilar
c ing
Ġpoint s
Ġsign ific
li er
an a
: //
re me
1 4
* *
y n
ull y
Ġfe at
Ġim m
R E
S o
Ġe ither
Ġex ist
ĠH ar
Ġdec ision
Ġt arg
ĠA ust
Ġ201 3
ac es
Ġs us
ir l
Th at
Ġen c
Ġcon v
Ġm ass
Ġw a
m b
Ġright s
ĠS u
Ġd oc
I S
Ġcre ate
un g
Ġh ouse
as ing
Ġf ire
Ġch all
Ġst op
Ġf urther
Ġw rote
Ġb an
Ġp ick
s w
Ġf ig
Ġst ep
Ġf ield
Ġrel ations
Ġre pl
n ow
Ġbe gin
ĠW ith
Ġcom pl
Ġserv ice
Ġth ird
ro du
Ġf ederal
a pe
ive ly
ri ed
ĠW ashington
pe cially
Ġwho le
Ġseem s
r an
pp ing
Ġiss ues
ent ly
Ġme as
Ġc and
am er
Ġcompan ies
Ġ :
Ġex ec
Ġtr a
Ġevery thing
Ġl ab
Ġsu per
ĠJ an
p ite
he ad
ib ility
ĠG u
u ation
Ġe y
1 3
Ġinf l
A N
Ġ201 2
o on
Ġw atch
ĠHow ever
C h
Ġd ue
id ay
Ġse lf
Ġst ates
il t
iv il
Ġc ustom
er y
Ġro om
at t
Ġs ound
Ġrele ased
Ġlead ers
Ġro le
Ġfin al
Ġd am
Ġofficial s
a ul
ob al
Ġd ou
Ġst ri
ĠA pp
ĠG e
ĠIn st
w w
Ġbe gan
Ġdevelop ment
Ġpos ition
Ġmat ter
Ġo pt
end er
Ġcharac ter
e al
ĠP art
viron ment
Ġout side
Ġstud ents
ĠD av
l ike
Ġen er
ĠS outh
Ġ201 7
Ġt reat
Ġstate ment
Ġbre ak
l im
se c
Ġprov ide
Ġab ove
Ġin it
ĠIn tern
Ġhim self
Ġst at
Ġrep resent
Ã ©
Ġhour s
Ġit self
ad es
Ġthem selves
Ġam ount
l ish
Ġa ction
Ġcontin ue
Ġ19 8
Ġspec ific
Ġg un
Ġne g
Ġoff ice
Ġgener al
ĠA ss
Ġadd ress
Ġcount ries
Ġbec ame
Ġ2 5
ĠR es
ograp h
ar ter
i od
Ġsim ply
ac ed
Ġl arg
um b
re g
Ġsignific ant
' ll
Ġwas n
og le
as k
Ġinter view
Ġdiff icult
Ġ1 00
ĠJ ust
Ġr ad
og n
Ġtr ue
ĠE d
Ġg round
ace book
.. ..
Ġb ar
o id
Ġev idence
Ġc op
Ġvers ion
Ġrun ning
Ġmus ic
Ġresp ons
il i
B C
1 7
Ġad minist
Ġshow s
Ġevery one
Ġprof ess
Ġd i
Ġgroup s
Ġd rug
Ġneed s
Ġwom an
ourn al
Ġag ree
Ġb all
l am
Ġbuild ing
re am
e ks
Ġty p
l ight
Ġd om
Ġt em
idd le
ang u
Ġl at
Ġin j
Ġd est
Ġcomm on
Ġneed ed
ĠCh ina
ĠA b
r ight
Ġrele ase
Ġex c
Ġbel ow
if t
ĠM ed
A R
ĠG erman
Ġsa w
Ġpret ty
Ġ )
Ġqu ite
Ġinclud e
Ġindust ry
Ġplay ed
Ġde ep
Ġplay ing
Ġcand id
rib ut
1 8
b ody
iv al
is c
Ġ5 0
Ġm ot
Ġm ag
Ġa p
Ġch arg
ĠH is
Ġph ys
Ġs ense
Ġener gy
Ġwh ite
ã ģ
Ġal leg
Ġg en
at ur
H ow
Ġfriend s
Ġinst ead
Ġval ue
ĠW est
Ġl ate
Ġleg al
Ġes pecially
w here
Ġb illion
ĠA fter
Ġl ost
y le
b o
Ġab s
Ġan im
Ġe lection
Ġre d
ĠM us
Ġh ost
le v
os ing
A S
ĠNew s
or ing
Ġh om
ag er
t ime
Ġp le
cc ording
e ed
Ġfor ward
Ġrecent ly
Ġob ject
ist ic
ĠT witter
Ġchang es
Ġwe eks
Ġsu ff
iqu e
Ġvot e
Ġj ud
om m
ĠN ot
ri pt
Ġdet er
ir t
ep end
Ġtr ack
ar c
Ġso on
Ġopp ortun
Ġs ite
Ġeconom ic
ĠW ill
Ġlong er
ĠO ct
l t
ĠWh ite
Ġp ain
Ġac cept
Ġe p
Ġhop e
Ġper iod
med i
ĠM y
ac hed
Ġsh oot
Ġl o
h od
Ġmom ent
Ġche ck
o e
Ġdec l
ĠDep artment
Ġrel ig
o ke
ir m
op h
Ġbl ock
i j
Ġwr ong
Ġpot ential
Ġsh are
Ġcons um
Ġp ie
ĠC ong
Ġt it
o le
ĠSe pt
Ġc red
Ġfoc us
Ġ2 4
n ers
Ġfun ction
Ġp red
Ġhig her
Ġwor ks
ĠD r
Ġon line
anc ial
Ġgo al
ove red
2 5
le ge
Ġc irc
Ġw alk
ĠM arch
on se
Ġcons ider
du ct
id ing
c ial
Ġst ay
Ġwe bs
Ġst ru
ul arly
ke y
Ġl ed
le ar
Ġhe ld
Ġre ve
Ġp arent
Ġword s
Ġre v
ĠRepublic an
n s
ĠThe se
Ġresult s
Ġed uc
ĠSy ri
Ġc ode
Ġa ge
Ġre view
ic ro
Ġris k
Ġc e
Ġcont ract
Ġlaw s
The y
f ect
Ġw ind
Ġperson al
Ġapp lic
u ary
h am
p ut
Ġa ud
c il
a ut
Ġso ld
ĠJ une
Ġmin utes
ĠM e
it ution
Ġany one
Ġtot al
ĠM ich
as ons
Ġart icle
il ities
ap an
ur d
ĠA ug
i ents
Ġh y
Ġfav or
h aps
ate g
A d
Ġpr im
Ġ {
Ġtarg et
ĠP e
Ġne cess
ang er
Ġpop ular
Ġ201 1
Ġan sw
Ġexp ress
n a
u le
Ġsc ient
Ġv ol
ag ing
c he
Ġserv ices
Ġd en
Ġear lier
f er
E S
al t
Ġexpect ed
__ __
Ġen vironment
Ġcre ated
v al
Ġup d
pr il
ĠP ar
Ġde ad
Ġcomp ut
Ġsur pr
Ġtechn ology
Ġres pect
re et
u el
Ġproble ms
Ġb ase
Ġeas y
A l
Ġp ort
Ġant i
ud e
om b
ĠSt e
Ġincre ase
Ġr ate
te e
Ġsh ot
Ġw ays
ip le
r ay
is l
Ġquest ions
end s
at ives
Ġp ur
et er
Ġcom ment
Ġimp act
act ion
Ġrece ived
Ġcan not
b it
ĠJ uly
Ġ <
ĠD o
Ġfor ce
ĠS m
Ġpriv ate
Ġannoun ced
ater ial
on st
ĠM ond
P h
her n
Ġ +
av ing
Ġ19 7
ĠG od
ĠE n
ĠF acebook
Ġp ack
6 0
ill s
Ġl angu
Ġinvol ved
ĠCong ress
= =
h ood
pl es
Ġd iv
Ġmod el
Ġc ivil
Ġrelations hip
Ġs en
Ġexec ut
Ġspe ak
Ġex act
ĠAust ral
ues day
T o
it iz
Ġe t
Ġst aff
le x
our t
Ġty pe
i res
Ġne arly
Ġc ases
ĠFr iday
Ġob s
ĠA ct
Ġins ide
ĠR ed
Ġter ror
e ch
ok es
ĠGo ogle
Ġf ans
e es
ĠC ount
Ġle ave
Ġcont ent
ll ed
re m
Ġresp onse
Ġorig inal
k y
Ġco ll
Ġintern ational
Ġ ur
Ġcap t
Ġl iving
Ġc al
ell ig
Ġus ers
Ġreport s
A t
Ġkill ed
Ġar rest
ĠA pril
Ġw orth
Ġbec om
Ġc ell
Ġcl ub
Ġsour ce
Ġbro ad
Ġo il
at ural
ip s
c ast
Ġn ation
ĠMond ay
g ing
Ġa verage
ĠP er
Ġ201 0
Ġwork ed
Ġgl obal
ot o
ĠT uesday
m on
Ġch ance
Ġwe ap
ĠE m
ĠAmeric ans
Ġhe art
est s
ĠP al
it es
b or
re l
Ġest ab
Ġim medi
Ġso ft
Ġt akes
op s
j oy
e xt
Ġpubl ished
Ġab ility
Ġdirect or
Ġde l
a el
Ġro ad
Ġresp ond
Ġpr ice
Ġsub ject
Ġwork ers
ct or
Ġter ms
he l
olog ical
is es
E N
Ġass oci
Ġcol lect
ĠJ apan
iz ing
Ġdef in
Ġm other
rough t
os ition
Ġl og
Ġe mer
Ġfin ancial
ĠWh ile
ĠW ed
Ġl ack
Ġm id
Ġdec ided
Ġg ave
Ġ4 0
Ġt ou
Ġst ore
Ġs qu
ove mber
Ġinfl u
ĠRuss ia
Ġbu y
ĠS ome
Ġph one
r ain
Ġg irl
Ġrequ ire
Ġcap ital
Ġf em
ĠN ow
un t
O R
" .
Ġhappen ed
cl us
ĠB y
Ġsit uation
Ġfore ign
Â Ń
ro wn
Ġoff er
Ġcurrent ly
Ġwho se
Ġl ives
b ased
Ġt al
Ġgo es
urs day
ĠO ff
vert ise
ĠS an
Ġm aterial
ĠJan uary
Ġteam s
ĠCal if
e g
Ġaff ect
O ne
Ġpl ans
Ġp ict
ov ed
4 0
Ġmeet ing
ĠA g
Ġmet hod
ĠH ill
Ġpartic ip
nes day
Ġar ri
ĠF eb
Ġrec ogn
Ġmem ber
Ġp age
ct ions
Ġind ic
ru ction
ĠS und
Ġturn ed
Ġb ank
f ully
ough t
Ġh uge
Ġn orm
Ġev ents
Ġnet work
ĠSept ember
ĠGe or
Ġsim ple
Ġto ol
in o
ĠT V
b l
Ġreg ard
Ġ @
l oad
ou d
Ġare as
et y
ord er
es e
Ġc y
ĠIs lam
Ġperform ance
Ġ ill
ĠE l
Ġcou ple
Ġr ound
Ġint rodu
" ,
ĠG l
Ġappro ach
Ġcare er
Ġquick ly
Ġor d
ĠN ovember
a ur
ĠC or
Ġem ail
Ġh on
Ġimpro ve
ap t
Ġm is
Ġf elt
Ġde li
---- ----
a ily
Ġadminist ration
Ġ2 1
Ġv ia
ĠTh ursday
ĠWed nesday
Ġp ers
ch ie
Ġnum bers
Ġvict im
ĠAf ric
ĠDav id
Ġr ace
Ġf re
o or
ĠA ng
Ġd ig
Ġhe ard
av y
Ġf ather
Ġth ous
Ġeng ine
S h
ruct ure
Ġp ull
Ġbu ilt
an i
Ġhand s
Ġwebs ite
im ent
Ġeconom y
Ġb oy
en ed
um e
ight s
l in
Ġw ide
Ġco ver
ĠP aul
Ġl oss
d own
âĢĿ .
ĠEurope an
ce mber
Ġprodu ction
at ory
ĠC ourt
Ġreve al
Ġh ttp
Ġ2 2
us es
Ġte xt
ĠOct ober
Ġsec ret
Ġtr ade
Ġtra vel
Ġsp ent
Ġen joy
Ġst e
Ġm atch
Ġpo ll
Ġallow ed
ĠS ch
ĠAug ust
Ġleg isl
Ġto wn
f ace
orn ia
Ġre pe
Ġbo ard
Ġbeh av
Ġkn ew
or ters
Ġwant s
en ces
ict ion
Ġinclud ed
Ġl ower
W ith
ĠCanad a
? âĢĿ
Ġne igh
2 00
Ġmove ment
g est
an ks
ra z
Ġb i
Ġper fect
ess ion
Ġget s
Ġvis it
Ġtri ed
ĠSund ay
g round
u k
re ct
Ġatt ention
age ment
ĠBrit ish
is hing
es tern
Ġse par
A fter
A L
Ġf ear
Ġpartic ular
Ġc ause
Ġfor ces
Ġvar ious
en ing
Ġre ach
ce ed
Ġgrow th
for ce
ur ning
ĠU K
ĠQ u
Ġm ention
ib ly
Ġv o
m a
Ġlook s
Ġen s
Ġpro gress
ak er
Ġb rought
ar ily
Ġb ud
Ġpop ulation
Ġmor ning
c le
Ġf air
se qu
Ġprev ious
Ġ2 3
f ield
ĠP ost
und red
ĠRuss ian
h old
i am
Ġs ize
ĠH er
Ġrul es
Ġ }
) ;
Ġve h
z e
ĠS w
Ġtr aining
y ond
Ġs ong
] [
ĠDe cember
all ed
Ġcont act
Ġfe ll
Ġdem and
c ies
Ġh ot
Ġl ink
ĠK ore
ĠCalif ornia
Ġse arch
ide red
Ġim age
Ġlead er
E D
U S
ident s
ĠC ont
' d
ec ause
o o
s et
led ge
c ome
Ġh or
Wh ile
Ġc itiz
Ġstru gg
Ġr ac
Ġpre p
Ġl iber
ĠSt reet
Ġlat est
O S
Ġ ess
ond on
Ġspe ed
ific ation
f l
ĠBl ack
Ġco ach
Ġst ar
Ġf ast
ĠP at
A C
ellig ence
Ġfeat ures
sy ch
u ments
ĠI S
in ks
Ġtalk ing
ar ies
Ġind epend
ra q
ĠPart y
ĠT imes
et h
Ġup on
i ant
Ġex am
b ed
ĠCount y
om p
ĠP ark
il le
ĠSen ate
Ġdo ll
9 9
ap h
ic les
ar th
g es
Ġw ond
Ġadd ition
Ġinvestig ation
v ent
Ġmed ical
Ġu nd
im ately
I T
Ġa chie
atur day
p ir
Ġlevel s
op e
er ve
Ġre b
at form
Ġsl ow
Ġcons idered
Ġs n
Ġcrit ic
ĠI ran
ĠCent er
ĠT ex
he t
un k
Ġ200 8
Ġlangu age
Ġcon duct
T r
u f
ys is
Ġs ort
2 4
ĠK ing
Ġc ard
Ġs ens
Ġp en
h a
p s
w o
Ġcons erv
Ġp aper
Ġsex ual
e ared
Ġ â
Ġdoc ument
u it
Ġd raw
ig r
Ġse ven
Ġhe ar
Ġparent s
I C
as c
ist an
Ġm ach
im in
Ġpri or
Ġincre asing
Ġsystem s
id ge
Ġlear n
ru ary
ĠJ ew
ĠInd ia
Ġsp okes
Ġreg ul
Ġsee k
Ġwrit ten
Ġeff ort
Ġb ox
Ġprev ent
our ces
ĠMus lim
Ġcon c
Ġext reme
ĠI raq
in ing
Ġ200 9
Ġser ious
Ġob v
ic o
8 0
r ast
O P
Ġcomplete ly
t r
Ġjob s
Ġj ournal
S he
ro om
Ġsur ve
e ff
ĠM ark
ĠR om
Ġdou b
Ġr ange
Ġsc reen
Ġdes pite
Ġs on
reed om
Ġviol ence
Ġe ight
Ġinterest ing
2 2
it ch
Ġclaim s
Ġin n
an ced
er c
ĠL ondon
Ġattack s
ab or
Ġpartic ularly
ren ch
Ġopportun ity
Ġext ra
Ġgu y
ib r
Ġare n
Ġbig gest
Ġmajor ity
Ġmess age
m p
ĠE ast
Ġsoc iety
is ions
uc lear
ĠM ore
ĠCh ar
Ġansw er
Ġsc ience
Ġpract ice
Ġcar ry
vertise ment
u x
ĠDon ald
Ġqu arter
ent ially
Ġexact ly
ĠS and
am ing
Ġmod ern
Ġrequ ired
ĠK e
Ġ ...
Ġp aid
Ġdef ense
ill ed
ĠN et
Ġh undred
ĠS aturday
Ġc ross
ly ing
Ġrem ain
Ġt able
ar i
Ġn atural
Ġlook ed
in ally
Ġsur v
A M
Ġr out
Ġexper ien
ut ions
i ers
Ġex cept
Ġcommun ic
n ces
Ġhist or
Ġoffic ers
et t
Ġmov ie
ens ion
Ġdet ails
Ġcertain ly
Ġm iddle
av es
Ġ2 7
Ġg as
Ġsomet imes
Ġl ay
os es
Ġfin ally
Ġst uff
Ġd ro
Ġst ories
Ġproduct s
Ġcl imate
Ġa w
ic ks
Ġqu ality
ad d
Ġim ag
Ġcon vers
Ġlead ing
ĠFeb ruary
Ġter m
ĠMc C
Ġchang ed
ar r
Ġdescrib ed
ines e
ous ly
co in
Ġus er
Ġsum mer
Ġp an
Ġu lt
ĠM or
ĠS pe
Ġcost s
id a
Ġshow ed
ak ers
Ġg iving
Ġf it
osp ital
pp er
Ġon es
Ġstart ing
Ġdam age
n y
Ġpo or
Ġocc ur
Ġrem ains
Ġprov ided
Ġdem onst
h ib
u ing
Ġd anger
Ġbl ood
Ġch ief
Ġn amed
Ġm ob
Ġreg ion
Ġgrow ing
y l
ĠC he
Ġmult iple
N o
en ge
Ġp ath
Ġincre ased
augh t
Ġpur p
Ġthink ing
Ġcom ments
F L
Ġcontin ued
Ġm ent
Ġwrit ing
ĠS oc
Ġread y
Ġpr ison
in ary
p re
ab les
ĠE ven
Ġmain tain
Ġass ist
Ġd ied
ag o
Ġeduc ation
ĠLe ague
Ġwould n
Ġc amer
Ġf ix
Ġf ile
Ġ2 8
Ġpart s
Ġvot ers
Ġsaf e
ĠD es
2 3
ĠI nt
Ġm ill
ĠRepublic ans
Ġwr ite
Ġ *
ĠDemocrat ic
Ġ2 6
ĠT ur
Ġce le
f ort
Ġeff orts
Ġrequ est
im inal
Ġh ous
mit ted
al y
ĠC oun
Ġimp lement
Ġp urch
Ġper haps
op er
Ġcult ure
I m
Ġav oid
Ġgu ys
Ġread ing
Ġsp ot
z z
b an
ar ian
ĠF irst
Ġit em
ĠT H
Ġcall s
Ġeffect s
Ġpl atform
ĠB ill
Ġspe ech
Ġal though
ĠTex as
ĠG ener
Ġto wards
Ġstand ard
Ġreal ity
d e
ĠJ ames
Ġfoot ball
Ġal one
Ġus ually
Ġk ids
il es
Ġsc ene
Ġcould n
row d
Ġdirect ly
Ġun f
Ġse lect
Ġcons ist
Ġbe yond
ĠC ons
us ing
ĠN e
f ord
Ġcomple x
A A
it ute
Ġ ver
Ġsub st
ic ated
ou l
Ġ( @
ar a
Ġcent er
ur t
ĠMich ael
an ch
Ġchall eng
B I
Ġcl os
R e
ur g
Ġw ife
Ġinclud es
ĠB o
Ġthrough out
Ġsaf ety
Ġimmedi ately
Ġcon cept
e gr
Ġs le
s p
it or
Ġstud ent
Ġt ro
Ġcho ice
Ġrese arc
Ġrem ember
ĠCh inese
Ġro b
Ġc at
Ġadd itional
om en
Ġdeb ate
ac hes
Ġc ast
ĠMin ister
Ġoffic er
w ise
A ll
he st
Ġep is
Ġbl og
ress ion
ĠJ ack
st on
Ġrec omm
Ġ il
ĠPl ay
Ġg one
Ġto ward
Ġcoun ter
Ġt en
Ġcor por
Ġst age
Ġdesign ed
Ġa head
Ġs we
Ġop in
Ġbr ain
il ies
Ġbat tle
N ow
Ġag ency
Ġthous ands
port s
Ġfig ure
Ġrel ative
ic ient
Ġse ll
Ġsoft ware
ir th
ru pt
ad em
Ġpie ce
ast ic
o es
Ġmov ed
im um
ĠInd ian
Ġro ck
Ġmean ing
ate ver
ĠM on
Ġs il
Ġlet ter
Ġrece ive
Ġpre c
air s
ber g
Ġappear s
Ġdo g
Ġtw e
Ġla unch
ol ute
Ġpress ure
ro y
ag on
Ġproper ty
ĠI I
amp ions
ĠApp le
Ġorgan ization
Ġ ut
j ust
ĠâĢ ¦
Ġcle an
ĠR ich
m en
Ġhelp ed
Ġo ption
Ġ6 0
Ġ x
augh ter
ĠG reen
Ġpass ed
Ġalleg ed
ĠS er
Ġdis app
Ġsc ore
iv ity
Ġd ark
ĠAss oci
Ġcr is
m ore
ĠThe n
O T
Ġre asons
Ġdev ice
Ġs at
Ġp ark
Ġn uclear
Ġ ign
Ġcond itions
ĠS im
ri ef
n ew
? "
Ġmay be
Ġdri ve
it ation
Ġmov ing
Ġenc our
Ġd ate
Ġn ature
ch an
Ġtou ch
Ġsus pect
Ġdiffere nce
ĠEng lish
ĠM art
Ġmy self
Ġ >
Ġf an
Ġt our
w ood
Ġn om
Ġde g
ĠS erv
ĠDemocrat s
Ġhapp y
ock ed
Ġbegin ning
Ġar ch
Ġcharac ters
Ġcop y
Ġfail ed
Ġa im
Ġbud get
Ġcomp ared
Ġtit le
ĠSu per
Ġle ague
le ase
Ġcomm and
ci ent
2 7
ĠH ere
am b
Ġcol lege
Ġy es
Ġcomput er
Ġsh own
Ġpower ful
Ġey es
our ce
Ġst ra
Ġw all
Ġcandid ate
ĠSt ar
Ġnecess ary
Ġb and
y an
ĠD ay
Ġlim ited
ain t
A D
Ġs al
ig ration
4 5
uf act
Ġbook s
Ġest im
ĠF rench
ĠV al
Ġsc he
ent y
Ġb al
Ġcent ury
ĠR ober
M y
Ġdis p
Ġcont ribut
ĠO f
ĠSyri a
Ġfor ced
Ġpos itive
a ud
Ġcitiz ens
Ġanal ysis
Ġref er
Ġtr ust
Ġlarg est
Ġc rowd
Ġa ware
Ġsp ending
Ġpresident ial
c ul
Ġme ant
3 5
ĠT or
Ġth row
Ġm ix
Ġevent ually
Ġschool s
c raft
Ġrelig ious
Ġconf erence
ĠM ex
Ġexecut ive
or ney
Ġconf ir
2 6
Ġco ol
or ks
Ġeas ily
Ġil leg
Ġfe ature
ven ue
Ġphys ical
ĠB en
Ġaut om
Ġfam ilies
Ġ19 6
I s
Ġfe ed
a res
Ġfollow ed
ĠA ir
ĠW ind
Ġstre ng
ĠD is
Ġf irm
B e
Ġb ott
Ġp us
Ġyour self
Ġes c
Ġd raft
Ġh ar
b and
Ġact ions
r ated
Ġg ives
Ġnot e
bo ard
Ġdet ail
Ġapp eared
A P
Ġgr ad
b um
Ġallow s
Ġover all
ir ing
er o
Ġtreat ment
ress ed
Ġ2 9
B y
Ġsus p
k en
Ġweap ons
Ġpolit ics
Ġinc ome
Ġun ique
Ġcent ral
ub e
Ġsen ior
Ad vertisement
Ġgo als
Ġanal y
Ġfre qu
Ġsign ed
Ġus es
Ġdis play
Ġan g
D on
en cies
E C
Ġide as
Ġsm art
ut y
Ġcred it
ĠIntern ational
et ro
Ġtr uth
b ox
ĠB el
ĠGo vern
Ġcr ime
Ġn ice
A ccording
O M
Ġl if
Ġal tern
ĠS chool
Ġdec ades
ĠB re
Ġp sych
Ġprom ot
Ġbenef its
i able
Ġs ales
Ġcris is
Ġdevelop ed
N ew
) :
Ġdis e
ĠJ er
Ġm ist
p art
on ents
res h
Ġ Ð
Ġproject s
in n
ite ly
ĠC ap
Ġdo or
Ġpred ict
ur ance
Ġrel ated
Ġcontin ues
Ġapp arent
I D
Ġint elligence
Ġd rop
Ġcustom ers
r s
m ar
Ġconf lic
ĠUn ion
Ġindividual s
Ġnot ed
ĠAng el
Ġchall enge
2 8
ĠÂ £
Ġst o
ĠPol ice
Ġr ap
Ġfull y
Ġl ic
ĠAustral ia
Ġobs erv
Ġr ule
P ro
Ġr ates
Ġprev iously
Ġbe aut
Ġch arge
Ġman ager
Ġbro ther
Ġadv ant
ĠAr ab
in y
ch ange
ĠE arth
Ġlarg er
E T
Ġmeas ure
2 9
Ġstra ight
Ġl ines
ot i
ri age
Ġcor rect
Ġsuccess ful
Ġseem ed
Ġprim ary
ĠE U
2 1
n own
ĠChrist ian
or ter
Ġre form
ĠSm ith
Ġcle arly
Ġsp read
Ġinc ident
Ġhigh ly
Ġpe ace
ĠT om
Ġres ources
Ġexp and
3 3
at tle
ant ly
Ġem b
Ġatt ract
Ġcr iminal
k i
Ġprogram s
ot a
ĠA nt
S ome
ĠGeor ge
Ġwe b
Ġsp ir
ate gy
ĠGerman y
ic ed
in ated
ĠD ef
ound s
n et
ĠIntern et
Ġmin or
Ġpre m
ĠFr anc
i ance
Ġtr aff
Ġstud ies
wh ile
ow ers
e an
ĠCoun cil
Ġar m
ĠFl or
Ġr are
U n
ĠCom p
1 00
Ġfavor ite
ĠC r
ĠBro wn
ĠH igh
Ġgreat er
Ġpl aces
Ġke pt
Ġsa ve
Ġshoot ing
qu e
Ġknow ledge
ĠR ec
ic it
Ġre ached
Ġcol or
Ġman ufact
on ent
I A
od ay
v ille
ĠH am
Ġla un
Ġactiv ity
ic ago
Ġfe et
sec ut
Ġs end
Ġsour ces
oc ks
Ġfight ing
ol ic
ter m
se y
ĠB er
id ers
Ġreg ular
os h
Ġp un
Ġr ise
ĠR ob
Ġknow s
Ġf ine
s er
Ġsp end
ing ly
Ġown ers
d om
ĠG old
A r
ĠL a
lev ision
Ġca used
Ġem ot
ve re
Ġen em
Ġvo ice
Ġorgan iz
Ġclaim ed
Ġpl ant
or g
Ġlit er
Ġref lect
Ġopt ions
y a
w ide
m ission
lic k
Ġnorm al
ĠE very
m iss
ĠGener al
Ġcall ing
ĠF rom
Ġstat us
Ġint egr
E O
7 0
Ġresearc hers
al se
b on
eng th
ĠM ac
Ġfem ale
a ith
u ana
Ġ200 7
Ġend ed
us ion
il ed
if ying
ad o
ĠEng land
ĠU p
Ġc ities
Ġha ven
Ġsh ut
Ġwa it
Ġv irt
Ġsupp osed
ĠM ag
Ġpr ices
it ness
ro ll
Ġadd ing
Ġpro s
Ġbas ic
S c
Ġal bum
Ġhapp ens
ol es
Ġcharg es
IN G
m ark
Ġra ised
âĢĿ ,
um an
ing er
Ġsl ight
Ġemploy ees
iver se
Ġn ames
N ot
Ġgo ld
Ġabs olute
Ġtr ou
Ġpolic ies
Ġe le
Ġf reedom
Ġj ump
Ġac qu
mit tee
Ġmin ister
Ġtrad itional
Ġpr int
rib ution
Ġbe at
Ġim pl
Ġcreat ing
Ġsee ing
Ġcom mer
. âĢĻ
Ġsc en
Ġl ik
ro id
Ġh ospital
Ġpat ients
ic a
ro l
Ġconcer ns
Ġst ation
Ġauthor ities
ĠSc ott
Ġme chan
Ġgr and
ij uana
Ġst yle
Ġb irth
se e
Ġle aving
Ġbehav ior
Ġfund ing
Ġc ry
Ġact ual
ĠHill ary
ĠFlor ida
ĠA P
r am
Ġg reen
Ġoff ered
E L
Ġr ank
ear ch
ĠM ost
Ġbe g
Ġpost ed
Ġwill ing
Ġprop os
Ġad op
Ġ ir
it ude
O U
Ġv ac
Ġweek end
H ere
Ġp ush
Ġagree ment
ri an
ĠB ay
on a
ĠM o
Ġey e
Ġreveal ed
S A
Ġm er
Ġval ues
ac ing
Ġapplic ation
Ġb rief
9 0
ã Ĥ
ĠL et
Ġmost ly
Ġad ult
Ġpart ies
Ġdeter min
ĠL aw
Ġens ure
ĠA ccording
ist ry
p en
Ġbelie ved
ĠWe ll
ww w
Ġwe ight
Ġstr ategy
Ġpict ure
Ġrecord s
Ġe th
ĠS un
ĠRe g
Ġstre et
c her
ĠSt ud
ĠCh icago
Ġd ire
Ġestab l
Ġwh atever
ect ion
. '
ĠPe ople
Ġqu al
Ġmass ive
Ġm ount
Ġlear ned
Ġcho ose
Ġlaw y
p ri
Ġfeel ing
Ġen force
ab y
Ġf at
Ġun s
ĠHe alth
Ġdev ices
5 00
E x
ign ed
Ġask ing
ĠA lex
Ġapp l
Ġarrest ed
Ġw ild
Ġbenef it
ĠTr ans
ĠL ou
Ġinst all
Ġinflu ence
so ft
Ġim ages
Ġass ault
ĠO h
Ġw at
Ġwond er
C l
Ġwh om
Ġcrit ical
Ġc ars
Ġent er
ĠPh il
Ġdeb t
ĠSec ret
Ġshow ing
ĠFr ance
ĠP ort
Ġcele br
u gg
Ġconfir med
Ġm ission
Ġtem per
ĠB ush
g en
I L
Ġoper ations
li ament
est ic
Ġprodu ced
Ġl ose
t ies
Ġprodu ce
p oint
Ġprov ides
Ġneg oti
ĠM at
or ial
Ġt end
n o
st e
ak ed
Ġjud ge
Ġb order
c ont
u ild
ra v
ent ed
ĠM od
r ont
Ġeffect ive
Ġdoll ars
oc r
How ever
Ġse ction
Ġopp osition
Ġdig ital
Ġdr ink
ag s
Ġc ore
Ġte ac
Ġpat tern
ic ial
m ine
a e
Ġres idents
Ġc ru
ri ption
Ġrun s
Ġdist rict
Ġadv oc
Ġbr and
ĠB it
Ġindepend ent
ci ence
ud d
Ġet c
C C
Ġv ill
Ġdef end
ĠW all
ĠP ress
ĠCom mittee
S T
ord s
ĠWh y
h ttp
Ġinterest ed
ĠC up
Ġsol ution
ce ll
Ġd er
Ġtri al
ĠComm ission
o ly
Ġhe ro
Ġwor se
ri al
Ġrespons ible
4 4
Ġag reed
ic ians
Ġche m
Ġhig hest
Ġm ap
ĠPal est
Ġd aily
i pe
Ġinvest ment
w in
Ġopen ing
Ġv s
Ġmill ions
Ġoff ers
Ġmem ory
ĠO ther
v est
ĠG et
ĠJohn son
Ġm ur
Ġt ick
Ġb ur
Ġk ick
Ġthe ory
Ġtyp es
ĠJust ice
ĠFranc is
Ġrepl ace
ĠF ound
Ġocc as
ĠS am
Ġch air
r ig
ĠB ecause
Ġgener ally
The se
ill ing
Ġlear ning
Ġtr ain
i ation
Ġexpl ained
ĠKore a
Ġte levision
Ġprot est
Ġrest rict
Ġco al
ĠP M
ĠOff ice
ĠO ur
az ing
Ġm ale
B A
C on
r ad
Ġhe avy
ĠW estern
Ġprop osed
r ate
ĠM ike
ĠN FL
ak s
Ġmil es
ĠM icro
ĠL iber
ĠA tt
Ġopin ion
Ġbecom es
Ġcond ition
G et
ur ies
Ġre ject
ĠM al
Ġon to
Ġbas is
Ġdest roy
Ġadvant age
Ġassoci ated
Ġachie ve
Ġl oad
Ġ8 0
ĠD el
ber t
Ġhundred s
Ġdef e
Ġob tain
Ġpart ners
o om
G B
ic ip
Ġunderstand ing
Ġsle ep
Ġb orn
Ġsur round
ĠM il
7 5
u pp
com ing
Ġopen ed
od es
ort hern
Ġdou ble
Ġmar riage
Ġannoun ce
Ġth us
Ġlegisl ation
Ġ ice
Ġass um
Ġlim it
Ġacc used
Ġcamer a
ĠSec urity
Ġeas ier
ad ing
F C
Ġman agement
out hern
l ant
Ġbecom ing
we ll
l a
Ġcontro vers
and er
Ġs pl
Ġilleg al
Ġh arm
Ġ3 1
Ġres ist
3 6
ĠG reat
ĠB ig
ĠM any
ĠWind ows
3 8
Ġscient ists
00 00
ortun ately
Ġn ine
el ine
Ġun like
Ġwin ning
ĠSand ers
ol f
Ġloc ation
Ġwe alth
Ġjo in
wit ch
Ġ Ã
Ġ9 0
Ġb omb
Ġphot o
re y
Ġpurp ose
k nown
ĠH all
i os
Ġfr ame
Ġsh ared
ĠIslam ic
Ġsh ip
Ġbelie f
Ġneigh bor
Ġinit ial
Ġprofess ional
Ġaud ience
Ġact ive
Ġ200 6
le vel
3 2
Ġbott om
Ġb ed
Ġspec ies
Ġextreme ly
Ġdoc uments
Ġmar ijuana
i h
Ġser ve
ĠAd d
Ġdep artment
ĠT er
Ġserv ed
Ġneg ative
Ġvictim s
B S
Ġdoub t
M r
Ġd ie
or row
Ġ3 5
Ġstri k
z a
P S
ĠY our
Ġr at
ĠL ab
Ġexist ing
ear s
ĠComm un
gh an
Ġredu ce
Ġm icro
ĠInst itute
Ġreturn ed
Ġam b
ĠIn c
Ġnot ice
B l
Ġinc red
ir gin
Ġr an
Ġmob ile
at ically
Ġelect ric
te red
Ġwatch ing
ĠU k
ĠM ad
Ġf alse
Ġexpl ain
ĠAr t
Ġput ting
Ġmach ine
Ġarg ument
ar io
ĠS l
Ġp urs
ĠCanad ian
Ġsol id
land s
if ul
z en
Ġvict ory
Ġleaders hip
Ġco verage
Ġf aith
Ġdefin itely
Ġun c
Ġintern et
ĠB ank
m et
ist ics
Ġcommit tee
h ouse
ĠCar ol
Ġcom fort
Ġcommun ities
Ġconserv ative
Ġnot es
Ġs un
ac ity
ad a
Ġhe aring
sc rib
ĠA M
ĠD ist
res p
ill er
ograph y
i pp
ĠE v
ĠF BI
wh ich
Ġinst ance
Ġre act
it t
P A
Ġsit es
Ġch urch
Ġlaun ched
Ġrad io
Ġsepar ate
Ġsupp orters
ĠO ver
g ency
Ġview s
Ġtre nd
Ġdanger ous
Ġf resh
Ġdire ction
E M
3 4
i pped
Ġveh icle
Ġback ground
Ġte ach
Ġdrug s
Ġiss ued
Ġ ;
w orks
ili ar
ĠP ri
.... ....
as y
Ġapp eal
om as
Ġcharg ed
Ġlab or
Ġm ax
Ð ¾
ĠF in
ĠCh urch
in ct
Ġn orth
____ ____
ĠD irect
Ġdri ver
Im age
Ġst ated
Ġcompet ition
Ġdri ving
b ing
ã ĥ
Ġh us
Ġtraff ic
rib ute
ĠL ike
Ġwor st
Ġepis ode
Ġsuggest ed
ant ed
Ġfl oor
ĠG ame
== ==
N A
Ġd aughter
ĠS ince
go ing
he m
v ention
Ġc ards
Ġtool s
Ġcont ain
Ġitem s
Ġrest aur
Ġcl osed
Ġcommer cial
Ġh ack
Ġref ere
Ġex erc
Ġdec ade
Ġ7 0
ad y
f erence
Ġset t
Ġsmall er
Ġst ructure
Ġd ed
Ġsp oke
Ġtell ing
Ġdisc overed
ampions hip
ĠL os
and om
Ġpl ays
Ġc ash
ĠF ox
Ġn or
Ġanim als
se mb
Ġrepe ated
Ġcomp ar
A meric
Ġentire ly
a it
Ġt ask
om an
Ġfar m
ĠIsrael i
Ġfind ing
ĠW il
Ġdise ase
ct ors
k ins
C H
ul f
ibr ary
N N
ĠQ ue
ul ated
b ut
Ġcandid ates
Ġsupport ed
ĠBrit ain
Ġexper iment
Ġtrans fer
3 7
5 5
o very
Ġno vel
n ight
d o
Ġc ateg
Ġtest ing
Ġcon sequ
Ġg ay
Ġtrans port
Ġas pect
4 8
ic i
Ġold er
Ġcont ext
ĠA c
Ġconcer ned
av a
Ġsur face
! âĢĿ
Ġwe l
il ing
h ow
Ġg e
and on
Ġrequ ires
az on
âĢ ĺ
Ġactiv ities
e qu
ĠCh ris
O L
ĠU N
Ġlarge ly
Ġple ase
Ġbl ue
Ġstreng th
ĠJ ones
ĠRober t
Ġallow ing
r ick
ann el
Ġdec isions
Ġbelie ves
ph one
s pe
oss ible
Ġmur der
Ġann ual
Ġtr uly
iz es
oy al
Ġacc ur
ĠT re
Ġgener ation
Ġc aught
Ġconst ruction
r im
ĠS up
Ġst ock
Ġins urance
Ġhigh light
ic y
igr ants
Ġaff ord
l or
Ġjust ice
Ġatt end
Ġf uel
Ġstr ateg
Ġra ise
Ġconcer n
Ġbusiness es
Ġpres ence
an cy
Ġw itness
Ġph il
S P
ĠA re
Ġhold ing
os ure
ar ant
in ter
ĠS il
ĠP C
oll y
ĠG ree
cept ion
ĠM er
âĢ ¢
ck now
it able
pect ive
ter y
e y
Ġs an
Ġpl aced
Ġcell s
ang ing
b our
ĠAf ghan
i us
Ġgu ess
b re
ĠUk rain
Ġestab lish
ĠAssoci ation
Ġmention ed
ĠM iss
ocr acy
ĠG OP
Ġr ough
L e
Ġt im
it z
Ġtell s
ĠK en
Ġplan ning
Ġjo ined
ĠV er
Ġwa iting
Ġinit i
v ant
ĠAfric an
Ġspokes man
Ġhas n
3 9
ic on
Ġl ength
ĠJ eff
ĠJ im
M ore
ĠAngel es
Ġocc up
Ġcan cer
ĠT y
Ġref uge
Ġsc ale
Ġobv ious
Ġc atch
Ġ201 8
c ks
Ġmiss ing
n el
Ġconflic t
ul a
Ġe at
Ġrem oved
Ġinterest s
Ġprov iding
l ig
Ġinj ury
D A
Ġenforce ment
ĠAfric a
ont o
ĠP re
Ġdown load
is ation
Ġk id
Ġsp orts
Ġdeli ver
Ġconvers ation
Ġs outh
ĠInst ead
and a
Ġuse ful
ĠLou is
Ġrecomm end
Ġhous ing
Ġoff ensive
Ġsto pped
Ġc ook
Ġsk ills
4 7
ron ic
! !
Ġset ting
wh at
Ġestabl ished
Ġban ks
Ġoper ation
ĠMex ico
Ġmod els
ot ed
Ġse qu
ow l
om s
Ġdiscuss ion
ĠP ak
Ġnews p
um n
ro s
Ġst ick
Ġhom es
Ġfoc used
Ġupd ate
ĠJew ish
se ason
P l
ĠF ore
Ġspir it
O ur
Ġab use
Ġintrodu ced
# #
re al
r d
Ġfour th
Ġun it
Ġfil es
ĠFr ank
ĠPalest in
ul ate
Ġtrans l
Ġass ess
ĠCon st
Ġear th
Ġmeas ures
ĠM P
form ation
Ġarri ved
Ġf ant
Ġgr aph
ĠC EO
Ġgirl s
Ġ200 5
ic ations
m ail
ĠR ock
Ġconc lud
Ġman aged
az ine
ĠJ ud
Ġa cknow
w ing
Ġident ified
ĠMicro soft
Ġfig ures
ĠLe g
ĠPro f
ĠS al
Ġpre fer
ĠT im
R A
k in
itution al
ĠM et
it er
Ġstep s
Ġb ul
Ġkeep ing
Ġappro pri
Ġother wise
pl ace
Ġex clus
ĠV irgin
Ġt ough
Ġpart ner
Ġsurve y
Ġcommit ted
ĠG roup
ren cy
Ġfund s
Ġha ir
Ġex change
Ġve ter
ĠJapan ese
Ġtri p
4 9
Ġthere fore
out s
ag n
Ġrelative ly
ĠN or
ic ation
Ġident ity
oc al
k a
app ed
ĠSt ep
up s
Ġslight ly
Ġdet ect
D es
Ġprotect ion
Ġown er
Ġfin ished
Ġ200 0
am m
8 9
Ġhus band
ig an
Ġphot os
Ġdef ensive
ĠY es
ĠSup reme
Ġtwe et
ĠRich ard
Ġcl ick
ĠIn ter
Ġcirc um
Ġconnect ion
Ġfeel s
Ġcol lection
pro f
Ġkill ing
ĠK h
il s
ic ide
Ġg ender
v is
ĠS ur
ĠR yan
ens es
4 6
Ġg ain
ĠAnd roid
Ġele ments
= "
ĠM ont
Ġdep end
ver se
m akers
g a
u ct
Ġme re
is f
ĠTH E
Ġwe ak
Ġcor ner
Ġscient ific
dd en
G o
w ith
Ġsupp ly
Ġd at
Ġsuggest s
ĠMart in
Ġam azing
ĠI r
Ġag gress
ĠGovern ment
e ah
Ġcre w
Ġfail ure
Ġstri ke
Ã ¡
Ġsecond s
Ġgu ard
igh ter
p m
Ġrem ind
ĠJ ose
hen s
Ġspe ct
Ġsu st
Ġn one
re es
Ġbig ger
Ġf le
ĠTe am
Ġro ll
Ġrev olution
Ġs ides
anc ing
Ġcomm ission
ĠAl though
Ġh ate
m as
ĠAr my
Ġhappen ing
ony m
Wh y
ĠG ood
Ġtal ks
ĠJ oe
l o
Ġimm igration
Ġthan ks
T C
ĠWe b
Ġorganiz ations
g ar
ĠO ut
Ġdec ide
uck y
Ġment al
Ġplan ned
Ġcar ried
g ers
ut ers
u ke
y m
Ġspe aking
Ġtax es
st ream
ĠP et
im al
u ate
Tr ump
od ies
ad ium
Ġa ward
Ġw ish
ĠS ub
Ġapp oint
ag ues
Ġwind ow
ĠB ern
Ġsu dden
id ering
Ġfam iliar
ĠF ire
Ph oto
Ġbe er
Ġstart s
Ġ3 2
g n
i ams
el ess
Ġt ack
Ġp et
an ia
Ġmark ets
hed ul
ĠThe ir
a wn
an o
ĠRes earch
r un
ars h
Ġfil ed
Ġdom estic
ol it
ol a
Ġst ruct
Ġreg ist
Ġstand ing
ĠSecret ary
Ġmult i
L ast
6 5
Ġhelp ing
ĠAt lant
Ġ4 5
yn am
ĠD ec
Ġenvironment al
r ange
Ġvot es
Ġinter act
Ġvar iety
Ġaccount s
gy pt
Ġqu e
** **
Ġplan et
h i
Ġp it
er ous
it ect
Ġsc ript
ĠCol lege
Ġphil os
Ġac adem
i ot
H L
Ġstand ards
ack s
Ġimp ossible
Ġar my
Ġun ion
! "
Ġsk in
ĠM ary
f e
( )
ĠAl so
Ġprofess or
Ġapp re
ĠTh omas
ill a
Ġser ver
Ġdeg ree
Ġp air
ste in
0 1
Ġposs ibly
Ġco ld
ĠB ur
ĠSyri an
Ġhon est
Ġaltern ative
Ġdro pped
Ġv ul
are n
Ġapparent ly
ru it
ĠCarol ina
Ġturn s
ost on
ĠU s
rast ructure
a ven
Ġter rit
Ġrelig ion
Ġs ch
ans ion
Ġsol ar
oc ol
3 1
Ġr ich
Ġincreasing ly
Ġhum ans
Ġneighbor hood
Ġl osing
ict ed
ore s
Ġset tle
ad ed
Ġwor ry
Ġult imately
Ġcol le
ar ks
Ġpay ing
Ġtest s
Ġchang ing
Ġl ived
g u
ad er
Ġbal ance
ĠM os
Ġoper ating
ĠPr ime
is er
ĠFound ation
ay er
] .
ĠD en
ĠT wo
Ġat h
Ġfell ow
Ġag encies
Ġtw ice
Ġdevelop ers
ĠL ast
Ġclos er
Ġauthor ity
Ġpr inc
ip ment
l ook
ĠIm ages
Ġabsolute ly
Ġfl ight
rou d
Ġapp ly
Ġanim al
F rom
Ġdevelop ing
Ġun ivers
Ġg ar
Ġcorpor ate
R ead
Ġposs ibility
Ġexp ensive
ĠServ ice
Ġm ut
as hed
Ġc overed
Ġregard ing
Ġcut s
Ġhealth y
O f
Ġp il
Ġfund ament
Ġinn ov
at ures
Ġsound s
Ġad just
Ġy ards
Ġv ast
ĠT ime
Ġexper ts
c ious
Ġseek ing
Ġimag ine
ĠC amp
Ġsc hedul
olog ies
Ġap art
ĠCent ral
ĠU nder
Ġsold iers
Ġwrit er
Ð °
i as
Ġse a
ĠTor onto
Ġde ploy
anc he
Ġapplic ations
ist ed
ob by
Ġrespons ibility
ĠL at
Ġbeaut iful
Ġun its
ap ers
Ġt ast
ĠUS A
Ġar ms
ain e
âĢĶ âĢĶ
Ġsit ting
Ġf ol
o ch
ĠJ on
Ġhe at
Ġelect ions
ĠP eter
c oh
E ven
ust er
Ġun less
Ð µ
Ġ200 4
ĠPl an
en ced
Ġcap acity
Ġear n
ĠBit coin
I M
ĠFrancis co
Ġsurpr ise
ĠA ri
d en
Ġv ision
os en
ĠP ublic
ort ion
ur ation
Ġun iversity
u nder
ĠS T
Ġcl im
st ate
Ġfam ous
Ġintern al
ress ive
rel ated
ĠM iddle
Ġatt orney
ĠDist rict
all s
ĠJ o
ov ing
Ġconv ention
u zz
ĠP ut
Ġt ight
Ġcons ult
Ġte en
Ġr id
Ġhelp s
idd en
Ġtr ail
Ġer ror
Ġpresent ed
Ġfor ms
Ġinst it
ĠM ur
Ġf if
p erson
le ts
our s
Ġoccur red
Ġst ars
I V
Ġdeter mine
Ġfl ow
Ġint ended
Ġgu arant
in i
Ġo dd
use um
Ġsy mb
J ust
Ġf ired
ĠAm azon
Ġt on
O W
rib le
Ġveh icles
Ġsp ort
Ġexper t
ĠTh ose
Ġbro ken
U p
por ary
ĠJ es
Ġbo ost
Ġestim ated
L et
Ġrap id
ĠE gypt
h and
Ġdom in
Ġspecific ally
ter day
Ġgovern ments
ĠC ath
ĠS ol
A b
Ġstre ets
ĠA N
Ġres erv
ed er
Ġtro ops
p ire
I P
Ġhy p
ĠR ub
Ġprep ared
Ġpot entially
Ġcon clus
L E
ĠJ ournal
Ġsc r
Ġbring ing
ĠF ederal
ph as
D P
Ġequ al
Ġloc ated
Ġpro ve
Ġpropos al
Ġn ar
Ġfact ors
I ON
end ment
Ġweap on
Ġequ ipment
g l
ro ad
ĠO nce
Ġcoun cil
ĠCh ief
an ish
Ġse ctor
or age
Ġsh all
Ġpl enty
ĠB oston
Ġst ress
Ġpie ces
Ġv ir
ĠC ru
Ġse lling
Ġf aster
ve y
ot y
Ġcl ot
Ġr andom
Ġinf rastructure
Ġvot ed
ash ion
Ġj ail
ĠPar is
Ġvul ner
ĠR iver
D o
ĠM ass
m m
Ġcl in
ĠLe e
Ġhe av
Ġt ourn
ĠMed ic
Ġb row
Ġb aby
E very
in ent
ĠPro t
ĠWill iams
ĠVirgin ia
T H
ĠSoc ial
Ġcomb at
Ġconduct ed
Ġdr am
Ġchalleng es
h t
Ġpro secut
Ġoff ering
ĠR em
Ġrem ove
ĠM el
n oon
Ġref used
ed ia
ĠS ant
Ġelect ed
Ġsec ure
is her
ĠC ur
ce l
Ġpos itions
y r
ri e
Ġexpress ed
F irst
ĠG al
Ġrem ained
EN T
Ġtr ig
-------- --------
Ġrul ing
ĠP lease
ĠAustral ian
Ġb reat
Ġpoint ed
Ġcritic ism
Ġmethod s
ĠI N
Ġret ail
Ġd in
th at
on om
ĠGu ard
ol ved
w ar
Ġse asons
Ġredu ced
Ġer a
Ġpr ime
ure au
Ġcult ural
Ġbro ke
ĠS ing
ĠR o
Ġvot ing
ĠS pr
P D
ĠAn y
Ġte le
ly n
Ġsignificant ly
ĠIs land
i pping
Ġpercent age
Ġreg ime
Ġchem ical
Ġappear ance
et ic
ce an
6 4
Ġsh ape
Ġsign s
ĠCons erv
cl ass
Ġinvol ve
Ġorig inally
Ġaffect ed
, '
Ġthan k
Ġcar bon
Ġfac ing
ĠD uring
S p
Ġfin ish
ock ing
ĠO pen
Ġhttp s
Ġmin imum
Ġyou th
p ired
s en
igh ters
Ġind eed
Ġst ret
Ġm aster
Ġrem aining
Ġher self
Ġwere n
ĠWh o
stand ing
0 5
ro g
Ġh un
ĠF e
ord in
Ġm arg
Ġobv iously
Ġdetermin ed
ĠCol or
Ġvide os
Ġsub s
ĠS aud
ly mp
Ġg rew
ang ed
Ġs ale
Ġth r
ĠPh oto
ar p
Ġgreat est
Ġh urt
h ab
Ġb ought
ĠB oth
I G
Ġexc ited
S ince
Ġ5 00
Ġd ream
Ġre nt
Ġrecord ed
" :
t op
Ġacc ident
Ġt urning
Ġc as
Ġwe aring
9 5
ow nt
Ġsupport ing
al ing
Ġexpl os
ri er
ĠSte ve
re ens
ra ud
ĠFor ce
Ġpolit icians
ĠP ower
Ġ //
Ġlead s
Ġsurpr ising
Ġcont rast
Ġarg ued
Ġre venue
Ġemer gency
Ġappre ci
Ġt act
Ġcons idering
Ġmot iv
ed s
Ġw ood
Ġpro ced
ess ions
Ġmin ute
Ġbas ically
Ġpros pect
Ġident ify
Ġdiffere nces
Ġa id
Ġs witch
Ġpl ants
Ġhand le
od d
Ġag ent
Ġstrugg le
g ment
Ġvis ual
l ife
Ġmod e
Ġ199 0
b ur
Ġair craft
Ġafter noon
app ing
Ġser iously
ap ter
Ġpurch ase
Ġb ound
ĠP ac
Ġt ur
Ġsh ift
Ġgl ass
Ġcomple ted
T V
An other
Ġeven ing
ĠR ad
Ġopportun ities
os ite
Ġcon cent
Ġlist en
ĠSh ow
Ġenem y
Ġconsum ers
as p
S S
Ġdist ance
ĠChar l
Ġpl us
Ġpull ed
un ction
Ġbel ong
ĠB ook
tern al
Ġapp s
Ġm ort
ĠH aw
C L
Ġcal cul
Ġa st
H is
ĠD aily
ĠF ree
Ġexperien ced
Ġval id
ru ption
ĠJack son
or al
, [
Ġend s
h y
4 2
Ġdis s
Ġe lement
Ġwide ly
al ed
Ġdep art
Ġpan el
og ue
Ġlot s
Ġpass ing
Ġfil ms
p et
c ol
ad ow
Ġse at
ne ll
ĠH ol
Ġcomb ined
P e
he red
Ġcopy right
coh ol
Ġopp osed
Ġpriv acy
ĠSp ace
Ġsp ring
k et
Ġtalk ed
ut s
Ġt un
Ġ id
Ġadv ance
Ġpro ceed
Ġdis miss
ĠPro ject
Ġsu it
A m
ab ilities
Ġtre ated
Ġhop es
Ġ19 5
ive red
ĠB et
est ival
uc ks
W ell
Ġb urn
Ġattempt s
id el
ĠR oad
ens ions
ok ing
Ġcoll abor
Ġdef ault
Ġwrit es
A pp
ĠR el
ĠO lymp
Ġfr ust
Ġfact or
Ġtrad ition
Ġp owers
ac he
ell y
Ġst orm
Ġtrou ble
ra wn
I nd
Ġliber al
st s
Ġp ages
ain ts
Ġre action
z er
u ous
raz y
Ġqu iet
Ġconst ruct
Ġfl at
ob e
om pl
Ġ200 3
Ġz one
Ġpack age
ani el
es ters
D e
Ġappro ved
Ġconf idence
Ġm al
ĠB BC
Ġdisc l
l ines
r ant
Ġgr ab
ll er
ff ee
Ġh ol
ĠT oday
it a
Ġqu ant
resp ond
pl om
Ġrep orters
Ġwe ather
ĠM att
c are
Ġexpl o
Ġmat ters
ĠT ra
Ġent ertain
ed d
Ġc art
Ġup gr
ĠN ov
Ġden ied
ĠL in
Ġtyp ically
ĠS qu
ribut ed
Ġs ac
Ġinstit utions
Ġ200 1
Ġdisapp oint
m osp
ĠPak istan
Ġun able
Ġset s
m ond
Ġco ast
Ġre new
Ġ3 6
ĠDirect or
ĠM em
Ġspl it
Ġref erence
at o
Ġstand s
7 7
Ġpers pective
Ġconf ident
ĠH uman
Ġinst ruct
Ġtrans ition
U T
Ġg iant
Ġmov ies
Ġcap able
Ġsat isf
Ġel imin
] ,
4 3
Ġfl ag
Ġcl oud
c an
ĠOh io
ĠY et
Ġopt im
Ġpict ures
Ġnum erous
Ġbroad cast
ok en
Ġse m
Ġcre ation
C ont
Ġp itch
f ree
ĠAfghan istan
Ġprom pt
Ġcr imes
ap ed
Ġreported ly
Ġreport ing
h ost
un te
r id
Ġb odies
il it
Ġtechn ical
Ġrespond ed
ĠS cience
ĠW al
ĠSy stem
x ual
il ty
Ġdel ay
ĠM a
Ġarch itect
Ġp roud
is ters
Ġf ly
Ġrout e
Ġexpl ains
Ġc raft
as tern
Ġse vere
ĠN AS
Ġm and
ev in
us iness
Ġle aves
Ġfac es
ĠWill iam
Ġdecl ined
ĠTur key
M A
Ġdecl ared
ĠAnd rew
ĠMed ia
Ġi Ph
Ġcapt ion
ĠP enn
w rit
Ġexperien ces
p ass
Ġshould n
Ġord ered
Ġfor get
Ġconnect ed
ab in
Ġviol ent
Ġon going
Ġnewsp aper
ound ed
Ġfind ings
S e
er ry
ab led
ov es
Ġsuff ered
Ġad mitted
O D
Ġadv ice
Ġcircum st
ĠR on
Ġinj ured
Ġco oper
ĠF ollow
R ep
Ġg ather
Ġsubst ant
Ġ= >
ner gy
Ġappro x
is hes
ĠA v
res ents
ĠLab our
Ġleg it
ĠS ov
O ver
Ġpublic ly
Ġexerc ise
P R
Ġg ra
8 8
amp ion
Ġpo ol
ĠPh ot
Ġad vert
Ġb ull
L S
ess or
Ġem phas
Ġdel ivered
Ġactiv ists
Ġmess ages
t ion
Ġpick ed
ul ations
ĠGr and
u ations
Ġcan n
c alled
Ġgun s
ar l
raz il
Ġread ers
Ġpr in
Ġlab el
ĠS her
ĠTe chn
Ġupd ates
Ġed ge
Ġl oved
Ġstate ments
du le
, âĢĻ
az a
Ġarg ue
ĠRe v
et te
ĠSe attle
ĠD ou
O ther
Ġa uth
6 6
Ġedit or
ĠI D
Ġag ents
D uring
re land
Ġquarter back
Ġper man
em ploy
4 1
Ġdri vers
Ġs ession
Ġappropri ate
Ġex cell
Ġwalk ing
ion ally
ĠJ ul
r um
Ġacc ompl
ang ers
Ġpat ient
ĠChrist mas
ĠB ack
ĠH y
Ġb ond
Ġbuild ings
Ġreal ize
ĠMuslim s
Ġcent re
Ġem ails
Ġlawy er
Ġ198 0
Ġthough ts
Ġphilos oph
ell ow
Ġour selves
ĠW ood
R es
Ġev al
c ons
Ġobject s
Ġpract ices
Ġs ad
end a
Ð ¸
ac ter
Ã ¤
c os
Ġmar ried
Ġconf irm
ĠSe e
Ġterror ist
Ġfor g
Ġv an
Ġwe ar
Ġtal ent
ent ure
Ġexp ansion
Ã Ń
ag ers
ĠG en
Ġsub sequ
Ġar med
T ube
T S
ĠI ll
Ġf illed
Ġte ch
ou ston
Q u
Ġmiss ed
Ġs ke
Ĥ ¬
Ġsh op
ul s
Ġro t
I I
ĠSc ot
ĠB at
Ġcr ack
Ġca uses
Ġdeb ut
Ġcl ient
Ġsecret ary
es ome
Ġinj uries
our ney
ĠL ife
ĠS ign
Ġfr anch
Ġmaterial s
ĠRom ney
u y
Ġeffect ively
Ġmot or
l ong
Ġexam ples
x x
ĠBo ard
Ġd ynam
as ure
w ord
Ġalleg ations
M any
ĠR od
ord ers
T A
Ġr ain
o oth
Ġart ist
ĠS um
or se
Ġd ial
Ġth inks
Ġplay off
al a
ĠMich igan
ĠG M
ĠW ork
ĠD iv
Ġdec re
Al though
i at
Ġr ail
Ġfl o
d ef
w ater
Ġfact s
m ates
O h
Ġcont ains
P U
ans as
ĠK im
ĠRe ad
Ġath let
Ġinc or
or ry
Ġinit ially
Ġj oint
d ate
ĠV ict
Ġincre ases
Ġmy ster
ill y
ar n
Ġnecess arily
Ġtrans form
ad or
Ġrad ical
ic ing
Ġess entially
Ġaccept ed
om in
Ġdat ab
ĠSt an
Ġdes ire
g ia
Ġgovern or
ĠBl ue
ĠUkrain e
ĠF er
ĠSaud i
ĠWe ek
S pe
Ġperform ed
Ġfac ed
Ġconsequ ences
Ġt rib
Ġyes terday
ĠSec ond
ĠSt r
Ġn ations
ĠSw ed
A dd
F ollow
Ġs am
ĠM ount
Ġf ish
Ġp ra
ar ters
b orn
Ġwar ned
r ich
it ors
Ġannounce ment
semb ly
Ġadv anced
ri p
Ġlist ed
ill ance
Ġa f
Ġb are
Ġhe ll
Ġab andon
Ġp ure
ER S
l aw
Ñ Ĥ
t witter
Ġgu ilty
Ġsu c
Ġst ood
ed y
Ġp hen
Ġnear by
Ġmor al
Ġexpl an
ĠH en
Ġschedul ed
Ġch art
Ġ ing
Ġevery body
ĠBar ack
Ġthreat s
ath an
Ġdi plom
ĠDe v
Y es
en ger
C an
Ġfor t
i est
k ay
Ġsurpr ised
Ġdem ocracy
Americ an
ĠC NN
Ġrep resents
Ġvar i
Ġr ide
Ġmov es
ot ic
M ost
Ġbehav i
ir ty
ĠW he
Ġdo ctor
Ġfollow s
Ġconf ig
Ġt ree
Ġdist ribution
Ġsh ots
Ġadd s
Ġmag azine
Ġlink ed
ĠI reland
ĠA ff
ocrat ic
ĠV ol
Ġro w
Ġcur rency
Ġre in
Ġout put
Ġrem ark
ĠCol umb
Ġrestaur ant
Ġoff ense
ĠD an
ĠT O
Ġat mosp
Ġb ike
Ġ Î
Ġinvest ors
ĠL ake
Ġbeg ins
Ġf raud
Ġsp ons
Ġpus hed
ĠL ib
Ġimpro ved
Ġsong s
Ġm ir
ĠDe velop
Ġres olution
Ġplan e
Ġmanufact ure
Ġal t
Ġcreat ive
Ġen h
Ġis land
Ġdiscuss ed
w hel
al ty
Ġl ibrary
Ġwar m
Ġappl ied
ic an
Ġne ither
Ġn ative
Ġlaws uit
ĠR E
The n
ide o
f ortunately
Ġsa v
Ġwith d
Ġrece iving
Ġcomb ination
Ġtot ally
ĠS ky
Ġbr ings
Ġres ident
Ġres c
Ġpar liament
8 5
st ood
Ġart icles
ĠOn ly
Ġfl ood
ĠAs ia
Ġbr ight
ĠR ights
Ġf ill
iqu es
Ġconsist ent
Ġcolle agues
en a
ĠE lect
Ġent ered
us al
am in
ird s
Ġhistor ical
Ġexist ence
Ġk it
Ġr ising
Ġs ought
Ġhead s
Ġb ot
p ress
ĠM s
Ġ200 2
Ġsub scrib
ic ious
Ġb oss
ĠP rem
Ġrough ly
Ġl ock
Ġcont est
m es
Ġin put
ĠBro ok
Ġunlike ly
Ġent ry
g ent
ĠW alk
Ġconsum er
Ġcor respond
Ġr ally
ard en
ĠB razil
ĠAn other
ĠIt s
Ġ3 00
Ġfair ly
Ġtarg ets
Ġst orage
Ġclass es
on na
Ġsqu are
Ġl ie
ĠiPh one
Ġexpress ion
Ġal cohol
Ġsc ored
Ġwar ning
ĠA ut
Ġsuc ceed
m l
ic ian
Ġany where
Ġyoung er
Ġ3 3
O b
ĠIS IS
du c
Ġimport ance
ĠF ar
g ame
Ġhouse hold
iss ions
z ona
ac le
Ġheav ily
ok ed
Ġstore s
Ġs now
Ġtemper ature
Ġman age
8 6
Ġev olution
Ġbu ying
Ġdeath s
M an
Ġfac ility
Ġn av
het ic
ĠN BA
Ġfun ctions
Ġregul ations
Ġnet works
ĠC ub
Ġsome what
ĠCl ub
ĠA T
ĠB ob
Ã ³
Ġf ashion
olly wood
Ġfav our
Ġmarket ing
ĠG ames
Ġsymb ol
ĠR am
Ġdef ined
d is
Ġboy s
Ġbu g
ĠS ports
ĠE ric
ĠE ach
Ġreturn s
ik i
Ġhard ware
Ġopp osite
Ġindust rial
0 9
and al
Ġem pt
Ġl inks
p an
Ġbut ton
Ġto w
Ġch ain
Ġb ag
Ġadult s
Ġrele vant
Ġsh if
ot al
ĠE r
ĠAn n
0 6
Ġpro hib
ch o
Ġl augh
Ġstr ing
ag an
Ġpl ot
Ġcamp us
Ġd ownt
ol ve
Ġalleged ly
Ġmet al
Ġsy m
Ġh at
ere nces
Ġclass ic
Ġess ential
ĠKore an
S ee
ĠColor ado
Ġs ick
Ġbre aking
ĠMay be
Ġprot ests
ock et
ĠH el
Ġhard er
p ower
Ġrepl aced
Ġopp onent
Ġdo ctors
Ġsy n
Ġ3 7
Ġmechan ism
v a
ĠJew s
c hen
op y
Ġr um
p ret
it tle
Ġv ice
Ġse es
Ġhop ing
ab b
Ġact s
ĠH ouston
Ġc ere
Ġprom ise
ĠC IA
Ġwas te
P ol
Ġsch ol
ĠD C
Ġhold s
Ġill ust
Ġvers ions
Ġtourn ament
Ġclose ly
D S
Ġvol unte
ĠH ist
Ġbl ow
Ġsk ill
f riend
Ġdetail ed
Ġb on
ĠYou Tube
el lect
Ġart ists
om a
Don ald
w est
Ġh ur
Ġcustom er
in em
ate ll
omet imes
Ġmom ents
Ġint ention
Ġtr ick
ke l
ĠC ard
ens us
Ġad m
Ġ4 9
ĠY ear
Ã ¼
Ġis ol
ul ous
Ġto m
Ġw ins
Ġdiv ision
Ġparticip ants
Ġsuff ering
Ġz ero
Ġdec line
Ġacknow led
ĠSov iet
u a
Ġimm igrants
Ġm ine
ut ch
ĠG ar
es c
ord an
g reg
ter ing
hip s
' ,
ĠB oy
ĠL ong
Ġc razy
C om
Ġter min
Ġche ap
olog ist
I R
ĠVal ley
ĠW atch
E n
Ġg rown
ef ully
p o
Ġext ent
Ġcircumst ances
Ġfew er
Ġmot ion
Ġw ave
Ġl ies
Ġrelationship s
Ġsh aring
Ġun us
Ġan cient
Ã ¶
I F
Ġimmedi ate
n ame
ĠD ie
Ġdescrib e
Ġkind s
c hers
Ġbat t
ĠC le
ig er
Ġfeat ured
ĠIm age
st r
Ġgu ide
Ġeff icient
Ġemot ional
an es
Ġcy cle
f oot
Ġear ned
Ġauth ors
ĠE nergy
ĠG ra
ĠE ll
Ġsqu ad
ĠSu pp
Ġstr ange
ay ers
Ġfundament al
cer tain
ĠO ld
x y
oc key
pr int
st yle
Ġexcell ent
Ġme at
etro it
or a
ĠJ ava
iz z
Ġcompet itive
ĠD i
O RE
Ġman ner
b ar
Ġcarry ing
Ġcontrovers ial
ĠPalestin ian
Ġfrequ ently
ĠCath olic
P er
Ġ4 8
Ġw ire
Ġpus hing
Ġem br
aw a
Ġhot el
Ġact ing
iam i
ri ve
ĠE conom
Ġe gg
h us
ĠP S
Ġown ed
Ġpre gn
O C
Ġalong side
ĠN Y
F P
0 8
Ġs ister
Ġattempt ed
Ġp ip
Ġfem in
Ġt iny
am ily
Ġcol umn
0 2
ĠM ot
al ian
Ġ3 8
Ġur ban
ĠPut in
Ġcommit ment
Ġdes k
i i
u ated
Ġc ert
Ġded icated
ĠT op
Ġreg ional
Ġsche dule
Ġwalk ed
ĠW ay
Ġr ing
Ġup coming
Ġrefer red
Ġ7 5
Ġfor med
ce ived
Ġco ffee
Ġstru ck
p ost
v in
Ġint ent
n ic
Ġupd ated
Ġcomfort able
Ġl iqu
Ġag enda
Ġdep th
u gh
Ġsubs id
Ġtarget ed
Ġreal ized
Ġmain stream
Ġwat ched
Ġsign ing
ĠCru z
b el
iven ess
Ġopp onents
b urg
Ġvirt ual
u able
Ġrepeated ly
ĠW ild
rom e
Ġsk y
y ou
Ġmed ic
ĠV an
M ay
ĠAg ain
ĠC y
at i
ĠDef ense
T wo
k o
um s
ograph ic
Ġins pired
Des pite
0 4
ĠW ars
Ġca using
Ġchair man
ĠAri zona
t a
ay lor
6 7
Ġsu icide
Ġm outh
ĠChar les
Ġnews let
Ġord ers
Ġfol ks
ĠDav is
ĠR ight
ĠH ome
Ġsurve illance
Ġsurround ing
Ġinst ru
Ġfl u
L ike
ĠI P
Ġsent ence
ĠT it
ob b
Ġteac hers
Ġh all
Ġprotect ed
ĠD own
ĠJ r
n am
b oy
Ġstud io
Ġprec ise
Ġj ourney
Pe ople
Ġw al
ĠL ord
Ġlat ter
Ġappro val
Ġknow ing
Ġrequire ments
ĠO F
we ight
Ġrep ut
ig g
Ġover whel
Ġcommunic ation
Ġ3 4
az i
ac c
ĠS ar
Ġpost s
Ġass ets
ĠJes us
m un
Ġg od
d ro
Ġnot iced
Ġun iverse
Ġserv ing
Ġch annel
ĠYou ng
Ġexpl ore
Ġobserv ed
ren ce
Ġas ide
Ġw age
Ġexc iting
Ġus ual
lud ing
Ġprom ised
Ġbat tery
im ents
Ġliter ally
ĠM en
Ġs and
g or
Ġf asc
ĠT al
ph y
Ġs ending
C A
Ġvol ume
ĠAr ch
ĠP an
i xt
ad el
i ro
ĠK evin
um ber
Ġcr ash
Ġtest ed
ici ency
ult ure
et her
Ġn arr
Ġphen omen
Ġstre am
Ġk ing
Ġ197 0
Ġproper ties
i pl
Ġdeal ing
ĠBr ad
ĠC D
Ġhe ight
Ġt ort
Ġfor th
Ġpl ed
Ġrem ote
Ġcon gress
0 7
Ġfix ed
all as
Ġw ake
Ġw est
Ġnar row
az e
Ġdefe at
Ġsim pl
Ġbl ame
Ġthem e
Ġpro te
Ġal ive
ĠB est
ack ing
Ġbas ket
al le
Ġdestroy ed
ĠP y
ut ral
so le
I nt
Ġw id
Ġre ward
r ations
Ġdeep ly
ĠW omen
Ġprot esters
Ġimp ressive
ĠPol it
Ġd u
r ison
ar ry
Ġpass ion
O r
Ġe ating
ĠM ax
Ġwel come
ĠL u
Ġse lection
Ġany way
Ġform at
Ġex hib
N C
Ġris ks
w oman
Ġdisc over
f ire
ĠW at
Ġfranch ise
Ġe ast
ã Ģ
Ġslow ly
ĠIn s
ĠCh ild
5 9
Ġloc ations
Ġf uck
Ġmist ake
Ġsudden ly
Ġob lig
r ors
Ġs ample
Ġterrit ory
F r
ĠP R
ens ity
Ġd ry
ver ty
ap se
Ġwin ter
Ġd iet
ab is
Ġput s
Ġswe et
se x
Ġmat ches
Ġra pe
ĠC ast
ĠM ic
Ġinvol ving
ï ¿
onym ous
Ġch ose
Ġjournal ists
it arian
Ġext ended
st one
ger y
Ġpro of
Ġrequ ests
Ġproper ly
Ġcon ver
Ġtyp ical
Ġst im
Ġpo verty
Ġrecogn ize
Ġconf ront
Ġsh o
Ġun known
Ġmere ly
ob ile
Ġapprox imately
or ation
ang es
Ġvill age
Ġdis ag
Ġattack ed
Ġp al
Ġmax imum
Ġn orthern
ĠF ort
Ġmod er
ĠEn ter
Ġh its
Ġall ies
oc ation
Ġrefuge es
Ġsust ain
ĠStep hen
ĠL and
Ġprom ote
ar ity
ĠF il
5 7
Ġshe l
Ġselect ed
ĠAg ency
ĠC amer
Ġterror ism
Ġun employ
Ġde als
J ohn
R el
og an
red it
Ġab ortion
Ġtop ic
Ġsupport s
Ī Ĵ
Ġteac her
C S
Ġresist ance
ra id
au g
as ks
Ġg ang
Ġg ap
ĠM iller
Ġd ress
Ġarg uments
ĠH ollywood
l v
Ġad apt
l ies
âĢĻ .
Ġass ume
ĠAd minist
Ġlic ense
Ġconst ant
ins on
h an
ow a
ï¿ ½
Ġfac ilities
Ġpun ish
Ġunder stood
T e
Ġwor ried
as er
Ġcontro lled
Ġhon or
GB T
L A
Ġobtain ed
Ġnom ine
ĠN ight
Ġlik es
Ġcrit ics
ow ered
6 8
a ire
l ist
ĠWil son
ast s
Ġperson ally
av or
st ers
un ning
Ġexp osed
Ġcommunic ations
Ġsome how
Ġlim its
Ġr ub
p ool
Ġdi agn
Ġsche me
em s
ĠF our
Ġb unch
Ġso le
V ER
a un
ing u
end ers
Ġtrans p
ĠM iami
ĠD etroit
ĠIt aly
nes ota
Ġhar ass
Ġev il
Ġpoll s
Ġp ed
ĠSoc iety
Ġret ire
ll s
ce ler
Ġfall ing
c ers
ĠJer sey
Ġch ampion
Ġstrong ly
ig ation
Ġan x
Ġsome where
Ġencour age
ax y
ĠCl ass
ĠC at
c ow
Ġtr uck
Ġempt y
Ġfe es
ort ed
ian a
Ġph ase
ĠNet work
ĠD aniel
Ġequ ival
Ġprof it
Ġbe ar
Ñ ģ
ĠCar l
Ġdirect ed
Ġmeet ings
rim ination
Ġdr ag
Ġvac c
ĠK n
or ic
Ġclaim ing
os is
ĠV iew
ĠF ord
Ġdec k
Ġcompar ison
Ġdefin ition
ĠRe al
Ġgot ten
ĠD am
ur a
Ġdec ent
ĠComp any
in er
ĠSp anish
a o
Ġdatab ase
ost er
ĠL ove
Ġesc ape
ĠC am
Ġwin ner
Ġf lex
Ġcomp rom
ĠN HL
c ript
g ender
Ġs ight
ĠAs ian
Ġpurp oses
Ġstrong er
uild ing
Ġgood s
Ġem issions
6 9
f ast
Ġin qu
ĠO k
Ġcut ting
ĠO S
ĠIn f
Ġide al
Ġreg ions
ĠSe a
Ġp ic
Ġinc l
Ġcond em
ig ure
p es
Ġpar am
ĠG all
Ġamount s
ĠNAS A
Ġs outhern
Ġcol on
Ġben ch
pect ed
ĠIr ish
om ing
z ens
ĠAtt orney
ĠSt and
Ġ \
Ġfind s
ĠM S
l ock
Ġdes per
Ġemploy ee
Ġint ellect
Ġreject ed
ĠL abor
Ġdog s
ĠJ ordan
r as
Ġde leg
ĠGeor gia
se a
Ġoffic ially
U R
ĠG i
ep ing
Ġb id
Ġelectric ity
int end
E W
Ġdevelop er
ĠTh ank
Ñ Ģ
Ġad mit
Ð ½
Ġf ighters
Ġ3 9
Ġfif th
0 3
ĠL ew
Ġd rawn
ĠDes pite
Ġch osen
ĠD un
Ġr ig
Ġ icon
ad s
ick en
ci ples
Ġtechn ologies
Ġreason able
Ġconst antly
An y
% )
w an
Ġfield s
Ġstret ch
Ġsome body
Ġtrad ing
Ġaspect s
al o
7 8
r ary
ĠD NA
Ġsp in
Ġext ensive
Ġansw ers
Ġaw esome
ap es
ĠE nd
ĠB ru
Ġout come
Ġt ies
Ġt ank
ĠD ar
ir ms
ĠTur k
ĠTh ough
Ġf old
Ġconst it
Ġcho ices
." [
Ġtre es
ĠL ight
Ġpay ments
ĠS k
Ġre tain
ĠH un
ĠN ations
Ġperfect ly
Ġdist inct
Ġdri ven
Ġcapt ured
Ġthreat ened
ĠU t
Ġend ing
Ġprim arily
Ġpark ing
Ġfeed back
Ġany more
m od
Ġact or
Ġhous es
Ġcour ts
S ec
ĠAd am
Ġrul ed
Ġno body
if orm
Ġcoal ition
Ġf lying
ld er
em en
Ġmix ed
ĠAc adem
Ġreg ularly
Ġprof ile
ĠB owl
ow ed
C E
Ġth read
Ġr ival
Ġestim ates
Ġcomp onents
ĠConst itution
Pol ice
M P
Ġsign al
anche ster
Ġcont em
Ġbase ball
ĠB ell
Ġmay or
Ġs oul
Ġsol utions
Ġb le
Ġp od
ĠB rian
Ġresult ing
Ġeng age
in ity
is an
O nce
Ġb oot
ĠMo ore
m o
Ġenc oun
< /
â ĸ
reg on
as ters
m ont
Ġsit uations
Ġenem ies
isc al
Ġconclud ed
Ġ4 2
Ġnarr ative
ĠVict or
Ġse ats
Ġst ead
Ġcontrol s
ĠJose ph
im p
in ations
Ġm urd
Ġcon ven
Ġelse where
Ġbre w
Ġwe ird
Ġkeep s
Ġpay ment
ĠI d
ĠCon f
Ġfound er
the re
ĠW ater
Al so
Ġprov ince
Ġap artment
it ar
ĠOr gan
Ġpen alty
on ic
s hip
s m
ĠB as
Ġex ists
ĠScot land
ag ram
3 00
Ġbill s
Ġ( $
ack ed
Ġent hus
Ġmag ic
Ġman ip
Ġworld wide
Ġcru cial
Ġdem ands
Ġemploy ment
Ġinf ect
Ġaccur ate
Ġcl ients
Ġlet ters
Ġregist ered
v y
Ġang ry
D r
ic er
ĠT w
ĠD ark
Ġun p
Ġincred ible
Ġcateg ory
ĠCh ampionship
ĠServ ices
Ġdoll ar
ĠDis ney
Ġt ied
ind ing
Ġgener ate
Ġaggress ive
Ġcontribut ed
z y
Ġn ut
Ġpain t
Ġatmosp here
5 6
c r
Ġincred ibly
ĠW here
Ġdo zen
il arly
ear ing
Ġha bit
Ġpil ot
Ġcons pir
Ġrep orter
Ġinform ed
Ġg aming
ot ten
Ġr us
m al
Ġprov ed
Ġtechn iques
E d
Ġim per
Ġcomp ens
M S
ĠD allas
> >
Ġrout ine
ry pt
Ġs atell
ĠA uthor
Ġk il
ĠSen ator
ĠMin nesota
Ġwrit ers
ĠC are
Ġconclus ion
ĠTh anks
Ġret urning
Ġra ising
Ġcount y
Ġter rible
ĠS outhern
Ġcontin uing
l ers
T oday
ĠW in
Ġu pper
isc ons
Ġg ro
al i
ĠR og
Ġst uck
Ġnew ly
he nt
ĠO s
iscons in
Ġrec overy
Ġrepresent ed
Ġt all
Ġinn oc
Ġprogram ming
ĠC ivil
Ġassist ant
B ecause
Ġex cess
Ġdrink ing
Ġlo an
er a
M L
ess ed
Ġch ances
19 9
Ġ âĢĻ
Ġconsum ption
Ġexplan ation
Ġcompl aint
re p
re te
b al
Ġsh ares
ĠA L
Ġcapt ure
gor ith
ann y
te xt
% .
Ġmy th
ĠA R
ĠSte ven
Ġbl ocks
ĠSp ain
act ions
Ġtick et
Ġest ate
n i
b a
C ol
ĠLin ux
Ġoper ate
O ff
k er
Ġind ex
Ġorig in
Ġro ster
se ll
ĠCont in
Ġb om
r ating
Ġcompl icated
k ed
r age
Ġ5 5
Ġcons cious
ĠZ eal
Ġgr anted
ĠH ot
r ates
) )
Ġorgan ized
Ġpriv ile
Ġacadem ic
Ġsym pt
a ed
Ġinter pret
e z
Ġpl astic
Ġsol ve
Ġsurv ive
ific ations
ar on
ĠB ull
Ġautom atically
Ġmach ines
Ġassist ance
ĠE duc
ĠIt alian
ĠPro gram
ĠT urn
ĠF re
Ġatt ended
adel ph
Ġlaw makers
In st
Ġf ake
ĠO per
ĠS C
Ġext ract
u an
Ġthe rap
Ġbit coin
id ency
ĠE p
Ġ199 9
Ġc up
Ġsuccess fully
ĠRom an
ĠT aylor
ĠB usiness
ĠC oll
Ġaim ed
ab ama
st ar
the w
ot es
ch ain
u ine
Ġ iron
Ġdownt own
Ġperman ent
Ġp ace
Ġant icip
Ġmark ed
Ġro ot
Ġd ict
Ġtit les
ĠN BC
Ġinst alled
U N
ĠAn th
ĠC all
Ġen able
Ġwork er
Ġaud io
Ġscen es
im a
Ġacc omp
if er
ĠK elly
Ġeng aged
Ġtast e
Ġaf raid
ĠSpe cial
ĠFore ign
adelph ia
Ġadv is
Ġcollect ed
Ġmon it
ĠT em
Ġlawy ers
Ġr ating
E A
ri a
Ġ1 50
Ġpass es
Ġdeg rees
it als
ĠA h
Ġt aught
Ġregard less
et ary
Ġveter an
Ġmed ium
Ġad s
Ġd uty
Ġexp osure
ĠDe ad
Ġw estern
Ġext rem
Ġ6 5
Ġap olog
Ġhe l
up id
Ġgener ated
Ġval uable
Ġins pir
es y
ĠM u
ath y
ic ate
Ġ6 4
ĠL GBT
Ġrec ording
ĠI owa
ĠPac ific
Ġne uro
Ġch ampionship
Ġg all
atur ally
ib ilities
Ġbus y
Ġp in
Ġb es
Ġh idden
Ġwar ming
Ġvulner able
Ġr u
Ġcry pt
re ams
Ġsuff icient
act ive
ĠC ross
Ġph r
Ġport ion
Ġprom inent
ĠB alt
ĠC ome
ĠL ook
Ġel ite
Ġperson nel
Ġun certain
Ġc able
r ific
ĠPar liament
Ġcom ic
ever al
Ġdescrib es
ĠIn vest
ĠR ay
Ġvis ited
Ġreput ation
Ġnegoti ations
th is
Ġent it
or ne
ur b
ĠT est
ĠT ony
ĠF ood
d a
Ġcomp re
Ġrac ial
Ġunus ual
Ġm el
Ġresult ed
ĠE astern
Ġvis ible
Ġmain ly
ĠMos cow
Ġprocess es
Ġcompet e
5 8
rap h
il ton
ĠSt ill
Ġdef ence
Ġemer ged
Ġsp r
Ġevery where
ĠT ake
Ġenjoy ed
Ġdep ending
C o
we et
Ġch at
f ront
ĠA venue
Ð¾ Ð
Ġteach ing
ĠI T
Ġsan ctions
y e
Ġfun ny
Ġdis aster
man n
Ġco ordin
f rom
ĠN ation
Ġph ones
Ġtrack s
f all
mon th
Ġint ense
ĠN ick
AT E
Get ty
ĠN orthern
Ġsh it
Ġover se
ĠF oot
L C
Ġth in
ĠS af
Ġtax p
Ġpattern s
Ġbr ut
c les
Ġequival ent
Ġtrou b
Ġgr ant
Ġrare ly
ĠZeal and
R ec
Ġdisc ipl
Ġadop ted
Ġprin ciples
H S
Ġhad n
el and
ĠL o
Ġcontract s
Ġposs ession
Ġsur gery
w orld
or ough
M ean
P r
ind er
ĠA li
Ġc ited
Ġe lev
ant ic
Ġminor ity
Ġf ought
l og
qu arters
t es
ĠBe fore
Ġf irms
Ġin ev
Ġcamer as
ĠM ars
Ġ4 00
idel ines
v iously
Ġrec ip
Ġbrow ser
Ġexpl icit
sc ape
Ġprop ag
ĠGree k
ĠCo ast
as hes
s he
Ġshort ly
ĠO regon
ĠJ osh
5 4
B O
rent ly
ĠK urd
Ġexpect ations
ol t
ist ent
Ġv en
if ies
ĠPol icy
ĠO l
Ġth ick
Ġp ounds
Ġbl ind
ĠR ick
Ġen orm
pr ise
Ġepis odes
ig en
b ro
m aking
Ġrec ru
ĠV eg
Ġsu p
Ġengine ering
ul es
ĠGl obal
M ar
Ġscen ario
Ġve get
Ġfin ance
Ġstr ict
Ġair port
Ġm ail
Ġper mission
ob s
Ġd im
Ġcor ruption
ab s
Ġthous and
ĠW isconsin
g un
um in
Ġf ault
Ġlight s
Ġcomp onent
Ġt ag
ĠG er
Ġl oud
ĠH om
Ġbr idge
ink ing
ĠM anchester
ĠSer ies
Ġaff ili
Ġphot ograph
Ġw ing
ĠV iet
âĢĻ ,
ĠN avy
u ce
ĠS n
Ġal gorith
ĠO ak
Ġfeel ings
og ether
Ġimplement ation
Ġext ension
Ġhistor ic
am ber
ĠL ive
Ġestablish ment
cl ing
Ġp ump
il er
ĠH as
ĠM id
Ġparticip ate
Ġed ition
Ġun w
Ġst ations
Ġt or
ĠK ent
ĠAm endment
U s
re ll
c ar
Ġgen uine
ol is
ĠH it
um er
7 9
Ġfound ed
Ġag ric
rou s
j a
Ġla id
c us
ĠHen ry
Ġjournal ist
Ġac celer
Ġc rop
Ġsh ock
Ġclub s
Ġprior ity
ĠP ay
Ġcomput ers
Ġg ained
Ġloss es
Ġadvert ising
Ġh o
ask a
Ġpl ug
==== ====
Ġ4 4
Ġcoun sel
Ġmanufact uring
ĠK ir
oun ced
5 3
Ġsc oring
Ġst able
Ġcreat es
re f
Ġstrik es
Ġphilosoph y
Ġy ield
Ġmag n
Ġdo zens
Ġfoot age
ĠG reg
à ¸
Ġun com
Ġto ler
wh o
Ġprinc iple
Ġfe e
Ġrid ic
ĠAl abama
ĠDevelop ment
â Ķ
Ġbeh alf
ĠJ ac
ĠH T
iz on
og en
at hered
a us
ar lier
em an
ĠPhil adelphia
Ġg ift
ou red
Ġbelief s
u er
ĠTh ree
prof it
ĠR and
5 1
7 4
Be fore
Ġ %
Ġdraw ing
Ġcont aining
ose xual
ĠAs h
y stem
Ġ199 8
ĠPrem ier
Ġpl ate
Ġre ly
Ġtack le
ĠTh us
j o
ĠM ajor
ĠV is
Ġfound ation
e lect
ent h
rat ors
Ġform al
as ion
ĠAtlant a
Ġhead ed
ĠF red
Ġban ned
ul ating
an ing
Ġwonder ful
Ġfl aw
Mean while
Ġob st
op her
ĠE SP
ĠRe view
i el
ĠDiv ision
Ġne utral
Ġbasket ball
p read
l an
f ound
Ġsa ved
Ġwhe el
Ġst adium
Ġrel ief
ĠA D
im ore
Ġdeli ber
Ġexcept ion
Ġto x
ĠF C
Ġstrugg ling
Ġprodu cer
Ġsh arp
port ion
ĠF und
Ġinter face
Ġb orrow
Ġro les
o en
Ġ19 60
Ġlik ed
Ġprofess ion
ĠV R
Ġh ole
Ġinterview s
Ġf inger
Ġleg end
ĠAdminist ration
Ġr iver
Ġfarm ers
Ġst ab
az z
ĠS P
ĠR oyal
Ġdo ors
ĠM oh
Ġsh ips
Ġdin ner
et ime
Ġsp ark
Ġback ed
Ġachie ved
i y
le te
ili pp
ĠAr m
Ġun iform
ĠA S
ĠRe uters
5 2
b ell
Ġnomine e
Ġrecogn ized
bur gh
Ġ4 3
ĠAcadem y
Ġh ired
Ġredu ction
Ġent ering
ides pread
Ġ4 1
ĠM ir
r ative
Ġ4 7
u per
Ġlangu ages
Ġg onna
ĠD id
Ġcann abis
c a
Ġindic ate
Ġwithd raw
Ġj u
N e
Ġbare ly
ĠDie go
Ġpro ven
Ġinc ent
Ġsy nt
ĠCon ference
c ore
ĠJ ason
ĠMc G
te en
ĠR et
ĠRep ort
l s
epend ent
Ġtechn ique
ĠKe y
4 00
Ġro se
Th ose
M e
am i
Ġcy ber
Ġup set
ĠPer haps
Ġwall s
ĠN ob
Ġchalleng ing
ĠR ose
Ġconv in
ĠKing dom
ĠS now
Ġstruct ures
Ġneigh b
Ġa ver
Ġdest ruction
P ost
Ġb ath
ĠMay or
Ġsuggest ing
P M
Ġmove ments
ĠF ed
et ts
Ġhit ting
ĠD ata
ri ers
m ate
ĠP oint
p age
Ġut il
ĠTurk ish
ĠHar ry
ĠR os
olog ists
Ġfore ver
aw ay
Ġdisc rimination
Ġrapid ly
sy lv
t hen
Ġdeli very
Ġh ang
erv ed
Ġintellect ual
us ive
Ġgr ass
it i
Ġprodu cing
ol en
E E
ĠAb out
R S
ĠO tt
c ription
8 7
ĠS ir
ĠF air
ĠF ield
app y
y ard
Ġe uro
Ġch a
ach ing
P G
Ġcont ained
Ġconv icted
Ġun ex
ĠCent re
Ġnot ion
Ġprocess ing
Ġdesc ription
ĠP en
Ġar range
Wh o
int erest
Ġreview s
Ġnorm ally
ĠChrist ians
ĠEduc ation
Ġo cean
Ġh ide
Ġrestrict ions
Ġexclus ive
Ġelect ronic
is p
D av
Ġrecogn ition
abin et
ud es
Ġview ers
St ar
H A
ĠJud ge
U L
Ġwe lf
Ġre n
Ġl oyal
Ġf iscal
Ġper pet
Ġas ks
Ġb ra
Ġrob ot
P resident
Ġprogress ive
ay ing
Ġb ail
ams ung
ĠH ard
l ad
ĠN C
ĠL ind
ĠR ef
ĠP ack
Ġwelf are
ri k
Ġbeg un
Ġ4 6
eng ers
Ġcorpor ations
Ġcare fully
Ġcont ribute
Ġb urd
Ġill ness
Ġfl ash
ĠN ote
Ġindic ated
less ly
AT O
Ġcoll apse
Ġprep are
Ġret ired
sylv ania
Ġw idespread
ĠS at
ou ver
Ġex ternal
ĠMark et
ĠC irc
ĠLat in
ut ies
ĠB ry
Ġcampaign s
Ġlist ening
ĠRad io
Ġreach ing
sel s
ow ing
ĠC O
ĠH ay
Ġel ig
Ġinvolve ment
Ġsens itive
ĠMcC ain
Ġsm ooth
Ġwebs ites
Ġsm oke
arr ass
Ġequ ally
Ġfriend ly
omet hing
um es
igr ant
Ġ201 9
Ġf ab
Ġrepresent ative
Ġconst itutional
Ġal ien
L ook
ĠN ext
S ub
Ġunc lear
ĠP it
ĠO nt
um a
ĠD ig
Ġsettle ment
ĠN ic
Ġdep uty
b ec
r ine
ĠM ah
ĠE s
Ġfr ag
ĠF urther
Ġhard ly
7 2
rat or
r ical
ik es
el f
Sc ript
ĠT own
Ġfeat uring
Ġinv ent
im m
Ġth rown
ĠL ittle
Ġiniti ative
ĠH or
Ġt ail
ĠII I
ĠU FC
Ġoverwhel ming
W ill
Ġconnect ions
Â Ĵ
Ġinv ited
Ġconvin ced
Ġst upid
Ġmind s
ĠConserv ative
ĠBern ie
Ġm o
Ġh ook
Ġar ray
ĠL uc
Ġpract ical
Ġredu cing
ned y
ĠA BC
Ġv ary
level and
ust ed
enn y
+ +
h o
Ġv ital
ĠArab ia
Ġmen u
Ġinvestig ate
P C
Ġbehavi our
he ast
B ack
Ġw ars
ri ent
ach us
ih ad
Ġdeep er
anc ouver
e en
Ġscore s
Ġrec over
ĠT enn
M c
Ġdisc overy
ro lled
7 6
Ġdev ast
ĠO K
Ġrac ist
R I
ĠG ov
ĠK at
ĠBe ach
ĠAnt on
Ġex ceed
Ġfail ing
pl oad
Ġtr ained
Ġl uck
Ġw ages
ĠB attle
ĠP ent
Ġbr anch
Ġtick ets
b n
ĠN SA
ec ut
: :
Ġstrateg ic
Ġcitiz en
p at
Ġf iction
Ġrespect ively
Ġstat istics
http s
Ġjo ining
Ġw ine
Ġl ists
Ġcompl aints
ino is
Ġterror ists
ĠPat rick
Ġrem em
un ior
Ġassoci ation
ĠMin istry
ion e
ĠN ever
es ter
ĠSqu are
ivers ary
ann a
Ġj ury
ĠJ ay
Ġst eal
ty pe
Ġany body
Ġlic ens
all ing
Ġsc reens
Ġt ip
Ġcollect ive
ĠESP N
Ġdef ine
c ific
ĠMus ic
Ġfear s
ĠM useum
Ġcas ual
Ġacc us
Ġfant asy
Ġover t
ĠL y
Ġ- >
Ġneigh bour
Ġincor por
Ġsc andal
R ef
ĠK ansas
th on
Ġtouch down
Ġg ear
Ġs oph
Ġtest im
Ġhead ing
Ġt one
ĠAnth ony
Ġpro sec
m ary
Ġhand ful
Ġimplement ed
ĠC ore
Ġc os
d em
if est
re pre
ĠF ull
Ġframe work
ĠS S
Ġ199 6
Ġpo ly
f r
% ,
Ġdem ocratic
Ġpe ak
Ġimprove ments
Ġowners hip
Ġroad s
ĠO N
Ġw ww
ĠI ce
ak a
ĠMed ical
ĠX box
m ad
Ġan ger
Ġattempt ing
Ġg athered
R C
ĠQue en
Ġliqu id
Ġschol ars
ou ch
ĠR en
ĠMat thew
ĠPenn sylvania
w orth
ition ally
Ġdisag ree
Ġcontrovers y
repre ne
A ss
Ġrep rodu
Ġreg ulation
ĠBro ther
achus etts
are t
U nder
Ġ 00
Ġpublic ation
Ġcivil ians
Ġindepend ence
ĠR us
Ġhyp ot
Ġthe at
........ ........
Ġgen etic
ĠCamer on
Ġult imate
Ġplatform s
Ġleg s
ĠIn formation
Ġeth nic
ĠWalk er
. -
Ġatt ached
Ġattack ing
Ġdynam ic
Ġcompre hens
ick ing
ĠGuard ian
ĠCh air
Ġmin ing
Ġhol iday
Ġsu gar
Ġno ise
________ ________
G O
ĠC ook
Ġ199 7
Ġvers us
ph ones
Ġunemploy ment
ĠT ri
Ġmil k
ĠSt one
ĠAP I
Ġrem arks
Ġtem porary
Ġvisit ors
Ġlegit imate
Ġaut hent
Ġrecomm ended
Ġaware ness
Ġsympt oms
ĠChe ck
Ġlay er
Ġre ven
ĠAll en
C he
Ġc ro
ĠProf essor
ĠAN D
Ġexpand ed
od ing
ov al
Ġest imate
ĠA ction
Ġcon ce
ĠR oy
Ġtweet ed
Ġin ject
Ġtrans gender
Ġne ck
Ġrefer ring
ĠCommun ity
Ġeas tern
ĠH D
" )
Ġreg ister
h our
Ġground s
ĠGold en
Ġentertain ment
ĠG aza
Ġl obby
ir y
Ġsuff er
ĠA le
ĠAust in
os it
Ġext end
Ġco aches
ict ions
Ġcap tain
ag g
ĠA cc
Ġr ural
Ġbrother s
ĠS uch
Ġs in
Ġdis pl
ix ed
Ġsuspect ed
omm od
Ġign ore
our se
ĠP ot
Ġlog ic
Ġsp aces
Ġenorm ous
Ġimprove ment
Ġcele b
Ġing red
Ġdiscuss ions
Ġserv es
Ġactiv ist
Ġrank ed
intend o
Ġconspir acy
Ġmedic ine
c ase
7 3
l ah
Ġopin ions
Ġs orry
ĠSe ason
Ġst ake
ĠPh ilipp
' .
Ġinvestig ating
ĠAnd erson
ĠGree ce
ĠM ake
ist ing
Ġaff airs
Ġi OS
ĠB rew
Ġadvoc ates
Ġmon itor
ang el
er ies
Ġsubject s
Ġbr ill
Ġpurch ased
inc luding
Ġr aw
ĠAl bert
Ġsam ples
Ġinvol ves
Ġr ational
Ġt asks
ĠBalt imore
Ġres ource
Ġoffic es
Ġstay ed
Ġview ed
ĠR oss
Ġfall en
s erv
ĠVeg as
p ed
Ġhor se
un es
Ab out
Ġout s
Ġd iversity
Ġinter vention
Ġg am
Ġj ur
Ġemb arrass
ĠSt adium
ĠSant a
Ġseem ingly
Ġg ains
ult ural
Ġsal ary
Ġact ors
Ġco vers
Ġâ Ĥ¬
Ġrefere nd
S en
ĠU lt
ect ive
Ġlo ans
Ġconsist ently
v ard
ĠR a
b i
m at
Ġsubstant ial
Ġro ok
Ġ ?
Ġch apter
et ers
Ġspirit ual
ĠRev olution
Ġn erv
ĠColumb ia
ĠSt at
Ġdram atic
g ener
F F
Ġf oss
Ġaddress ed
ord on
Ġres ign
ĠSpr ing
Ġm os
ĠLew is
il a
st ract
Ġf ulf
New s
Ġso il
ĠIran ian
Ġwar rant
Ġb acter
Ġhuman ity
Ġam id
Ġtom orrow
ar ms
Ġj e
Ġthrow ing
ĠInt elligence
Ġclot hes
ac on
ge on
iver pool
x it
Ġdep ression
Ġmount ain
ĠHist ory
Ġpres um
pl ate
ĠB udd
Ġsusp ended
ien ces
Ġc oc
6 3
Ġinvestig ators
S m
Ġsett ings
Ġabs ence
cl aim
co ver
Ġprof its
Ġdis rupt
ĠC H
Ġp apers
ĠF amily
Ġhand ed
ĠCont rol
Ġb ureau
Ġc ogn
ĠF reedom
Ġmiss ile
ab eth
Ġg al
re ts
Ġm aps
Ġast ron
Ġbo at
Ġf ruit
Ġatt itude
Ġche cks
Ġtransport ation
ĠC leveland
ĠH o
ĠMass achusetts
Ġover s
Ġ5 2
Ġcare ful
ĠKen nedy
Ġcol ors
iv als
Ġlow est
Ġr aces
oty pe
Ġd ance
Ġpre f
Â °
ĠV ancouver
Ġfact ory
ĠFoot ball
Ġsur f
Ġpre ced
Ġprov iders
Ġcover ing
! )
Ġinfl ation
Ġr het
Ġb ars
ple te
Ġdep ends
W here
Ġvir us
Ġvirt ually
Ġst one
ĠB a
Ġvot er
am med
ĠIll inois
oun ce
d it
ĠB all
ĠL as
we red
re c
Rel ated
Ġconvers ations
Ġpet ition
" .[
R uss
Ġnot ing
Ġspeak s
ĠC re
u ction
Ġste el
Ġhor ror
Ġp orn
ĠEng ine
Ġacc ommod
port ed
m aker
B oth
ip al
Ġgu est
ĠA p
ĠH ospital
Ġshould er
ĠWh ich
d ri
Ġperson ality
6 2
Ġte a
i ability
og s
o z
j i
ĠC BS
ĠB ron
Ġfore st
Ġread er
Ġsubsequ ent
Ġc ust
Ġinc idents
Ġrespons es
6 1
h ot
Ġmar ks
ut ed
Ġcontribut ions
G E
V E
ke ep
S te
ĠMe an
in f
ir a
Ġappreci ate
Ġre vel
Ġprot ocol
Ġread s
ĠMex ican
u its
ĠB ang
Ġcl osing
ĠUn fortunately
Ġphot ograp
Ġh am
Ġencour aged
Ġprem ium
am ac
Ġball ot
âĶ Ģ
Ġjo ke
Ġd rew
Ġcom edy
P art
ĠHe ll
sc ale
Ġtri es
ĠEn vironment
ic ity
Ġsh out
d es
Ġprom ises
ĠW W
Ġtemper atures
N ote
l ow
Ġl ucky
Ġi P
Ġsw ing
it ting
ĠT ro
Ġbro wn
Ġl ocked
Ġent r
ĠL A
ĠIraq i
Ġmist akes
H er
ĠG un
ĠS cient
ĠSh are
Ġh int
qu est
Ġr anks
sen al
ĠK ong
Ġfant astic
Ġguarant ee
Ġpar alle
ĠGet ty
Ġk m
Ġhand ling
ĠInd eed
rop ri
Ġcon sole
in ch
it age
ĠBro ad
oc ument
ĠHe ad
ile y
Ġmus ical
Ġprotect ing
hel sea
Ġbu ff
ĠB ad
pp ers
P lease
es h
z ed
Ar t
Ġeff iciency
ĠM oon
Ġun ions
Ġsp oken
Ġimpro ving
ap ing
Ġjud ges
Ġth rew
Ġgu itar
Ø §
Ġy ellow
Ġl ands
pl ed
Ġport ray
ĠE xt
ĠC ost
Ġd iverse
ĠU se
ĠCon nect
Ġspokes person
ol ph
Ġprote in
hes is
ann els
un icip
Ġr om
Ġabandon ed
Ġdist ributed
ES T
ĠSt art
Ġhom eless
u h
y er
ĠDo es
Ġinnov ation
Ġ199 5
ĠN ev
Ġm oon
F A
Ġper mit
Ġbl ast
Ġacknowled ged
ĠS amsung
a ver
ĠWith out
a is
ĠHar ris
ĠS ony
br idge
Ġreplace ment
Ġl ying
Ġtre m
Ġre nder
Ġle ts
Ġst olen
ĠHow ard
Ġliter ature
back s
P P
Ġsil ver
Ġbreak s
Ġd ump
Ġcop ies
Ġnom ination
ĠTechn ology
8 00
ĠC apt
y o
Ġsc an
av al
Ġcl ock
Ġign ored
amac are
ed ing
Ġreferend um
ĠE ag
Ġord inary
Ġf estival
B M
Ġn aturally
ĠM arsh
Ġcommon ly
Ġdiv ided
Ġ5 1
arg o
Ġpass engers
Ġm ad
C ons
ĠD et
Ġdr ama
ĠA st
iet ies
Ġmid field
Ġre ar
Y our
ene z
Ġbar rel
Ġb ub
Ġdemonst rated
Ġt ape
Ġfall s
S ource
Ġst y
Ġperform ing
Ġg rav
ar re
Ġrepl ied
Ġin ner
f ol
Ġtrans actions
ĠAtlant ic
Ġv es
orm al
Ġr if
Ġ199 4
ack et
ĠL im
Ġtw enty
Ġcount s
aed a
com es
Ġleg acy
ie ce
Ġm arch
d ated
sh ire
Ġpropos als
arch y
Ġsc ope
in ction
ĠN ATO
er ted
Ġmeas ured
Ġex it
on ly
Ġrece iver
lah oma
Ġw rest
ij ing
Ġsy mp
9 8
Ġj oy
ick et
ĠâĢ Ŀ
ct ic
ĠCor por
ass ador
ĠDe ath
Ġst ages
Ġgr id
Ġstud ied
fl ix
h igh
ĠT our
ĠPl us
Ġacqu ired
Ġconc rete
Ġfund ed
ĠL yn
20 16
ĠIndian a
ĠB on
ĠPat ri
Ġcom pe
Ġconserv atives
Ġp atch
Ġf ro
od ed
Ġd ad
Ġdist ract
f und
Ġske pt
con f
Ġrock et
Ġdef icit
Ġhelp ful
he im
Ġt ie
Ġmonit oring
Ġinstru ment
Ġrepresent ing
Ġins isted
ĠPr ince
i ate
Ġarri ve
Ġhead quarters
Ġupgr ade
ĠS et
Ġcent ers
Ġsen ator
Ġ( âĢľ
ĠB uff
Ġappoint ed
ĠOr ig
ĠUt ah
ecut ive
Ġcritic ized
Ġ20 20
Ġrat io
Ġsw im
ĠP ass
Ġhop ed
or gan
ĠH ind
Ġpres idency
ian o
Ġm useum
Ġin equ
Ġl es
Ġwar n
Ġaut o
ĠT rib
ĠPort land
Ġcap abilities
el a
Ġclass ified
ĠP o
ing ton
ĠA ward
est y
## ##
Ġmat hem
r imin
R L
Ġpl ain
ĠS us
Ġbeaut y
ĠSwed en
ĠAb b
Ġtr ave
Ġprogram me
Ġhy per
Ġsho pping
Ġpop ulations
aw are
ĠP op
Ġresc ue
ĠC A
Ġsupp lies
Ġblock ed
ĠD ave
c ut
al ia
ĠDen ver
Ġpartners hip
ĠN OT
ĠFr ont
c rib
Ġwat ers
ĠB ible
Ġa x
Ġex ch
Ġab road
or ge
Ġrel iable
er g
Ġsurv ival
pl us
ĠAssoci ated
Ġcan ce
m ade
Ġm ole
ĠOnt ario
Ġlet ting
Ġtrig ger
Ġintrodu ction
ĠH ur
Ġent reprene
Ġwhen ever
âĢ Ĳ
m ony
Ġd ust
Ġunivers ities
H T
Ġdismiss ed
Ġtrack ing
Ġdom ain
ult ane
F acebook
nt il
ugh t
Ġtrans it
om es
th rough
K e
ĠS ometimes
ĠB ureau
ĠL ow
ĠPro v
Ġappear ances
Ġaccompl ish
h op
ag a
Ġr amp
the less
Â ·
pt on
Ġland scape
Ġcl ar
ĠD O
ĠOlymp ic
Ġur ged
Ġconvention al
Ġe c
Ġentit led
Ġâ ĪĴ
ĠDe b
ĠCo oper
Ġw ider
ĠMar x
usal em
Ġassess ment
ĠA C
Ġh ung
Y et
Ġus age
ĠN intendo
en cing
Ġpopular ity
20 14
Ġvis iting
Ġrepresent atives
C omp
Ġrec all
O K
Ġpolit ically
Ġdocument ary
d ney
E P
Ġveter ans
Ġpredict ed
Ġrac ism
d on
ĠD utch
ĠM aster
Ġequ ality
Ġbank ing
ag ic
Ġdro ve
Ġd ub
Ġf iring
ir ts
ĠJust in
Ġb read
Ġp ig
o is
iz abeth
Ġtestim ony
Ġtarget ing
Ġsatell ite
ĠG irl
Ġmembers hip
k ing
Ġrequest ed
ĠEd ward
ĠC ow
St ill
ĠF all
Ġsoc cer
ac co
AN D
ĠMar vel
Ġh ockey
the y
oen ix
ĠC ode
Ġth orough
Ġass ert
p a
ol ves
room s
Ġt ips
Ġart ific
Ġspokes woman
ĠA ud
Ġpers ons
Ġtact ics
d oor
r ite
A re
Ġdis order
in ating
Ġcomp are
ĠPro p
Ġcont rad
Ġr ush
Ġbon us
or ous
ĠW ik
ĠMag ic
Ġpurs ue
h ar
ĠB ase
he ld
Ġsh adow
Ġabs or
Ġass ign
ĠHar vard
Ġscient ist
Ġsub mit
j ud
enn is
Ġhy dro
Ġbut t
Ġcongress ional
ord inary
Ġobject ive
Ġd ates
ĠL ine
Ġf ighter
ĠJ am
Ġac id
Ġrele ases
7 1
Ġintrodu ce
Ġsequ ence
Ġqu ote
ik a
w as
Ġfore cast
ĠA ge
Ġprodu cers
Ġc ul
S L
is ons
at ar
ound ing
bre ak
Ä ĥ
Ġsa ving
ĠRober ts
Ġbrill iant
Ġt ab
ĠGal axy
6 00
ĠL ist
ĠM ill
Ġanx iety
z ing
Ġbreat h
ĠBr idge
Ġviol ation
old s
Ġw edd
ent er
ĠF orm
ĠL iverpool
ĠH ave
ĠY OU
ĠEm pire
eder ation
ĠK ar
Ġchild hood
ĠH on
ra pped
Ġ ~
in als
ah u
Ġexper iments
ht ml
Ġch annels
Ġdemand ing
m ind
Ġemploy ed
Ġfocus ing
Ġton ight
ou ri
tr ans
ch ild
ĠT ed
Ġst ability
Ġappro ached
Ġmonth ly
Ġinvestig ations
8 4
ber ry
b ow
Ġpip eline
d ed
ĠEx pl
Ġphenomen on
Ġrestaur ants
er ts
Ġa er
Th ough
Ġs alt
Ġwealth y
N S
Ġc ig
ĠB ra
Ġarg ues
is k
em ed
ater n
Ġprov ision
20 15
Ġwe igh
ĠSt ory
ĠH op
Ġunex pected
ĠAd v
Ġro of
Ġharass ment
ĠAm ong
Ġfor cing
Ġdesign s
Ġprep aring
D em
Ġgener ations
af e
Ġab ilities
Ġser vers
Ġcons ent
Ġh osp
Ġcelebr ate
Dav id
ĠV ill
ĠAlex ander
Ġm it
Ġl unch
ic ism
om ed
Ġf ool
Ġun pre
ten ance
Ġw aves
ĠM ach
ĠC lick
Ġden y
Ġo kay
Ġquestion ed
ĠJer usalem
ĠG ulf
Ġphr ase
j s
Ġpre par
- >
Ġsure ly
it ter
Ġarg uing
Ġmin i
ĠP D
V D
ĠH a
or ious
el son
Ġm ac
Ġsp ots
Ġar bit
Ġmort g
ĠGovern or
ĠU r
Ġsm oking
Ġf ing
Ġmaintain ed
Ġreform s
Ġb ab
Ġunivers al
min ute
Ġaward ed
Ġg ent
Ġal arm
m ans
est ed
ĠOb amacare
Ġ5 3
Ġinnoc ent
ĠLiber al
Ġsav ings
Ġweek ly
H z
ĠDes ign
S im
Ġ _
Ġke ys
Ġche st
s a
ĠA k
Ġsecond ary
Ġhealth care
Ġint im
âĢĶâĢĶ âĢĶâĢĶ
w alk
Ġann iversary
Ġact ively
Ġroom s
iz er
Ġprison ers
Ġsett led
ĠScott ish
Ġqu oted
Ġcivil ian
Ġarchitect ure
ond er
Ġbroad er
Ġafford able
Ġlo ose
Ġass ass
ĠA I
ĠW H
Ġst ored
Ġtit led
Ġsub mitted
Ġ199 2
Ġreve als
Ġdifferent ly
Ġf ur
Ġoverse as
a a
ĠRub y
le e
Ġbi as
rib utes
es see
Ġde lic
Ġse ar
Ġwind ows
Ġretire ment
Ġpropag anda
ir lf
ors hip
Ġfl ags
Ġpers u
Ġlegisl ative
US T
8 1
Ġse vent
Ġag es
Ġ9 9
ĠR un
Ġsh ield
ĠOk lahoma
ast y
e als
Ġround s
St ep
Ġplayoff s
Re uters
Ġs orts
Ġsh ame
Ġpoint ing
Ġf ate
Ġex ha
Ġcooper ation
m ers
irlf riend
Ġsh r
vern ment
Ġ9 5
ĠBe ijing
ĠS av
Ġdifficult y
ĠTe ch
ĠC ro
Ġpr on
Ġsil ence
Ġland ing
ĠW as
Ġre verse
T y
E l
a fter
ĠBl oom
Ġgrad uate
ap olis
f are
Ġkil omet
Ġposs ess
it ol
Ġencoun ter
Ġt ens
ĠBe ck
Ġcirc le
ĠLe ader
Ġdead ly
ĠP erson
Ġthreat ening
Ġcons ensus
Ġb orders
ĠWar ren
Ġcere mony
8 3
Ġstrugg led
ĠP A
Ġout rage
Ġdemonst rate
Ġh al
l ined
Ġcal m
ĠBru ce
Ġvo ices
** *
Ġsmart phone
ĠY emen
Ġstre aming
Ġp uzz
Ġexec ution
Ġprecise ly
ĠF al
Ġimportant ly
Ġprosecut ors
Ġst em
" >
ĠLe ft
Ġassum ed
Ġstrik ing
Ġnewslet ter
Ġsim ultane
Ġaut onom
ĠHam ilton
ĠGra ham
Ġrook ie
Ġemer ging
? ?
Ġstay ing
Ġsem i
Ġadv enture
Ġal ter
Ġodd s
ann on
d iv
ĠC redit
as ury
act s
y es
ore t
ol n
Ġtr illion
part y
W atch
ĠPr ice
ĠBer lin
as ant
om y
ĠG T
Ġanaly st
is a
Ġar r
ĠW olf
c est
ĠComm on
Ġdes erve
omp son
Ġconsider ation
r ace
ĠH ong
ĠâĢ ¢
cept ions
Ġcomprehens ive
Ġtrem end
Ġsm ile
ag h
St ory
Ġhighlight s
ĠPalestin ians
Ġer rors
s l
Ġcateg ories
Ġexecut ives
Ġn a
ĠO p
Ġaccess ible
Ġwhere as
scrib e
row s
et ch
ut en
ov a
Ġd ying
Ġn ic
F O
hold ers
st al
ĠMary land
Ġproced ure
ere my
ĠM ORE
h att
ie v
et he
Ch rist
Ġgreat ly
re ction
Ġste pped
it ual
Ġimpl ications
ig ious
Ġb urning
Ġjud gment
Ġman aging
Ġinstruct ions
S C
con st
b ury
Ġrat ings
Ġp icks
ocol ate
Ġins pect
Ġinc hes
Go ogle
Ġb irds
ĠAr k
M us
ĠViet nam
ĠAff airs
G A
Ġclot hing
ĠInd ust
Ġwant ing
Ġsuper ior
ĠCar ter
Ġclin ical
Ġb in
iss ue
ĠBat man
ĠM ain
Ġstrateg ies
Ġtrans action
Ġfrequ ency
Ġkn ee
**** ****
port ation
Ð »
Ġmarg in
ced ented
Ġ199 3
Ġtort ure
Ġcust ody
M s
Ġrel ax
ĠLe on
Ġphys ically
Ġch icken
it ary
Ġenthus i
ĠSil ver
b ered
ish op
Ġtri als
Ġrepe at
Ġg if
Ġr iding
Ġass igned
ĠP res
P re
Ġsm ell
Ġmeaning ful
ĠMr s
it o
Ġn in
ep s
ĠD er
ĠV ice
Ġdri ves
Ġremark able
ĠMean while
ĠC helsea
Ġw ounded
Ġdiv or
Ġcont ribution
ĠAnd re
ad i
ĠT es
r if
ĠV ideo
Ġinter f
Ġbl ank
ĠTe le
ra ig
ail ed
Ġcompet ing
ĠF estival
Ġdisp ute
Ġpass age
Ġco inc
Ġdist ingu
ĠBel g
ĠAs sembly
Ġcre am
Ġcontact ed
ig ate
ĠE qu
Ġathlet es
Ġmiss ions
ĠLib ya
Ġform ation
Ġindic ates
Ġpromot ing
ak i
ĠS ab
a uthor
ĠSt ore
ĠCap ital
Ġgu idelines
Ġhost ed
Ġparticip ation
Ġh ip
Ġre vers
enez uel
se ct
Ġ19 50
Ġdon ations
Ġdial ogue
o ice
Ġan s
Ġprom ising
ĠSar ah
ĠL t
ĠT en
Ġend orse
ĠL i
Ġg ate
ĠL ink
Ġrec ipe
Ġ1 20
ri ors
Ġstud ying
Ġman agers
Ġe ase
ĠEm ail
b its
Ġse ed
Ġop ens
u z
Ġcapital ism
ĠJon athan
ĠS om
ar ia
Ġdef ending
i ac
Ġmin istry
ĠB ud
Ġfoss il
ĠS ix
Ġm ice
â Ī
Ġpo ison
ĠEx per
Ġcr imin
ĠSy dney
Ġph arm
we ek
Ġst ere
Ġ5 4
al ysis
Ġspe ll
ĠM ess
Ġtherap y
s ub
Ġsuspect s
Ġpresent ation
ier ce
Ġmem o
Ġelig ible
it udes
ĠChild ren
Ġspect rum
ĠCr ime
Ġchar ity
Ġper ceived
Ġstop s
e ven
Ġdisc ount
Ġd ating
Ġfac ilit
Ġmus cle
Ġl ux
ĠB al
ak h
Ġkit chen
ĠE th
ĠSt ation
ĠNet flix
ere nt
ĠInst agram
Ġvar iable
Ġinvest ments
Ġc ow
A F
op en
Ġdam aged
Ġg ross
Ġleg ally
Ġpick ing
Ġm ood
Ġgather ing
Ġrec re
Ġt ons
Ġcent uries
av ed
Ġmem ories
ĠM LS
Ġenh ance
igen ous
ĠTh rough
or able
iff s
ĠMan agement
Ġsubst ance
Ġburd en
Ġgr ade
Ġthe ories
ĠP ict
vertise ments
Ġt ut
E X
Ġregul atory
play er
s es
ol ar
v ision
Ġexpand ing
Ġb owl
v an
ar ation
Ġt ired
Ġopen ly
Ġfood s
ĠBre xit
ro ph
ĠH art
ĠL am
ĠMur ray
Ġp ocket
V iew
er ia
Ġt ables
Ġback ing
oc ial
ĠT ok
ĠPhot os
ater al
Ġorgan ic
Ġunder lying
Ġdomin ant
Ġeduc ational
Ġbatt les
ll a
Ġdis h
ac her
Ġcreat ures
Ġhop efully
ĠA z
he rent
ge red
Ġrhet oric
ĠG il
Ġimp ression
Ġdefe ated
ĠCl ark
8 2
ent al
ĠMor gan
Ġcounter part
Ġdr one
ass y
um ble
ĠCome y
Ġtop ics
Ġproced ures
Ġtwe ets
Ġcoach ing
Ġbe ach
Ġman ifest
Ġunf air
Ġaddress es
Ġdiscuss ing
Ġindust ries
Ġ2 50
Ġt ap
ĠH old
ĠOak land
R em
A ct
ĠPlay er
Ġfollow ers
Ġl ad
w atch
ac hel
Ġ5 6
Ġshe ll
Ġbot tle
ĠS on
ĠRep resent
Ġd ies
od ox
ĠU ber
Ġpunish ment
D ef
Ġfund ra
Ġscr ut
Ġh ire
Ã ±
Ġs ed
ĠEl izabeth
Ġrec ruit
ĠTr ade
Ġtim ing
opy right
Ġover come
ĠK ick
Ġacknow ledge
ĠG O
ĠTenn essee
mark et
ĠAss ad
Ġv ig
Ġrem oval
Ġ ).
Ġrequire ment
Ġe ager
se ction
Ġm ath
ĠI ron
Ġcr us
miss ions
ĠV ik
Ġsign als
O ut
ĠB oe
Ġdi am
d y
ĠPent agon
ĠC S
Ġarri val
R eg
Ġag ed
ï ¼
Ġsign ature
ĠC reat
ative ly
C O
Ġengine ers
os a
ĠPri v
ĠSe an
ĠB ox
Ġfab ric
Ġrac ing
Ġappro aches
Ġsent enced
ĠF riend
ĠM L
Ġexpl aining
Ġ( "
M od
Ġl apt
Ġdise ases
Ġbe ating
Ġfl ed
Ġbill ions
h ard
Ġadv iser
Ġgraph ics
Ġsurv iv
ĠW ales
Ġe cho
am ous
M ich
ĠP sych
em ic
Ġob sc
Ġcomp at
Ġset up
ri or
b ase
9 6
ag ger
r ac
Ġrequ iring
ĠG ary
ĠZ e
ĠG DP
G e
alt ies
ri x
yl um
âĶĢ âĶĢ
Ġhosp itals
Ġre nd
Ġso vere
w a
it ure
ang le
ĠHar per
d s
Ġsh ipping
Ġout lets
Ġam endment
ĠE vent
Ġunder t
ĠHaw ai
ut ter
E arlier
ĠR oll
Ġse ctions
Ġconv ince
Ã ¢
Ġprefer red
A Y
Ù Ħ
Ġv end
Ġins ult
Ġsearch ing
Ġfunction al
Ġreb els
w ill
Ġtrend s
Ġro y
Ġst ance
ĠH oll
Ġpull ing
Ġb old
Ġinst ant
ĠP age
Ġans wered
Ġevery day
C al
Ġbad ly
iz za
ad ers
ĠM etro
inc oln
F l
ip edia
Ġcl er
ĠMc K
net ic
ĠRes erve
ĠEx ecutive
Ġegg s
Ġgen es
Ġfrequ ent
ol ving
Ġbe ings
ĠY eah
ts burgh
V P
Ġinter action
Ġesc al
Ġ199 1
Ġg ig
ĠY an
Ġcompens ation
Ġc iting
Ġro ots
Ġspeak er
h as
ĠUs ing
ĠS ure
ĠG ordon
ĠThere fore
Ġsh oes
Ġsix th
cos ystem
N BC
Ã §
ĠR ather
ixt ure
ĠDel hi
ĠF inally
erv es
Ġcom ics
T ER
ĠO x
Ġb ow
ric ane
Ġse gment
ĠE ff
pt ions
Ġtem por
Ġperiod s
land o
br id
Ġhe lic
Ġstat ist
Ġc ock
Ġattract ive
ĠRe agan
Ġinst itution
Ġgen re
Ġcol our
Ġpoll ution
in stein
unicip al
F inally
u i
M ark
Ġinf o
Ġmod ule
ĠT ai
Ġtal ented
Ġconstit u
Ġshe et
ĠPh oenix
Ġunpre cedented
Ġmer ch
ĠWhe ther
C lick
Ġg ene
ĠB ow
Ġprinc ipal
Ġdram atically
ĠV e
P L
ĠSim on
Ġelimin ate
art s
Ġocc urs
Ġm igrants
T ON
Ġland ed
Ġpost ing
ĠCharl ie
Ġtox ic
ĠAn na
m ic
Ġline up
ĠJava Script
m ath
Ġeconom ics
T P
Ġcommand er
Ġmain tenance
ĠM it
Ġpsych ological
du ction
ĠBrook lyn
Ġu pload
ĠE st
sc reen
Ġar ts
Ġinst ances
ĠKe ep
Ġencour aging
T op
U M
Ġp ill
C ur
Ġextra ordinary
ĠE PA
ot ing
Ġpart ly
ĠF inal
g ate
Ġl oves
ĠMic hel
ĠE ver
Ġcoll aps
Ġridic ulous
ap ore
Ġpubl ishing
Ġdisplay ed
Ġcollabor ation
Ġe lder
Ġstim ul
th rop
Ġweak ness
che ck
Ġinqu iry
c or
ĠS ound
Ġs its
Ġcontem porary
Ġconcept s
aren cy
ĠBel ow
le ft
ĠSt ew
Ġm ask
Ġhelic op
ĠB i
Ġper ception
Ġche aper
Ġc ens
Ġ5 7
Ġut ility
Ġmyster y
og y
Ġg est
ows ki
v ia
Ġlo op
Ġro lling
i ens
amp s
Ġfat al
ro t
ĠCo le
Ġhom osexual
ĠB urn
T R
ĠMont real
Ġfight s
Ġblock chain
Ġf o
Ġgl ad
Ġ8 5
ĠDr agon
Ġar c
Ġassoci ate
ist ant
Ġlab our
Ġcou p
Ġins ight
ib an
Ġprompt ed
Ġengine er
Ġconst itution
Ġle ct
Ġreserv ed
ne cess
aw ks
ĠB M
gr ade
art ed
Ġparalle l
row ing
Ġhero es
ĠTh ompson
ĠEconom ic
Ġp a
Ġanaly sts
Ġex port
ĠPh ill
ĠDig ital
Ġcar ries
Ġpar ad
Ġbu ck
ĠV enezuel
ĠJ ean
Ġ5 9
Ġun ve
Ġbut ter
Ġcommunic ate
Ġcorrect ly
ĠB ol
Ġl ift
ĠKent ucky
Ġpri ze
Ġir re
Ġprospect s
Ġp unch
end ar
Ġd reams
v i
Ġaccomp an
Ġdisappoint ed
Ġde light
Ġcamp s
c re
oc a
Ġmoder ate
Ġinterview ed
Ġkn ock
el le
Ġtown s
Ġdist ur
ĠCap tain
Ġaim s
li est
ab et
c ur
Ġgu ests
bour ne
est yle
Ġb ands
ac re
Ġinequ ality
ĠAnton io
Ġmanufacture rs
gr aph
Ġopp ose
Ġint r
Ġdef ender
Ġdiplom atic
Ġinv asion
Ġdead line
ĠT ax
Ġmod ified
Ġperform ances
on z
Ġdemand ed
Ġbul let
Ġpregn ant
Ġfor um
ĠG iven
N ext
g us
ĠD ur
Ġnot able
P aul
Ġdesign er
Ġadop t
Ġown s
is dom
Ġdeploy ed
ke e
ĠT otal
Ġem p
AL L
Ġexplos ion
Ġb ene
1 50
Ġcor rupt
A B
p ack
ĠF ive
Ġrecommend ations
w ed
ĠS ource
Ġcogn itive
en ess
D is
new s
ll y
Ġrel ation
( "
Ġoccas ionally
Ġqu it
ĠHit ler
ĠSt aff
ĠA ccess
Ġdr unk
20 17
à ¤
Ġvolunte ers
Ġingred ients
Ġacc um
Ġbi ological
ol i
Ġv ocal
20 13
ump h
Ġbirth day
ail able
Ġse ized
Ġres olve
Ġan onymous
s ome
Ġneighb ors
ĠE T
ĠProt ection
Ġless ons
Ġple ased
Ġs li
ĠB an
Ġs essions
is ition
ab e
Ġad equ
ik h
ĠOr der
C omm
Ġe cosystem
G ener
ĠJ enn
Ġass et
Is rael
Ġrepresent ation
Ġexc lud
ĠS a
ĠRus sell
Ġtravel ing
Ġprofession als
ĠK now
Ġtr aged
Th anks
Ġviol ations
Ġrec on
ĠD ick
AR T
ro ck
Ġsp an
le ans
Ġlif etime
2 50
ĠB ul
Ġl ibr
Ġrep air
Ġinter pre
ĠAuthor ity
Ġemploy ers
Ġh anging
ĠCap itol
Ġint ellig
Ġst ro
igh th
el ing
Ġst ack
Ġunder ground
Ġsub sc
ĠG ro
Ġcou ples
w ind
c al
Ġide ology
Ġelect oral
Inst ead
Ġann oy
W he
Ġn ose
G u
Ġter r
Ġbom bs
ear ly
Ġcl ip
20 12
Ġisol ated
Ġdesk top
Ġwedd ing
Ġconf used
Ġ< /
ial s
ĠH and
ars on
ix on
hatt an
Ġexist ed
Ġd a
âĢ¦ .
C D
Ġartific ial
ĠOn line
Ġj ihad
ĠCh annel
9 7
Ġimp osed
Ġmaintain ing
ol s
Ġconfig uration
E G
Ġ vert
Ġsold ier
app er
og a
Ġmin imal
ĠMiss ouri
Ġ7 2
Ġrevolution ary
ĠL ibrary
Ġjump ed
own ed
ĠAl an
ĠP ers
m ir
at us
Ġrec alled
ĠGi ants
ac les
Ġsh ocked
Ġsurround ed
Ġan cest
ou b
ĠC ustom
Ġlog o
ĠH amp
ĠCon vention
Ġinspir ation
Ġs wit
ĠB u
Ġopp osing
Ġ5 8
f it
h uman
ag en
Ġless on
im mer
im ize
Ġd ual
T ime
ĠN on
St ate
Ġf ert
Ġg irlfriend
Ġm ile
h ist
9 3
Ġy ell
Ġadvoc ate
d r
Ġn urs
Ġref ers
b ound
Ġconscious ness
ĠI M
Ġdescrib ing
str ong
Ġbre ast
ĠT s
Ġinter ior
Ġbrut al
Ġfle et
ĠBar b
Ġsh irt
ĠMar ine
Up date
Ġnerv ous
ĠO cean
Spe aking
g ets
Ġat he
Ġsc ar
Ġconcer ning
Ġemot ions
Ġintegr ity
Ġbank rupt
Ġmilit ants
b en
Ġmoment um
Ġsubscrib e
ĠNev ada
Ġh oles
ĠOr leans
Ġme al
to o
Ġdesper ate
app ropri
Ġintegr ation
Ġ198 9
t ra
tain ment
Ġpeace ful
9 4
ĠH al
Ġkick ed
st arter
arg et
Ġjournal ism
p g
ĠSte el
Ġsing er
ĠC ON
Ġcho osing
Ġbox es
ar o
ĠG h
ard o
ult y
ĠSher iff
ĠEvery one
Ġsc ream
st op
Ġelect ron
Ġgu id
Ġrefere nces
e lection
Ġs ne
ĠS D
ĠC ase
ĠU b
Ġrefuge e
Ġconcer t
ĠN S
Ġte eth
Ġev ident
Ġdom inated
A g
Ġsil ent
ĠC ould
ĠF ant
Ġstead y
ree k
ĠP ant
Th ank
Ġref use
Ġjust ify
G l
oc ated
ĠAr senal
Ġ6 00
Ġembr ace
ĠCo al
ment ed
ĠKh an
com mun
Ġstrugg les
Ġrem oving
ĠR ome
ĠO cc
Ġas sembly
Ġaccept able
Ġdisapp ear
Ġwond ering
ĠL ear
Ġbur ied
f unction
Ġconsider able
inc ome
h r
Ġcred its
ĠInt el
ĠFollow ing
Ġsubsequ ently
Ġst ating
is d
Ġdon ors
Ġcreat ure
Ġteam mates
Ġexecut ed
Ġsusp ic
ĠPit tsburgh
N et
Ġsub ur
Ġrout es
ĠNet her
ĠMount ain
che ll
Ġcomprom ise
Ġkey board
Ġclos est
Ġpr ide
Ġregist ration
ĠN one
Ġcon vert
ib l
Ġsum mit
Ġb ird
Ġbrief ly
ĠWar ner
Ġfl our
f ather
re nd
Ġgame play
Ġorgan isation
ĠL incoln
ĠLe ban
ĠTr ust
Ġj er
Ġpod cast
Ġor bit
Ġche ese
ĠSp ir
ĠM ove
Ġoccas ional
ok er
ĠA ren
Ġbacter ia
od ge
Ġh iring
ĠK l
Ġcharacter istics
ĠM un
Ġeng aging
ot te
Ġpro be
Ġexp ense
book s
c ap
he ro
Ġab stract
R ight
Ġout comes
ĠH an
Ġal ert
Ġtremend ous
ĠPl ace
Ġsustain able
ĠInd ependent
Ġev ac
ĠAd ams
ĠR est
. ]
Ġem bed
Ġexclus ively
Ġy eah
Ġsurv ived
ate ful
orne ys
Ġcont rary
Ġatt ending
Ġsoph istic
Ġpromot ion
Ġprof ound
Ġp ir
ĠS U
act or
Ġwitness es
Q L
ĠInd ones
ing e
ĠRob inson
m its
gr ad
Ġspeak ers
Ġh arsh
Ġg ri
ĠM ail
Ã³ n
ĠMan hattan
Ġgu ards
ĠH ug
ĠH oly
h ire
Ġrob ust
Ġphys ics
Ġload ed
Ġut ter
Bl ack
Ġmin isters
mer ce
el ve
Ġspec ulation
St ation
ĠTre asury
Ġinterpret ation
Ġkn ife
unt u
ĠS ci
He y
Ġprint ed
F i
ĠR s
Ġconf usion
wh ite
ĠTal iban
oph ob
Ġobs er
ĠSing apore
Ġpro portion
ĠSh ort
ĠAnd y
li hood
Ġfail s
Ġintegr ated
B N
th ood
Ġnow here
ĠJ eremy
Ġsp o
ĠAr gent
ĠTes la
Ġident ical
Ġexp enses
Ġcheck ing
ĠChair man
ĠK it
N ame
L ist
an im
9 2
re tt
r ition
ĠD u
ĠW rit
ĠAll iance
Ġbo om
Sh are
Ġcharg ing
Ġattract ed
re ck
at tered
Ġsusp ension
ĠEd ition
Ġo rient
Ġvari ables
ĠSupp ort
Ġrepe al
R ed
Ġpat ri
Ġpass enger
ĠOr lando
Ġc abinet
ĠN azi
Ġbr ands
Ġch ip
ĠK ings
Ġdistrict s
Ġcur ious
C ar
ĠD ream
Ġcy cl
Ġchalleng ed
ubl ished
Ġw et
Ġsl ot
ĠPort ug
Ġde emed
Ġdepend ent
r ics
ð Ł
op t
Ġhost s
ĠS H
ĠN orm
in st
ĠMar io
o ft
Ġcha os
Ġrank ing
t est
ĠH u
Ġbomb ing
ĠOff icer
Ġcrimin als
ĠW ord
Ġo xy
ĠA lp
ĠV lad
Ġsc ared
Ġf el
Ġcap s
Ġch ronic
ĠL ater
Ġsex ually
Ġdecre ase
n an
Ġt ear
sec urity
ĠL es
Ġhun ting
ĠStud ies
P al
Ġcor rel
Ġmotiv ated
ĠAre a
Ġsimultane ously
Tr ans
i ar
Ġpat ent
sc ar
Ġmet h
Ġstreng then
Ġas semb
is hers
look ing
ĠDo ctor
Ġdro pping
Ġguarant eed
g ood
ist le
ĠH aving
Ġagree ments
Ġav o
Ġpres ents
Ġcert ific
Ġb its
ĠC raig
Ġsol o
ĠF A
ĠM ap
am ine
ĠD uke
Ġintim id
if ier
Ġvis its
Ġfig ured
Ġpack ages
~ ~
ast e
ĠR aj
âĢ¦ âĢ¦
D R
e le
Ġmathem at
Ġen act
ĠD ak
Ġ8 00
Ġl obb
7 00
ĠStew art
m ble
ter ror
Ġfle e
Ġc inem
Ġl os
us er
d ict
Ġinflu enced
Ġeng ines
on ed
ĠCapt ion
g ly
ĠGr iff
Ġend ors
Ġprodu ces
ol id
Ġtaxp ayers
Ġmon ster
Ġle aked
Ġr ic
ĠW ould
ĠRed dit
Ġrec overed
Ġhousehold s
Ġfing ers
Ġdevelop ments
ĠB and
Ġfl ights
ĠO pp
ut er
ĠEnter tainment
Ġas ylum
gg ed
im ir
Ġblock ing
ĠG ill
ra h
Ġresearc her
Ġedit orial
Ġsurprising ly
ou p
Ġpolit ician
Ġl ane
iz arre
Ġpack ed
Ġpubl ish
Ġimm une
Ġh ub
Ġj unior
Ġeng agement
Ġev olved
Ġin aug
Ġaccur acy
Ġang le
U C
ĠRuss ians
ĠF uture
D own
Ġep ic
ĠMod el
r c
ern and
Ġbat ter
ri v
Ġple asure
Ġexam ine
in ite
ĠTh ink
Ġt anks
Ġbl amed
ĠM ult
ĠV en
Ġdo ct
Ġp m
Ġdef ended
bl ock
Ġign or
Ġv ent
Ġoper ator
ĠComm and
Ġoccas ion
ĠL og
ER E
Ġrad iation
Ġl in
ĠH ad
ie re
Ġmet ers
v as
ĠW right
l arge
ĠC PU
ĠH IV
Ġant ib
Ġpro st
Ġexpect s
Ġearth qu
ĠT ower
Ġprivile ge
b ul
olit ical
Ġin her
H P
Ġv enture
Ġst ats
c ard
ethe less
Ġall iance
k es
ĠB or
ĠJ ane
ĠSh ould
For mer
id en
Ġappl ies
ĠPer ry
th odox
Ġrest ore
Ġmir ror
Ġtele phone
Ġexpect ing
Ġsen ators
Ġburn ed
ab out
Ġcour age
Ġvol unt
ĠA aron
ĠE b
res hold
Ġinev itable
Ġproduct ive
ĠUkrain ian
Ġcontin u
Ġoccup ied
for ward
Ġrele asing
ĠUS B
al id
Ġdist ribut
Ġalgorith m
Ġimpact s
Ġexplicit ly
ol as
Ġsub tle
K E
ĠMP s
Ġkill er
ĠM other
ĠS N
Ġpass word
J P
ĠMedic are
ke ley
ĠNether lands
Ġinf ection
Ġback s
? )
T E
Ġforg otten
ĠMiss iss
Ġtow er
om ic
Ġb arg
ĠT el
Ġ6 2
Ġj et
am ents
b at
lyn n
Ġen abled
b es
boy s
ĠPol and
Ġstri p
Ġthe ft
w ich
ipp i
Ġv it
ah oo
d ep
Ġun necess
Ġnation wide
Ġmod est
AT CH
Ġb ol
Ġcon secut
Ġcrit eria
le ep
Ġrel uct
t own
u ating
ĠN O
M AN
Ġregard ed
ĠHamp shire
ĠC R
ĠK r
Ġm m
ĠC B
Ġacc ord
ress ing
ĠOtt awa
ĠL ad
Ġra ises
---------------- ----------------
v ar
Ġorgan is
lim ited
f irst
ĠCorpor ation
Ġsole ly
eral d
ĠRed s
ĠN iger
Ġinflu ential
Ġun re
Ġuncom fort
ay a
ĠMore over
Ġm ales
iz ations
ĠD E
ĠCh ange
ĠChrist opher
Ġins ist
ĠE nt
Th ree
Ġt ent
Ġpromot ed
Ġdes p
ĠAb u
ĠJ un
ĠMedic aid
c ott
B r
Ġcheck ed
Ġw ise
9 1
ist a
ĠM orm
Ġsim ilarly
b in
ot ion
ĠG ib
G r
Ġcourt esy
Ġsh ops
ĠEgypt ian
0000 0000
il ation
ĠM arg
ĠEx p
ades h
âĸ Ī
Ġprov isions
ĠFl ash
ul se
ĠO R
Ã ¨
Ġuncertain ty
ĠH ung
T O
Ġ6 6
Ġdepart ure
Ġd iver
ĠP ope
Ġpain ting
Ġsc rew
Ġre ass
ĠLouis iana
Ġb ases
ond uct
Ġhand led
ĠB C
Ġke en
Ġqual ified
Ġconflic ts
ach ment
Ġfunction ality
f ish
or ate
B ook
ag ine
com p
ĠD rug
off s
ĠCanad ians
AS H
Ġtransp arency
Ġback up
Ġconcent ration
m ay
Ġch ips
ĠMod i
ĠT am
ut her
Ġinvestig ated
C or
b ian
Ġfl avor
Ġ6 3
ry ing
s uch
G ood
Ġtransfer red
Ġtrail er
ig e
ĠMar c
Ġball s
Ġo ught
o vers
Ġimp ressed
ne g
be ing
Ġv oc
Ġover l
Ġlif estyle
Ġl ens
Ġinvest ed
viron ments
Ġanal ys
Ob ama
Ġall y
Ġv oid
Ġbul k
Ġbab ies
Ġd imin
Â Ķ
ĠOlymp ics
Ġaccept ing
n ie
Ġcol leg
â Ĥ¬
ĠJer ry
Ġfl av
oll ar
Ġbel t
Ġprosecut or
ĠC as
amp a
ĠAl aska
? âĢĻ
Ġentr ance
Y eah
Ġ !
Ġin box
rif ice
Ġk iss
ix el
le ading
ĠR angers
Ġ `
ĠBl ood
ass ion
Ġel abor
Ġparticip ating
Ġform ula
Ġfil ter
ĠRub io
ĠTh ings
Ġrese mb
Ġsy nd
th ur
friend ly
Ġoper ated
S U
ĠW y
Ġprosec ution
Ġdr um
p ing
Ġle an
ur ches
B ar
ll or
Ġsust ained
Ġpres erve
ĠAb d
tr ack
ĠQue ens
Ġb other
AA AA
Ġin ex
l u
bre aking
Ġjur isd
Ġg ym
Ġm art
z one
un ity
t arian
Ġbet a
Am ong
Ġexam ined
ĠUn like
ĠiP ad
Ġsp ray
Ġthe ater
Ġrec k
Ġg arden
m illion
ĠSt ock
Ġlaunch ing
Ġabs urd
Ġaccus ations
for ced
Ġg ut
Ġsu ck
Ġexc use
ĠStan ford
ĠUn ivers
ism s
Ġrec ession
ick ed
at al
r in
Ġt ears
S upp
Ġpo lling
ĠQu est
ĠC old
id al
âĢĿ )
Ġsec ular
Ġhead lines
Ġconv iction
Ġdis abled
Ġcop s
ĠE mer
Ġconsecut ive
ell o
Ġsur ge
Ġdest ination
ĠT able
Ġdet ention
Ġcompl ained
Ġfuck ing
l aim
Ġobs erve
Ġmand ate
o pp
Ġlux ury
Ð º
Ġm ouse
im b
ĠD al
ĠO il
Ġro lled
ĠBe ing
bit ious
Ñ ĥ
Ġpol ar
Ġaffect s
Ġle ak
Ġf ed
Ġhe s
ĠN elson
D C
Ġneighborhood s
any ahu
Ġreflect s
ĠB ir
ath on
F urther
Ġer u
ug by
Ġphotograph s
Ġaccompan ied
olit an
Ġemphas is
w ords
Ġprov ider
ĠEd it
Ġdocument ed
ch ing
E m
p x
amb ling
ĠFil m
ĠSo ft
Ġlay ers
w all
or i
Ġt ension
Ġguid ance
Ġcons ists
Ġresident ial
ust ing
ĠTre k
Ġpra ised
Ġoccup ation
on ing
Ġsupposed ly
Ġanim ation
ĠW i
Ġdest ro
ĠL ocal
Ġsa ke
ĠMan ning
Ġp y
d og
n on
ĠH ans
E ach
ĠC C
Ġad ap
ĠContin ue
ĠPhilipp ines
Ġn u
Ġ6 7
Ġan ch
ĠN i
ous es
Ġp ose
as m
IL L
ri ke
Ġrenew able
g al
Ġst atic
l ink
ite ment
Ġpo et
Per haps
J o
ĠM ind
ĠStan ley
B el
ĠTy pe
ĠMc Donald
d f
Ġcompe lling
ĠCor p
ar med
Ġpost er
ĠEvery thing
Ġne ur
Ġfavour ite
Ġcook ing
Ġl ady
ĠN ich
ĠSc he
ĠJim my
o j
ĠS everal
Ġass ists
Ġb ags
Ġtrad ed
Ġf ut
un a
Ġexperiment al
ĠIm m
angu age
Ġmiss iles
Ġsee ks
). [
Ġa wards
Ġimp rison
Ġprevent ing
Ġint rig
Ġb one
ĠN ame
ĠFore st
uck er
ĠPlay Station
ĠNot hing
ĠBl ake
Ġsent iment
ĠHam as
Ġshel ter
ĠV in
Ġsto pping
ĠW inter
ĠStand ard
Ġinnov ative
Ġreal istic
Ġposs ibilities
Ġoccas ions
Ġtraged y
Ġse eds
Ġtr ains
Ġbeat en
le ted
sh ore
Ġin hab
ant e
ĠK night
ĠTok yo
Ġmyster ious
Ġsignific ance
Ġd ressed
Ġfin ishing
ĠTh ird
âĢ ³
Ġconstruct ed
Ġcompet itors
Ġf its
Ġmother s
ĠHT ML
Ġinteract ions
ĠN ature
Ġbo ards
Ġb ump
il st
Ġreview ed
ĠVictor ia
Ġkid n
N D
ĠCh ron
I O
ĠOrgan ization
ĠS port
ĠD a
Ġgl obe
Ġpan els
Ġch ocolate
Ġent ity
ĠN ash
Ġold est
Ġg olf
Ġbene ath
Ġout standing
ĠPro duct
Ġf er
Ġwal ks
ĠFin ancial
Ġunf ortunately
On ly
Ġ Ï
Ġthe oret
Ġconven ient
Ġen vironments
Ġadv ent
R O
c itation
ĠP ir
st ra
Ġd irty
ĠOther s
k ind
Ġdeal t
ĠWh it
cent ury
Ġspeed s
Ġman ual
Ġproduct ivity
ĠCh ampions
Ġproject ed
l ied
Ġreflect ed
r ons
Ġal ign
ac o
ĠS in
ur i
Follow ing
Ġres erve
ĠHe art
ĠD VD
B en
ĠGr ant
ĠMal ays
ĠA FP
Ġcirc uit
oy d
Ġcontain er
ĠÂ ±
Ġmortg age
Ġ6 1
Ġdispl ays
Ġcreat or
ĠEag les
Ġhost ing
ĠSwed ish
Ġicon ic
Ġt issue
Ġre cept
th al
ĠSnow den
put er
ĠS ection
M art
inc ial
or ia
Ġan arch
om er
Ġdrop s
Ġcalcul ated
Ġh iding
sh ot
Ġparam eters
ĠN a
Ġaddress ing
Ġpain ful
Ġreven ues
ard ed
Ġco in
io x
ĠBl ock
Ġr anging
Ġreg ret
Ġcelebr ated
Ġlibr aries
ĠG ard
Ġcross ed
Ġthe r
Ġcle ared
qu es
Ġce ase
Ġw isdom
Ġwire less
ari os
Ġlong time
Î ±
Ġspot ted
ĠD rive
ag u
Ġre wards
Ġw ore
Ġfil ing
ĠComm ons
ĠN ik
Ġlimit ations
ĠA y
Ġbur st
Ġr ivals
ĠW iki
Ġlight ing
ĠS EC
ĠK a
c ular
ren cies
Ġpregn ancy
Ġaw ful
ow der
ĠL arry
be at
ĠD omin
Ġdisc rimin
M on
Ġres ort
ĠSing h
âĪ Ļ
ist ance
ĠB ah
Ġto ss
ĠP oll
Ġadop tion
Ġb izarre
Ġearn ings
Ġb ip
ĠM and
Ġcross ing
is ive
Ġexplo it
u ccess
sel ess
ĠPh ys
m ons
for mer
Ġm isc
U D
Ġwh is
Ġgraph ic
b urn
ĠP i
Ġr iders
ect s
ĠT an
ĠR h
Ġsl ide
Ġam bitious
Ġcor n
Ġexpl oring
Ch ina
Ġ3 60
Ġv iable
Ġrob ots
ĠKurd ish
ond s
g ence
Ġth reshold
Ġdelay ed
ĠFurther more
Ġarrest s
ac cept
Ġuncomfort able
Ġd uties
AT ION
ber y
EM ENT
ĠY ang
oc ur
Ġear ning
IC E
Ġtri ps
Ġpred ec
Ġp ension
Ġf ishing
ĠF OR
Ġrel ie
Ġmechanism s
Ġatt orneys
Ġdevast ating
Ġ198 8
u ates
ĠColl ins
Ġappear ing
Ġamong st
ĠS E
win ning
ĠSte am
Ġbug s
Ġoper ators
Ġautom atic
t wo
Ġb icy
Ġdes ert
Ġover night
Ġsafe ly
Ġco ins
Ġinf ant
s k
ĠT R
Ġdocument ation
Ġmurd ered
I d
Ġmean while
Ġ1 000
Ġindic ation
P at
k ward
u ably
ia h
Ġact ed
n amed
ĠWay ne
Ġdepart ments
ĠSum mer
ch arg
Ġconver ted
Ġavail ability
er r
Ġco ord
D id
ĠRon ald
Ġliber ty
Un fortunately
ail ing
ĠP ear
ĠK al
ĠMag azine
Ġt ale
Ġcomplex ity
u j
Ġnewslet ters
go vernment
Ġbuild s
Ġcomm ands
ĠP a
Ġrad ar
A tt
Ġscrut iny
ĠC rit
ac ies
ĠMad rid
prof ile
ĠMur phy
ĠF ather
. ),
b u
ĠAir port
ĠPy thon
u els
ĠB ab
em in
ip her
Ä ģ
Ġadminist rative
Ġor g
Ġf et
Ġin du
May be
Ġview ing
Ġgent le
ĠF le
Ġwin ners
ĠJ en
Ġcollect ing
g ov
Ġdemonst ration
Ġsuggest ions
Ġc rown
ĠC itiz
Ġit er
Ġm unicipal
ĠS ac
Ġsleep ing
Ġcomb ine
re qu
ight ing
Ġtou g
P s
out ing
Ġact ress
} }
Mich ael
Ġbe ef
Ġpe er
Ġven ue
Ġcomm od
qu er
Ġsophistic ated
Ġinter ven
p in
ĠMel bourne
Ġca ution
Ġchemical s
v o
Ã ¥
Ġoxy gen
Ġcontro ller
ĠF O
IS T
Ġstart up
Ġp our
Ġpr ayer
ĠD isc
Ġprepar ation
Ġthem es
i ors
Ġr ice
Ġquiet ly
ĠV ar
Ġrel atives
Ġs ons
": "
I E
Ġworld s
ĠM A
ĠH uff
ĠN az
Ġhor rible
ĠBer keley
ell er
b et
Ġnight s
Ġ198 4
p ot
Ġr itual
ĠL ady
ĠPatri ots
c ount
ãģ ®
Ġt empt
ĠHun ter
Ġgold en
Ġcat ast
Ġintellig ent
ĠS ex
ĠL uke
Ġab und
Ġcount less
Ġsty les
Ġst ir
Ġcom ed
Ġt orn
Ġf ires
od a
ug s
j amin
ll i
ur ities
at oes
ĠF ederation
Ġver ify
Ġsing ing
Ġpubl isher
Ġto b
ĠIn n
Ġequ ipped
ĠI V
Ġdet ained
ern el
Ġ6 8
Ġw rap
ers ion
ĠC ry
Ġan onym
ĠCl oud
Ġgr ants
Ġbond s
Ġt ends
Ġfrust ration
Ġas pir
Ġt u
Ġnewsp apers
ĠMississ ippi
Ġfire arms
Ġtechn ological
spe ed
Ġpart ially
Ġrestrict ed
Ġcru el
Ġor ange
Ġre ign
m ap
ĠK y
ĠPro gress
Ġimp ose
Ġremem bered
Ġbub ble
ect ed
Ġc ous
Ġsuggest ion
Ġdeb ates
Ġme ets
Le aks
Ġal ike
cel ona
Ġdisapp eared
Ġdiscipl ine
Ġsepar ated
ĠB enn
Ġdes erves
ĠCl imate
Ġdeleg ates
ĠTr ue
ĠPe ace
Ġcomment ary
Ġc ave
Ġens uring
Ġhonest ly
are r
Ġinstall ation
Ġlog ical
ĠEx press
id th
Ġdem o
arent ly
ĠQue bec
Ġend less
Ġquestion ing
AT ED
b ably
Ġpar ks
ĠF ig
ĠCh rome
Ġreb el
ĠChristian ity
Ġth ro
Ġviol ated
ĠMan ager
Ġm ic
p y
Ġp ending
Ġnot ably
Ġhighlight ed
n atural
Ġgrad ually
) |
ĠL ions
ĠO w
Ġinst antly
ch ron
Ġtransl ation
Ġwitness ed
Ġpoor ly
Ġappoint ment
Ġ198 6
ĠS essions
Ġgra ve
ĠCamp bell
ĠBl u
ier re
o op
Ġcult iv
Ġm igration
Ġclim b
Ġann ually
ĠSt orm
Ġoff season
Ġcur ve
ĠIm p
ĠM as
Wh ite
Ġare na
/ .
Ġcompl ain
ĠAdd itionally
ĠSaf ety
c at
ĠAren a
Ġch amber
tt es
li ver
ore r
Ġplan es
ĠE C
S E
es ides
Ġpra ise
Ġep id
Ġpr icing
ĠMarsh all
Ġfor b
h ill
Ġexpl oration
Ġreact ions
op les
Ad vertisements
Ġincor rect
The ir
Ġcon ced
ĠP od
ĠVlad imir
wit zer
Ġemploy er
Che ck
ĠT oy
TH E
Ġsupp orter
ĠMor ris
ĠC os
vers ion
Ġrepl acing
Ġline back
ĠCub a
ĠH P
ĠCoal ition
s ize
arm a
Ġm akers
ĠOr ange
lect ed
Ġenter prise
Ġceleb ration
Ġp owered
G M
ĠP ok
med ia
Ġpros per
Ġfasc inating
ĠL en
ar ians
Ġtrans mission
found er
om ach
am an
form ance
ĠN ative
ĠFor ces
Ġamb assador
-- -
ĠAr ts
â Ħ
Ġalt ogether
Ġdraft ed
Ġprotect ions
olog ically
ĠF ind
f i
M in
Ġf urn
em it
el come
Ġs izes
ĠFer gus
Ġsh ake
Ġmount ains
ĠWat son
Ġ7 00
T witter
Ġder ived
Ġdesign ated
ĠL aur
at ter
Ġto ll
ĠG ene
Ġcrop s
M edia
Ġ7 6
Ġst arter
ĠKick starter
it ivity
ĠDe ep
Ġscr atch
ĠS aint
Ġd il
au cus
Ġpsych iat
ĠSpe aker
les h
Ġcour ses
p iece
ond a
Ġas h
ĠW ard
Ġsum mary
Ġtob acco
Ġdeliver ing
Ġelect rical
f ile
Ġagric ulture
ĠCongress ional
F e
ĠR ap
ast ed
Ġdirect ors
t it
L a
ĠG re
ĠG PU
Ġcar rier
Ġst unning
Ġad j
Ġdev oted
Ġbath room
Ġbuy ers
N T
Ġfr act
ĠEnvironment al
ĠRe id
Ġcal endar
ĠP el
Ġw ound
ĠR T
ĠDak ota
ĠBe at
ĠM uch
) (
Ġpre view
Ġfle w
o ard
Ġadv ised
Ġg host
Ġtr ucks
ude au
ĠP rom
Ġ197 9
g ments
Ġprevent ed
Ġl yr
1 10
it ate
Ġcont ents
Ġwe aken
s ur
Ġd uration
Ġsevent h
Ġg reet
ĠHis pan
Ġtravel ed
Rep ublic
Ġper mitted
Ġmet aph
Ġpled ge
ĠRog er
PD ATE
Ġdr inks
ĠÂ ©
Ġeth ics
F S
Ġh unt
Ġcomput ing
W orld
Ġdam n
W ar
d ev
Ġ) ;
Ġfocus es
g roup
Ġmarg inal
ĠNet anyahu
Ġobserv ations
ĠCommission er
ra it
ock er
DA Y
ult s
ĠOx ford
Ġvacc ine
Ġhistor ically
ĠMcC on
S et
ĠR ow
ĠLaw rence
d ec
ĠF R
augh ters
ĠR ound
ĠCor ps
Ġreveal ing
Ġlapt op
Ġun l
hy th
Ġpl acing
Ġsac rifice
Ġpri est
Ġaccompl ished
Ġy ard
ĠN ap
Ġconclus ions
im s
Sec ond
b rew
E ng
B ig
b ie
h ol
d ing
um m
ĠHe at
or ig
mind ed
Ġaw kward
ĠJ ets
ĠQ ual
Ġarg uably
Ġsa uce
um ing
ell a
T ake
ĠJac ob
m n
Ġn ode
Ġst ressed
j an
Ġent ities
ĠBloom berg
ĠH ann
Ġtable t
anc hes
d am
and ed
Ġmechan ics
Ġadvoc acy
Ġcomp r
G iven
or ical
Ġpress ing
Ġc am
Ġcap ability
Ġdep os
ĠB aker
ĠK as
H ave
ĠF CC
Ġqual ify
d rop
Ġpen alties
oc us
Ġpro l
Ġess ay
ĠAgain st
Ġaud iences
and y
Ġdec or
Ġfr ank
ag raph
ĠHawai i
ĠTai wan
ĠEd itor
Ġinvest ing
ĠDe an
Ã £
L O
X X
appropri ate
Ġp or
Ġha z
Ġtut orial
d i
Ġbe ars
S everal
og g
ĠR oc
Ġpain ted
v ol
N G
Ġassum ption
ĠTe a
ĠU I
ru p
ĠCh all
witzer land
ĠPost s
ĠH us
ĠU C
Ġad vertisement
Ġsw ord
spe cific
Ġrespect ive
Ġhapp iness
Ġbound aries
Ġsp y
Ġcitizens hip
ĠR aid
Ġcirc les
Ġst un
writ ten
Ġfac ulty
Ġshoot er
Ġgro cer
s upp
ĠLe vel
ĠMit chell
Ġz omb
h alf
Ġm ild
Ġcoordin ator
Ġquant um
B re
m id
at in
Ġmon etary
Ġoper ates
Ġunderstand s
Ġg aining
ĠSm art
ut o
Ġovers ight
m other
Ġsupp lement
en cer
âĦ ¢
ue z
Ġin eff
m are
Ġdist ant
ĠCh ap
Ġprint ing
S D
pro t
ĠRec ords
Ġsc ary
Ġacqu isition
Ġt ill
ĠMot or
g ary
st orm
Ġinter rupt
Ġilleg ally
Ġheart s
Ġl one
ĠT odd
20 10
Ġrespond ing
Ġattend ance
ĠNC AA
Ġfemin ist
Ġapp lying
Ġsup rem
ir s
Ġbit ter
z b
ĠE ve
Ġfrust rated
oty pes
z es
20 11
Ġmotiv ation
Ġsh ocking
ĠF lynn
âĢ ĭ
Ġinc omp
Ġhost ile
Ġpat rol
Ġsaf er
Ġexch anges
ortun ate
Ġexpert ise
ĠFergus on
Ġt um
Ġe ars
" ,"
ĠR ain
ĠG ab
le ments
ĠJ ess
Ġenjoy ing
form ed
Ġbu nd
lim inary
bo ards
Ġunnecess ary
D E
ĠBe h
Ġexperien cing
v ious
ra ham
T IS
ĠC L
Ġw ings
ĠK u
ĠHot el
Ġconfirm ation
ĠRes p
st ring
Ġj okes
Ġdes ired
Ġv ague
ĠS ide
Ġf illing
Ġemer ge
at re
Ġfast est
Ġscen arios
ic ut
con nect
ab ling
Ġorient ation
d eg
st an
Ġachieve ment
Ġcontribut ing
Ġcount ies
ast ing
out heast
Ġpop ul
Ġhar vest
Ġ198 5
ow ell
Ġb io
Ġm amm
Ġbre ach
k m
Ġprot otype
M ed
ĠE lection
Ġimper ial
W S
ĠR y
in itely
Ġover d
au c
Ġhack ing
ĠRem ember
fl ow
ĠG a
Ġstrong est
M en
Ġdiv ide
bor ne
iv an
Ġtreat ing
Ġped est
or ient
Ġagric ultural
d ata
f s
ĠInd ians
le ton
Ġconvers ion
ĠS M
ig ers
Ġsl a
st ory
ĠMedic ine
is ode
ec onom
i ary
ĠBl og
Ġcomp osed
ac ular
H ist
Ġn ull
pl ing
ĠH ide
Ġmand atory
? '
ĠLeg isl
Ġlong est
Ġadd iction
com ed
Ġt une
Ġmanufacture r
Ġh ier
ver ning
Ġrece ives
Ġiniti atives
Ġdist inction
Ġp ione
Ġl anes
Ġsh orter
Ġ198 7
pro duct
ĠP ur
Ġd ensity
ut t
ĠSw iss
ĠR io
Ġint ensity
umb led
m atic
Ġu gly
Ġst omach
val id
ĠL ie
ĠPhil ip
ĠD J
ĠB uck
Ġoper ational
b ecause
ĠM D
Ġce iling
ĠMod ern
Ġreserv es
Ġt ar
Ġcr ude
uer to
th ink
Ġbal anced
ĠF if
Ġrif le
Ġpress ed
Ġacqu ire
Ġport fol
Ġequ ity
Ġre hab
ĠGr ay
US A
im ens
ust ers
Ġres igned
Ġ6 9
Ġser ial
Ġflex ible
ere r
Ġrespect ed
ĠS ong
Ġch urches
ĠF ro
P I
ĠPark er
Ġins ane
iv a
Ġtrans formation
ĠBr us
Ġbu zz
Ġpan ic
Ġsent ences
ac er
ĠAr ctic
es is
ĠK rist
Ġdr ones
ici ary
ĠS aints
Ġra id
ĠAbb ott
Ġsubsid ies
ĠF ried
Ġhe aven
Ġaccept ance
on ia
Ġjud icial
m art
Ġl ung
ĠH end
ry ption
Ġfr ight
Ġide ological
Ġfree ly
Ġhuman itarian
ĠTem ple
Ġdirect ions
ĠBr andon
Ġc ats
Ġharm ful
ĠSm all
ĠLa ure
Ġcrowd s
ĠF arm
Ġcomp osition
Ġp ays
ĠI an
Ġcontro lling
Ġspace craft
Ġdeliber ately
D ata
F igure
Ġn aked
Ġparticip ated
Ġcomple tion
Ġdifficult ies
B est
act ory
Ġpe ers
ro c
Ġanticip ated
Ġs her
Ġcult ures
ĠBar celona
ĠA wards
iz ard
Ġgr ateful
Ġvolunte er
b art
Ġc ake
ay ed
ĠM itt
Ġhigh way
Ġexplos ive
Ġp ink
hand ed
Ġflu id
Ġres idence
Ġpartic les
H ar
idd ing
Ġher itage
Ġspread ing
Ġex em
Ġcondem ned
Ġcrypt ocur
Ġsla very
Ġeconom ies
are ttes
Ġflex ibility
ĠM ov
ĠM aine
Ġto ile
Ġform ally
Ġadvant ages
Ġt el
gl as
Ġcle ver
Ġconsequ ence
ĠE D
Ġtou ched
Ġve gan
ict s
ock ets
Ġworth y
ĠD raft
urn ed
Ġapp eals
Ġatt ributed
w hen
amp ed
A V
ĠN eed
ĠT ampa
Ġ19 30
Ġpres erv
Ġdis par
ĠR ice
N orth
Ġsec ured
Ġqu otes
st art
ĠN atural
per or
Ġnon profit
s ized
E uro
o ons
Ġvir al
Ġprior ities
c ode
Â £
Ġmut ual
Ġd ign
Ġre aches
f ox
Ġinc ons
ĠPr in
ĠCh ance
A nt
Ġl un
N EW
inc inn
Ġst ocks
ĠD or
oc ate
Wh ich
ĠT alk
d ale
e or
i ated
Ġaltern atives
B R
ĠS ud
ĠMc M
n or
w estern
Ġ7 7
Ġappro ve
Ġpurs uit
Ġlegend ary
Ġfin an
m ain
Ġtechn ically
Ġconserv ation
UT ERS
ĠCommun ist
c rat
p ace
ĠF DA
Ġwid th
Ġz ones
ch i
Ġimm igrant
Ġcon j
ĠCent ury
ĠVenezuel a
Ġn ick
ĠArt icle
Ġrum ors
Ġarm or
ĠBar ry
Ġrot ation
Ġdivor ce
Ġb ones
Ġ7 4
ĠB eng
b est
Ġexp ed
Ġf are
Ġbreak fast
ĠBen jamin
r ane
Ġw rapped
Ġtr apped
Ġm ixture
K ey
Ġteen ager
Ġrespond ents
Ġg rip
at ile
ĠCo hen
ĠEv ans
Ġbrow s
Ġdistur bing
ĠK erry
Ġflo ating
incinn ati
Ġ7 3
Ġdetect ed
Ġfit ness
Ġelder ly
ĠD ub
ud ge
ne ver
Ġtend ency
Ġab ol
Ġmag ical
l en
Ġref using
Ġexc itement
Ġtun nel
Ġinst inct
ĠV ery
is en
ĠB art
ĠM obile
S er
g t
it ably
or ph
ation ally
ere n
ĠKir k
Ġdecl are
Ġdecl aration
e u
w he
Ġt ensions
Ġro cks
ĠPart ners
Ġdiscl osure
Ġsatisf ied
Ġgr asp
az y
cont rolled
Ġkn ocked
ĠI C
ĠT a
Ġaff air
Ġliber als
ĠS witzerland
ch arge
ĠHar vey
Ġhope ful
Ġdisp os
Ġres on
Ġinf ring
Ġp osed
on er
ĠC a
Ġis lands
ĠCamp aign
Ġr all
A ust
O rig
pr ising
Ġshif ted
Ġres olved
Ġassum ing
r ust
ĠA w
ul pt
Ġavo ided
Ġatt itudes
Ġto ken
Ġtrig gered
ĠB ears
Ġtradition ally
m i
ĠM om
Ġtransp arent
Ġinstru ments
Ġrep ly
Ġgreen house
Ġdec iding
Ġbar rier
Ġcondem n
Ġimm ense
Ġident ifying
VER TIS
In ter
ll ers
Ġhat red
Ġanim ated
ĠE arly
Ġtext s
( '
t ics
F ree
by n
ĠJ e
ĠAm b
b age
Ġremind ed
st ore
Ġconst rain
Ġabs ent
Ġrus hed
s chool
l as
Ġexcess ive
H aving
ous ing
st ock
N ever
ĠAl t
Ġs ends
il ateral
ĠB und
ĠKe ith
ĠCirc uit
Ġwel comed
ĠB uilding
ĠAlbert a
Ġf est
qu ality
ĠDou g
Ġmechan ical
Ġdefend ers
Ġpled ged
âĸĪ âĸĪ
Ġrom antic
Ġsocial ist
Ġdesign ers
AC K
ĠT un
ab il
Ġwa ited
Ġthrow s
ank ing
Ġbr ains
Ġ8 2
Ġch ap
ĠBuff alo
ac ent
se ud
Ġsh ar
Ġannoun cing
Ġm asc
he alth
ĠF isher
Ġag greg
Ġedit ors
Ġtempor arily
ĠChrist ie
Ġwal let
val ue
Ġthere by
ĠAnt i
Ġcolleg es
P ar
Ġcolle ague
Ġsu itable
Ġhy brid
Ġtour ists
ĠLyn ch
Ġha bits
Ġindic ating
Ġobserv ation
Ġprov incial
Ġpen et
Ġprob ability
Ġathlet ic
Ġcompl iance
Ġess ence
Ġclick ing
Ġbutt ons
ĠE li
keep er
ĠMcCon nell
Ġinter rog
Ġcast ing
Ġlif ted
Ġsec rets
Ġass ured
ĠSte in
c s
Ġl ake
Ġparliament ary
ĠWiki Leaks
ri en
pl an
ĠNor way
Ġsqu ee
Ġgrow s
ĠF un
Ġch ampions
oll ah
Ġh orm
ãĢ Ĥ
ĠWar riors
Ġdeploy ment
Ã£ o
ĠCh o
ĠDep uty
l ib
Th rough
C NN
ĠD om
ne red
Ġbel oved
Ġste ep
Ġminor ities
Cl inton
op ard
f il
ĠI RS
Ġspark ed
Ġr ib
Ġremind er
R T
st ep
ig hed
Ġgrab bed
ĠPok Ã©
Ġt at
z o
S ch
Ġcl uster
Ġeconom ists
ĠColumb us
Ġimag ination
ab l
Ġtreat ments
Ġsupp ose
Ġedit ing
ĠK yle
Ġoptim istic
ĠTer ry
Ġstr ain
Ġtrust ed
Ġwh istle
r idge
Ġpurs uing
ar ound
Ġpre ference
Ġbar riers
ĠB ou
ĠOcc up
Ġhum or
Ġunf ortunate
n ormal
Ġprev al
Ġmeant ime
s ign
ĠM oney
Ġpresum ably
Ġwor ship
Ġeconom ist
rop olitan
Ġt rop
f old
Ġb ass
be it
ĠR aven
Ġmet ab
Ġt ong
ĠMor ning
sec ond
Ġlegisl ature
Ġin hib
ĠY ahoo
Ġdam aging
Ġur ge
th an
Ġcomp os
Ġdet ain
Ġinfect ed
Ġf ont
Ġfem ales
ĠTr udeau
s ki
en c
Ġear liest
Ġfro zen
T om
ĠK arl
Ġdecre ased
P ress
Ġsurviv ors
Ġde ce
ruct ive
ĠIs lands
Ġsac rific
EC T
Ġcapital ist
Ġlicens ed
ist ani
ĠO scar
Ġf ru
Ġn ons
ĠM M
B et
ĠP uerto
Ġunder mine
ĠWik ipedia
Ġwarn ings
Ġembed ded
ĠTh under
ir k
ĠUn iverse
b ig
Ġplan ets
af i
ĠUb untu
iz able
ĠLiber ty
ĠMorm on
Ġrec onst
Ġem pire
Ġexp end
Ġ7 8
Ġwh ites
enn a
ĠSci ences
Ġun ity
Ġdec ides
ĠFrank lin
ĠConnect icut
ol k
Ġex ports
ĠT reat
Ġbreak down
Ġsens or
d ig
op es
t ail
Ġregul ators
Ġstruct ural
ing ing
Ġsu ed
ut ical
Ġpure ly
ĠMem orial
Ġconduct ing
ĠE mb
Ġ7 1
Ġt ang
ĠÂ ĵ
L Y
Ġsoc ieties
Ġintent ions
b les
Ġapproach ing
h ave
v ation
force ment
c end
Ġsc rap
iff erent
Ġwind s
Ġconclud e
Ġh ill
ĠF igure
ĠBr ady
ĠRog ers
Ġal ph
Ġa est
Ġdiagn osed
ĠU ntil
ĠConserv atives
Ġaccount able
ĠTe xt
ĠProf ile
ad vant
ĠC z
ĠGu ide
S y
s ky
ĠK ind
Ġw ishes
ĠD NC
V ideo
est one
Ġdo se
ĠS ep
Ġvert ical
ĠBrus sels
Ġs illy
ot ton
Ġeth ical
Ġdraw s
m aster
g i
Ġstab il
Ġpurch ases
ol ine
Ġbl ess
ĠU RL
ĠSpir it
Ġc ort
AD VERTIS
Ġfar ms
ĠJ u
Î ½
Ġoff set
Ġbatter ies
ĠM ission
ĠR oom
Ġgif ts
th a
p owered
icial s
Ġinn ings
ĠJeff erson
ĠN ort
i ots
Ġbe ll
abet es
1 20
ĠC arson
te ch
Ġins urg
Ġsucceed ed
ĠTurn er
ĠS alt
ĠA B
Ġfl ip
Ġexec ute
ĠPri ze
ĠP ed
S ign
Ġident ification
Ġbenef icial
Ġsoon er
ir able
Ġtr agic
ĠMc L
ĠE ss
f ive
p ublic
is ers
f ly
ĠStud ios
on i
ĠCam bridge
Ġinter ference
Ġcontact s
ool s
ard ing
per ial
m outh
J an
ĠI ss
ol o
arent s
Ġmagn itude
Ġfail ures
Ġhead line
Ġ vel
accept able
Ġver dict
Ġhack ers
g ian
Ġdis pro
Ġd aughters
Ġdis orders
C ap
ect or
Ġa uction
Ġdem ol
Ġ198 3
S outh
ĠW orks
ĠWW E
. :
Ġten ure
vis or
Us ing
ĠRod rig
Ġdis g
ank ed
ĠC rown
Ġwond ered
G ame
ĠG arden
l ive
Ġarri ving
Ġstre ak
ĠD og
Ġfin ancing
ank a
ĠD ate
Ġadv ances
Ġretail ers
O ct
r int
ur red
ĠCow boys
Ġfeed ing
L ink
ĠHoll and
Ġd ys
Ġlast ed
Ġpassion ate
p ath
Ġsm ugg
Ġboy friend
ĠF el
Ġrec y
Ġcomp aring
Ġex empt
Ġcorrespond ing
Ġa ired
Ġprocess or
( );
ol er
p op
Ġbe ers
not e
Ġscreen ing
Ġcomp ly
Ġgam ers
ĠGu y
Ġple aded
Ġvill ages
Ġpil ots
Ġr iot
w al
crib ed
Ġfr action
A h
Ġtaxp ayer
Ġentreprene urs
ĠVer mont
O s
Ġgo verning
$ $
ĠN av
Ġag rees
ĠB uy
Ġincl usion
Ġ198 2
Ġper mits
ĠC ass
ĠJ oy
ĠCh uck
J ames
st age
ĠCommun ications
Ġcart oon
A G
ors es
aren thood
Ġtem plate
ĠPlay ers
h ome
ch a
Ġl aser
Ġdon ated
Ġemot ion
ant o
Ġmill enn
Ġche er
Ġret reat
M ake
Ġp upp
ĠZ h
B ER
ĠC orn
Ġste am
Ġdec ks
W ork
back ed
ham mad
Ġenc ount
own ers
Ġgener ous
it bart
Ġcont am
ard less
Ġan ime
ĠRob in
Ġl ip
Ġadm its
Ġorganis ations
Ġencount ered
Ġcount ing
Ġpsych ology
Ġle verage
Ġenh anced
u cc
ĠSt ars
ĠO liver
ĠArk ansas
Ġm ock
Ġbelie ving
ĠFor mer
Ġc ub
Ġund ers
ĠG host
Ġlack ing
Ġam pl
Ġfe ared
uss ion
co ins
ear chers
d irect
g iving
s ource
Ġind ict
ĠBr and
Ġl ib
Ġtra its
h aul
ĠD M
ĠNe il
Ġdestro ying
Is lam
Ġout er
Ġgr ace
M et
Ġb oring
ĠC incinnati
Ġun h
ace utical
Ġsl ower
point s
ĠAM D
ĠAd vent
ĠIslam ist
R ober
Ġclim bing
Ġgen et
Ġdoub led
ĠGall ery
Ġafter math
V al
ĠTy ler
ĠRE UTERS
Ġaw a
Ġsuspic ion
elt a
ĠMer kel
Ġsolid arity
F our
Ġhypot hesis
G od
Ġin sect
Ġd umb
Ġtermin al
ĠBrad ley
Ġcollaps ed
Ã Ĺ
Ġcons iders
ĠMad ison
Ġvar iation
Ġp izza
ĠM ember
Ġdisc our
ĠMil itary
Ġinst itutional
ĠSh an
au kee
ä ¸
Ġmed ian
ĠDown load
w idth
Ġtr ash
ple x
ed ed
Ġden ial
200 9
ĠB h
ĠSen ior
Ġmass es
ĠCount ry
Ġsequ el
ĠPr inc
Ġcare ers
Ġre un
ĠH unt
angel ical
Ġf t
Ġn an
ĠSus an
Ġf ierce
Ġtransform ed
claim ed
ĠEl sa
ĠS W
IV E
im age
ĠSpe ed
ah a
ĠSol ar
in ance
Ġf ence
ĠA th
ĠPet ers
ĠCharl otte
id ays
r ained
re r
Ġsp awn
ĠBro s
ĠGl ass
Ġcivil ization
Ġsusp icious
Ġdirect ory
ast ically
Ġjust ified
iss a
Ġincent ives
R ich
Ġcompar able
Ġking dom
sh irt
Ġjump ing
ĠR ail
ĠE X
at on
ur able
St art
ur se
Ġspons ored
Ġrecru iting
U I
Ġf ib
ĠWith in
Ġbott les
ĠT ob
Ġrec ount
Ġinv ented
Ġmag netic
Ġgl ob
Whe ther
ĠEb ola
Ġroutine ly
Ġcomp iled
ĠCol omb
Ġlyr ics
Ġcelebr ity
Ġc odes
un ct
ĠB E
Ġag ing
ĠTh or
aw s
Ġclean ing
ĠFant asy
ah l
Ġtransl ated
Ġout right
Ġinv ite
Ġtreat y
ĠK am
Å ¡
. âĢľ
ĠMar co
is ible
Ġdon ation
Ġwhe els
Ġlobb ying
Ġmotor cy
Ġsl ave
Ġed ited
Ġeduc ated
ĠThe atre
N Y
A lex
Ġ( )
Ġlicens ing
Ġaccur ately
Ġincent ive
l ie
Ġwar fare
Ġvis a
Ġisol ation
U PDATE
w aukee
Ġfound ing
Ġsens ors
Ġ= =
ĠV A
Ġcomp ound
ip h
Ġsepar ation
M al
Ġwork place
Ġmon sters
Ġac res
Ġtem ple
Ġl au
Ñ ı
Ġme als
Ġorgan izing
Ġcred ibility
Gener al
Ġth irty
Ġnegoti ate
it ative
au x
ĠE V
Ġn it
Ġmidfield er
re nder
Ġm erc
Ġshif ts
Ġh oney
ĠH ills
ĠR ams
ĠSc ar
Ġwilling ness
Ġcreat ors
ĠCor byn
al og
ĠH ub
writ er
Ġp ist
ĠInt erest
Ġadequ ate
ĠJ ake
Ġreg ards
Ġmon op
Ġbr anches
ad ows
Ġfun eral
Ġtr ace
Ġur ging
Ġcry ing
Ġswim ming
Ġrus hing
ĠB ash
are st
Ġproceed ings
out ube
Ġreal m
ill o
ather ine
ĠMar ia
ĠHind u
ig ma
Ġy e
Ġcontin uous
rodu ction
Ġauthor ized
Ġeval uate
t able
u ced
Ġment ally
ĠLuc as
Ġen ables
Ġfirm ly
Ġcommission er
Ġearthqu ake
Ġcreat ivity
ĠPolit ical
Ġhe nce
Ġgr ain
Ty pe
Ġpre liminary
ĠIndones ia
ADVERTIS EMENT
H ill
ĠP ap
Ġvac ation
D ay
Ġshe d
ĠTit an
ss on
B L
ugg ed
Ġch ains
Ġele ph
Ġint u
Î ¿
Ġfire f
dri ven
Ġlab els
ĠR C
Ġte ens
Â ®
Ġb ust
Ġintrodu cing
Ġv ibr
W A
her ic
Ġhelicop ter
Ġd irt
d ays
ate ur
ĠM ort
Ġstatist ical
Ġalbum s
P N
Ġ' '
ĠBull s
Ġmatch ing
Ġdetermin ation
Ġelimin ated
ĠN ixon
Ġconv inc
Ġpl aint
Ġind igenous
Ġind irect
St ud
ĠD est
fe ld
ord able
Ġsn aps
at ers
Ġ1 10
ess ional
ĠStud io
Ġd ivers
Ġinst ruction
iv ic
Ġto y
Ġnovel s
Ġunve iled
ĠL ED
ale y
Ġtri ple
S M
ĠQ aeda
Ġaud it
ĠVer izon
pp y
row th
ĠC ut
pe ople
Ġpar agraph
Ġexcept ions
Ġshould ers
Ġdub bed
Ġbreat hing
ĠP ence
Ġscream ing
umb ling
Ġ196 7
Ġf ict
Ref erences
Ġdam ages
Ġ8 8
ĠLeban on
Ġv on
ĠG arc
Ġinteract ive
ec hes
G reen
Ġult ra
Ġwild life
ĠF ab
Ġsevere ly
Ð ²
Ġfold er
ĠSe ah
qu al
Ġpe oples
OS T
ĠBern ard
o a
ĠD anny
ĠPol ish
Ã© s
Ġkill s
Ġover look
k g
Ġtouchdown s
T unes
Ġcomment ed
â ĪĴ
ĠFriend s
ĠC art
Ġ198 1
Ġgrav ity
Ġr hyth
Ġlike lihood
Ġcomp assion
Ġpart ial
ĠA ve
ue ller
Ġlay out
Ġsc ulpt
Ġavoid ing
RE AD
H igh
p ur
ĠC reek
Ġdis m
ĠD R
Ġj ew
ĠCl ar
ĠLe af
ĠAn im
Ġcounterpart s
ili ation
Ġbet ray
Ġ Ø
ĠBl ues
Ġspecial ist
cul es
ell ar
ubl in
Ġcount ed
Ġair line
Ġtrad itions
ĠM i
D ep
l ash
roll er
Ġmusic ians
Ġappeal ing
ĠR osen
ĠSt re
ul ative
ĠAr thur
Ġlength y
Ġpath s
Ġlaws uits
Ġse ctors
ĠL ane
W rit
Ġc ents
Ġshe er
ĠP interest
Ġad mission
Ġun st
ĠBron cos
ĠG onz
Ġwood en
ri ving
Ġshif ting
J ack
Ġtraff icking
Ġendors ed
Ġqu ery
olph ins
it ated
Ġsmart phones
Ġthreat en
Ġreason ing
Ġp owder
te es
j ar
Ġrel ating
ail and
W est
ĠG ate
ro se
res a
Ġtrad em
Ġportfol io
Ġp ub
Ġinvest or
ĠG ates
it ial
Ġes p
Ġimplement ing
Ġwork force
Ġoblig ation
aff e
.. ."
ĠGl enn
if ting
th s
eng u
Ġconnect ing
Ġsl ip
Ġdem on
h al
Ġtw ist
Ġdisappoint ing
D B
Ġaffect ing
ĠSh adow
ĠTrib une
Ġin ch
Ġunder way
M I
p rom
Ġbra ve
ĠE dd
v als
Ġdel ays
ian g
Ġless er
Ġs ie
Ġthorough ly
Ġp ants
Ġfol k
ke ys
Ġwor n
Ġwhere ver
he ll
S uper
Ġarr anged
Ġloc als
Ġfundra ising
Ġun rest
ĠPokÃ© mon
ĠAn ne
ĠDou glas
U E
Ġprec ious
Ġsubsc ription
Ġun ch
ĠM ust
ĠUnivers al
i ology
Ġ197 3
2 000
Ġconsult ant
ĠJ a
Ġ18 0
w art
Ġd ivid
ĠSer ge
Ġbankrupt cy
ĠB JP
Ġrenew ed
Ġ Ù
Ġaccomp any
mun ition
Ġarrange ment
Mus lim
Ġsher iff
es ity
Ġimp ress
Ġaver aged
Ġform ing
ĠSystem s
ĠT D
al in
g el
Ġproblem atic
ĠS ad
Ġpredict ions
air y
Ġattack er
ĠBook s
Ch ris
S ometimes
Ġtrans f
Ġtri umph
Ġveget ables
ĠBrook s
J apan
Ġoff shore
v iol
orn s
Ġclass ical
ĠS ox
Ġestabl ishing
Ġgod s
Ġâ Ĩ
Ġle agues
ck er
C R
c up
Ġ8 4
Ġfilm ing
======== ========
n ik
ke es
Ġ1 30
Ġgener ating
Ġfor ums
ac ious
Ġmar ine
ias m
iss ance
ĠWe iss
Ġdesc ript
M B
ĠFin ance
Ġmar ry
ĠLt d
] :
Ġsh ore
Ġwrest ling
Ġm aker
O V
cl osure
Ġh ij
ne ath
arth y
u v
lev ant
it is
oot ing
ĠJ oh
oc aly
ra pe
Ġmat ched
p se
Ġcor ners
Ġorig ins
ĠT ell
ĠH um
Ġaccount ing
Ġdoct rine
Ġam end
r ament
ios ity
ĠBrazil ian
Ġsp are
Ġrec alls
Ġclin ic
Ġo x
red ict
ak u
Ġ7 9
ĠW oman
D ec
lud e
add y
b ull
ig nt
se lling
Ġcoc aine
ĠH at
ĠL ess
Russ ian
Ġcompat ible
F ig
Ġsupport ive
ĠB os
ĠB ond
Ġstat ue
ĠP T
Ġtest ified
Ġgr ay
Ġh oly
Ġfar ming
i op
ĠBelg ium
ĠR oth
Ġsh aped
Ġmort ality
G erman
ĠC her
ĠC elt
Ġorgan ize
Ġcontin ent
Ġconsum ed
ĠGold man
ĠB Y
Ġaut ism
umb l
Ġadjust ed
Ġpurch asing
Ġ ì
Ġ19 20
ĠK le
Ġb ite
Ġliter ary
ĠRe ed
Ġspec ified
ĠL iving
Ġphotograp her
agh d
Ġun anim
Ġ197 6
Ġteen age
Ġdis advant
Ġ196 8
Americ ans
Ġves sel
Ġw reck
Ġsound ed
ugg ing
f eed
H D
ul um
Ġhe d
Ġloc ally
Ġshoot ings
Russ ia
ol an
Ġ197 2
ĠAg ree
Ġgar bage
Ġelabor ate
u um
Ġcertific ate
ĠRaid ers
ĠIs a
Ġautonom ous
Ġcy cling
ĠPak istani
Ġprohib ited
pr ing
Ġindepend ently
Ġesc aped
Ġt ub
ĠV eter
Ġ: :
ĠM ason
Ġgall ery
T or
Ġcost ly
pe red
ble m
Ġref lection
Ġmount ed
Ġf uels
Cl ass
ĠSeah awks
Ġlabor atory
Å į
Ġgr at
et ing
Ġadapt ation
Ġsk illed
Ġvulner ability
Ġsu its
B rit
Ġbehavi ors
ins ula
N ET
Ġatt ributes
Ñ ĭ
Ġ19 40
ĠRe ading
as i
Ġsw ift
Ġroy al
Ġlist ing
iz ont
Ġpe pper
Ġins ists
Ġphot ography
ĠSand y
ĠHigh way
ĠBr un
RE S
fund ed
he w
Ġd iox
Ġpract ically
Ġres et
l ay
ĠM MA
Ġdark ness
Ġassum ptions
ĠS omething
ĠA CL
Ġexha ust
he lp
id ges
ap y
bl ack
IN E
Ġsa il
ĠN in
Ġlim iting
D oes
ab el
Ġh alt
Ġlaugh ing
Ġpubl ishers
ãĢ ģ
ĠWal ter
Ġcons olid
Ġenc ryption
Ġchart s
Ġd ated
ĠEx change
ĠA my
ull ivan
ĠH em
Ġresign ation
h is
Ġafter wards
Ġin mates
Ġmob il
ĠA gr
Ġr ated
Ġinter cept
ah n
Ġtrans cript
Ġf ame
Ġle af
Ġunf old
ĠAut o
ion ed
ĠMu hammad
ĠIn v
Ġaggress ion
ĠP arenthood
ol utions
C ity
Ġlineback er
Ġdemonst rations
ĠA qu
mar ks
we alth
oc ity
Ġne at
A c
Ġab used
oub ted
Ġunc ons
re ach
lement ary
t or
Ġaccommod ate
j e
ING TON
Ġhe aling
Ġsear ches
ĠSoft ware
ĠAl f
ignt y
S uch
ĠO d
min ation
ĠPr int
Ġfrust rating
w er
li ent
ack er
Euro pe
Ġbes ides
f our
ĠS el
Ġres ume
ĠCo ach
Ġtim eline
Ġp orts
ĠS or
ĠV irt
writ ing
ĠS oul
Ġpred omin
Ġrep ublic
ch air
ĠSub scribe
au er
Ġap ology
Ġswit ched
Ġpro x
ĠW onder
Ġaltern ate
ĠBet ween
Ġt ier
Ġ ^
Ġout break
ĠPalest ine
ĠH ockey
cc a
ĠArgent ina
ĠPh one
ĠPal in
Ġle ather
Ġcr ashed
Ð ¼
Ġbroad band
Ġ8 1
Ġcelebr ating
ro ots
Ġc her
Ġstraight forward
ID S
Ġdet ection
Ġk ernel
be an
ĠHom eland
Ġpriv ately
ĠGM T
an ium
ĠT ry
ĠE c
Ġobser vers
ĠBud get
Ġp ile
Ġle aks
Ġsac red
Art icle
ĠCh apter
ĠRes ources
resp ons
Ġkill ings
Ġfin es
Ġstr ings
Ġspot light
Ġbed room
w ear
Ġint end
A K
Ġex agger
Ġnom inated
Ġemb assy
Ġpre st
Ġve to
Ġimag ined
Ġs isters
Ġsuper hero
âĪĻ âĪĻ
Ġhe ter
ĠJ S
ĠMove ment
Ġlect ure
Ġins ure
Pl ay
M ike
as a
ĠP AC
Ġbus es
ĠDen mark
ang o
ic he
Ġhas h
Ġam munition
pro of
200 8
ĠMichel le
Ġsh y
Ġ8 3
ãģ Ħ
Ġinf amous
Every one
Ġmet res
Ġsubstant ially
Ġarch ae
Ġredu ces
Ġdelic ious
Ġme g
Ġblack s
Ġple a
ĠP ere
Ġdiff er
Ġreb ell
Ġrank ings
S l
Ġb ikes
Ġin appropriate
Ġcar riers
in os
ort ions
rep resent
A v
Ġmem orial
O G
Ġal tered
As ked
ĠSh ar
Ġcorpor ation
Ġh ood
Ġ197 5
ab ul
ĠJ uan
act ic
Ġexp ose
R ob
ĠL uck
9 00
Ġexerc ises
Ġwithdraw al
Ġexam ination
ĠBrown s
Ġqu ad
Ġlast ing
iz ards
Ġcolon ial
Ġst ays
Ġtr ap
Ġclos ure
pe lled
C OM
pp o
Ġtra uma
Ġinev itably
Ġorganiz ers
Ag ain
Ġfl owers
ĠP ick
ĠCal gary
Ġfriends hip
Ġi Tunes
Ġwh ilst
ĠL oad
Ġout fit
Ġed ges
ĠSuper man
ĠHur ricane
ĠGer mans
ow een
Ġstrik er
ri el
Ġch ase
ft en
Pro f
Ġ197 8
Ġ ðŁ
Ġp seud
Ġl oving
ĠW ATCH
ĠF L
r one
Ġn odes
Ġlock er
Ġb urg
Ġ10 1
Ġcred ential
Ġp ipe
ĠN ex
ĠD iam
Ġdem ographic
ĠRel ations
un s
Ġsl aves
Ġconsum e
Ġd ash
z i
in ery
ett a
w ick
deg ree
Ġinf er
Ġtack les
Ġo h
Ġrev ised
ou st
Ġchem istry
ĠCz ech
Ġfundament ally
A ng
Ġmed al
Ġhung ry
ĠB ased
Ġclass room
B it
Ġtrib al
le m
ag ging
Ġdecl ining
Ġgar age
Ġaccount ability
L ife
Ġtw in
Ġanalys es
Ġign oring
Down load
C P
Ġd angers
ĠR aw
Ġor che
az ed
Ġe ighth
Q aeda
ĠW R
ĠB B
Ġf oul
Ġcre ep
oth y
Ġr ats
Ġath lete
ĠP as
ĠV i
R et
ĠMil waukee
Ġeffect iveness
Ġent ries
ĠConf eder
pro v
Ġbrief ing
ill ery
uls ion
ĠM erc
ĠTr uth
ĠG ear
Ġsh apes
Ġexpress ing
Ġalgorith ms
ĠFor um
Ġloyal ty
n ational
Ġvol umes
ĠUp date
ĠRepresent atives
Ġth umb
ĠF ame
Ġenthus iasm
p ic
ĠK och
Ġin ability
ane ous
Ġswe at
Ġl ap
Ġse iz
epend ence
ĠPlan ned
L eg
ES S
OR T
ĠD od
ĠCarl os
I X
Ġn uts
ĠG PS
Ġ0 1
ocument ed
Ġdeal ers
ĠTe h
Ġrespons ibilities
et e
Ġbillion aire
Ġhistor ian
Ġrel ate
Ġtun ed
ĠT igers
IT Y
Ġs ink
ĠH ud
ĠR ou
Ġautom ated
ĠH alf
Look ing
Ġconf using
Ġdesper ately
ĠUn it
oubted ly
W H
Ġmod es
hold er
Ġpre jud
ab a
Ph ot
n esty
ung le
Ġb ind
ov ic
Ġcon vey
aret te
Ġmod ules
Ġmis leading
S an
RE L
Ġfulf ill
Ġdisp ens
Ġblood y
Ġout door
com m
Ġfan cy
al so
ĠB uild
ĠSur vey
Ġprem iere
Ġteen agers
put ed
Ġw and
ĠR ah
Ġmisc onduct
f ar
Ġfr ames
Ġskept ical
ĠCh arg
ĠSh ield
ĠTrans portation
art isan
ĠI v
Ġgenuine ly
op ing
ĠOb viously
Ġqual ities
ĠM ack
ĠK el
ĠSer ver
ĠSun ni
ĠBenn ett
C opyright
ig a
Ind eed
Ġcance lled
Ġrel ies
Ġeval uation
ĠC ond
Ġun e
uster ity
work ing
Ġfil med
Ġregul ate
Ġmid night
ĠD ublin
Ġto ys
rem lin
Ġ9 8
ĠGriff in
Ġterrit ories
ĠVill age
ĠS A
uk i
olute ly
Ġdiscl ose
ĠBill y
Ġmaintain s
!! !
Ġoblig ations
A uthor
Ġun acceptable
Ġformer ly
âĢ¦ âĢĿ
ĠBet ter
Ġsp ill
ĠSp encer
let ter
ĠShe l
p it
Ġnew est
Ġyour s
C r
Ġinhab it
Ġbelong s
Ġdefin ing
Ġshut down
ĠI l
S ur
ro lling
Ġun le
ith ub
Ġrender ing
ri pp
M er
ul u
Ġdiagn osis
ĠR ush
Ġmid st
Ġc argo
Ġperman ently
ĠN umber
ĠTh ailand
ct ive
ĠCom ics
run ner
ĠD ennis
Ġaccident ally
Ġsol ved
ĠVik ings
Ġdiox ide
App le
Ġw ounds
Ġmon ument
Ġa ide
am y
ĠJohn ny
ĠT ory
Ġdemonst rates
Ġpar ade
ie val
Ġlabel ed
Ġd ive
clus ion
Ġspe eches
Ġexcept ional
Ġspect acular
ĠG ay
ĠSil icon
ĠS i
Ġsp ite
ĠF at
Ġsk ull
ĠTer ror
B E
Ġgovern ance
ĠY ears
Ġg rey
ĠC SS
Ġmed ication
Ġprocess ed
head ed
ĠL isa
ĠC row
ĠB uzz
Ġment ions
Ġexhib ition
ĠR ace
Ġl oses
ĠBl air
ĠA ld
Ġ197 4
Ġsell s
M at
Ġdi abetes
Ġrub ber
Ġcl arity
ĠL ock
Ġt ribute
ist ically
Ġd rought
ic ers
Ġdisc on
ai ro
S emit
ĠP L
ul in
P H
ĠCh amber
C are
Ġ8 7
oca ust
Ġlin ear
Ġc od
ĠLiber als
ur u
Ġred e
Ġsexual ity
Ġrap ed
Ġden ying
Ġconsider ably
Ġstrict ly
bl og
Ġspir its
ik ing
Ġsymbol s
ĠTit le
Ġim pe
Ġfin als
Ġbo ats
Ġelectron ics
osit ory
Ġab oard
Ġtrib e
h ole
Ġm ph
Ġman ages
k h
Ġm ature
Ġde leted
ĠSoc cer
ĠCom merce
Ġoccur ring
m ile
Ġb inding
ĠB L
Ġunder neath
Ġreason ably
id o
Ġcoast al
Ġl ined
Ġcor rid
Ġre ception
Ġfresh man
ĠJo ined
raw l
ĠBre itbart
Ġarri ves
Ġlegit im
ĠUr ban
sp ace
Ġplay back
i pt
m ines
th irds
ĠN PR
Ġmeasure ments
U K
Ġvend ors
Ġbattle field
Ġtoler ance
Ġt ube
Ġc ab
ser ver
Ġsche mes
Ġout lined
ĠS earch
Ġsh ipped
d el
d isc
Ġlove ly
Ġves sels
on ge
Ġinc oming
IF A
Ġantib iot
M icro
Ġ197 7
P oint
ĠQ B
Ġfacilit ate
Ġanonym ity
Ġstre ams
Ġh orses
ĠSp ider
E arly
Ġris en
Ġvict ories
Ġpublic ations
ĠM C
ĠM ueller
ĠS ay
Ã Ĥ
Ġfunction ing
n ames
Ġrest ored
Ġinfl amm
there um
Ġret ro
ag ged
Ġint ens
ine z
ĠHer o
ĠS elf
Ġover haul
ter ior
ĠIn valid
d ie
Ġdef ic
Ġsign atures
Ġju ice
Ġste pping
c ill
Ġpresident s
on el
se mble
ĠC M
ĠAr n
Ġpuzz le
Ġmet a
ĠP ast
Ġpart isan
Ġr age
Ġret rie
Ġhero in
ĠR ico
Ä į
Ġgrocer y
Ġpro c
ĠPhot ograph
Ġsp ends
Ġ196 9
Ġpit cher
Ġ9 11
Ġm elt
ĠJenn ifer
Ġ197 1
ĠStud y
ming ham
âĢĿ âĢĶ
ĠDef ence
ĠBe yond
Ġmilit ant
port ant
Ġatt ribute
Ġart if
ĠC ab
light s
Ġart ic
W ashington
r ong
al ph
acc ur
ĠG it
Ġpres cription
Ġm ate
ĠOper ation
ĠMalays ia
Ġun ited
ĠH ope
B uy
Ġw ip
form ing
Ġstimul us
Ġd ancing
ĠElect ric
Ġad vers
ĠWall ace
Ġhydro gen
A ug
Ġ8 6
aug hed
ĠF itz
bs ite
Ġsens itivity
Ġsubject ed
ir i
us hing
Ġqu o
Ġtour ism
ĠEm ploy
Ġp ound
Ġback lash
ĠÐ ¿
ĠCh ile
ĠM VP
Ġle ap
Ġhear ings
ph p
ĠR at
ĠQ atar
Ġvari ations
or ity
Ġh ind
00 1
l on
ocrat s
Ġind ef
Ġobject ives
Ġl uc
ĠG as
ĠHar rison
Ġnegoti ating
le tt
Ġ9 2
Ġtr icks
ĠBut ler
Ġmarket place
ĠEd wards
Ġstro ke
ĠB R
Ġpl ates
ĠChron icle
Ġv ib
Ġext ends
ron es
ĠM all
Ġf lesh
Ġpre season
ĠBry ant
Ġr am
ost al
ĠPack ers
Ġvig il
Ġcr icket
ĠAcc ount
orient ed
Ġbl own
ĠT ill
Ġun limited
Ġsal aries
Ġfrank ly
ĠRet urn
AR D
S and
ĠI b
Ġsn ap
Ġ9 6
s is
Ġgu ilt
Ġp ale
cont rol
E v
ĠBrother s
Ġconfront ed
Ġ9 7
Ġprop ri
ĠSh ah
B ay
ĠC u
ab ad
ĠPal ace
Ġtransl ate
E vent
ĠAss istant
Ġn ort
Ġl iability
Ġgen ius
Ġhun ger
heim er
P ublic
ĠSo on
Ġdiv isions
ĠR ic
Ġl ately
ĠL ang
Ġco at
ĠSp urs
Ġembr aced
Ġb inary
k ill
sc he
Ġfort un
Ġsovere ignty
Ġsettle ments
Ġliber tarian
Ð ´
Ġlack s
Ġsuccess or
t em
Ġcomple ting
Ġcasual ties
m el
Ġsteal ing
ĠS ach
ĠEd ge
Ġcontract ors
h ner
ant ing
Ġenc rypt
atern al
Ġjurisd iction
Ġr ings
Ġconsist ency
Ġexhib it
Ġac ute
Ġdr illing
Ġ14 0
Ġglass es
Ġconfident ial
ĠML B
Ġsynd rome
Ġsub mar
Ġal iens
Ġst er
Ġinv alid
Ġd ense
ĠS ent
pt ic
ĠSt op
Ġtable ts
Ġs lic
ai res
ĠB ed
Ġl aughed
Ġem power
Ġc m
Ġtw elve
ĠL ost
Ġname ly
ĠE S
ĠRec ord
ĠM aj
cl osed
Ġcloud s
um ns
in ate
oc ide
Ġj ack
k ens
Ġc ute
ap or
Ġnecess ity
cast le
ĠB us
ĠN ag
Ġlic enses
Ġad verse
Ġsurve ys
Ġeru pt
' '
az ines
Ġanaly zed
ĠZ ero
rane an
ĠWork ers
Ġfel ony
ĠN DP
man uel
Ġp iv
Ġn od
const itutional
w rite
Ġpret end
ĠI L
ĠJul ian
ĠF ish
Ġint ake
ash i
Ġelect ro
eg u
T ur
ĠM E
ex p
Ġdefend ants
Ġconvinc ing
Ġdoub ts
om o
ĠT her
ott om
ĠCub an
Ġtrave lling
am o
Ġlegisl ators
Ġtact ical
ĠZ ion
Ġswitch ing
Ġp ause
f in
Ġdon ate
Ġinc umb
ĠM ul
pl ess
ĠOr thodox
m os
Ġf iber
ĠBe er
ĠSe ven
ĠCast le
ASH INGTON
Ġgener ic
Ġastron aut
Ġdis k
Ġnight mare
Ġtong ue
ed ge
ĠR AM
W ind
h um
ant i
IT H
Ġmem or
Ġrecommend ation
ĠLad en
ĠD ays
F T
ĠP ad
ĠAl tern
Ġevolution ary
Ġref usal
ĠCard inals
Ġspons ors
ĠG P
Ġve t
Ġreview ing
Ġarrange ments
ĠAr men
Ġdetermin ing
ĠF ile
ĠL LC
Ġcool ing
Ġread ily
Ġmurd ers
Ġbureau crat
Ġc ache
Ġw it
Ġmist aken
Ġfl ows
ĠRich mond
ĠP un
Ġout let
Ġpr ay
? !
Ġst raw
Ġprotect ive
M em
n ut
ĠTo o
Ġsan ct
Ġmal ware
= âĢĿ
Ġmus cles
Ġp p
Ä ĩ
re ated
ri ages
Ġcon cess
Ġu seless
Ġca res
Ġd ot
s cience
Ġsomet ime
Ġtre asure
ĠB P
ĠPant hers
ĠG B
ĠP il
Ġachie ving
Ġtrib es
T er
Ġc ure
ĠMcC arthy
ĠG and
greg ation
Ġsport ing
Ġal umin
Ġshort age
Ġbusiness man
ĠC OM
ier ra
Ġglob ally
g reen
Ġhe al
ĠAgr icult
Ġcatch ing
ĠDou ble
om atic
ĠN A
ret ion
ĠHug hes
pro du
Ġaffili ate
ra ke
ent ions
Ġviol ating
Ġcharacter ized
ĠR achel
Ġext ending
Ġswe eping
ĠFr an
uff icient
ĠPr im
Ġroll s
Ġdomin ate
ĠEvent ually
Ġmos que
Ġw are
a ired
ĠN ancy
ut ing
Ġart work
ur ring
Ġhard est
ĠV iol
umbl r
om i
Ġrevel ation
ĠBarb ara
Ġ9 3
Ġart istic
ĠF ast
ĠTra vel
Ġag g
ĠJ av
ĠC ant
te am
Ġinv isible
Ġprem ier
ul ates
Ġchar ter
Fr ank
Ġutter ly
Ġfire arm
b ad
Ġtourn aments
Ġdiscl osed
ul ator
ĠP oly
Ġvolunt ary
ĠIce land
Ġportray ed
ĠA x
Ġup side
Ġflood ing
Ġnot orious
Ġair pl
Ġtheoret ical
ĠUS D
ĠSim ilarly
H ouse
bor ough
Ġspe lls
t ic
Ġbe aring
Ġg ard
os i
ĠNob ody
P ut
ĠG reens
Ġcous in
Ġse ct
ĠIn side
ĠBre ak
Ġrefere n
out e
Ġpron ounced
u ity
Ġm ant
Ġen abling
ĠReg ional
Ġpers ist
Ġpers istent
ĠPlan et
Ġbip artisan
ĠPhill ips
Ġadap ted
ĠSp ot
ĠSh i
Ñ Į
ĠL uther
Ġe leg
ĠC BC
Ġad min
Ġnav igate
Ġspec ify
ĠO wn
ĠT ib
sy stem
Ġhold ers
Ġfore sts
or us
W W
L aw
Ġqu arters
C le
Ġexplo itation
Ġcan cel
Ġdr ill
ch ar
Ġbes ide
xx xx
Ġapolog ize
Ġbi ology
Ġendorse ment
M C
ĠBang l
l arg
ĠC ape
ĠN E
Ġinc on
uc le
Ġneur ons
Ġnew er
Ġsubscrib ing
Ġa ston
Ġcommit ting
Ġf art
ĠHall oween
ĠW inn
e very
ĠWh atever
ling ton
L D
Ġhon our
ĠNever theless
ĠF ly
Ġprov in
Ġv owed
ĠB ird
ĠF an
Ġcred ited
ĠN eg
Ã¼ r
c m
ĠL E
Ġrel ied
ĠTra il
Ġpro port
l ast
Ġgal axy
uten ant
Ġa qu
Ġp sy
um bers
Ġins ights
Ġfinan cially
es pecially
ĠContin ued
ĠC ox
Ġsepar ately
dis play
Ġentreprene ur
Ġassemb led
Ġm igr
Ġun lock
T Y
ĠC ell
ĠSt ra
Ġprev ention
Ġdesc end
ĠM ans
Ġdign ity
ĠAL L
ĠClass ic
ĠT ru
E r
Ġ3 50
Ġelev ated
Ġpredec essor
N ational
P ort
T im
Ġover time
ĠSe lect
Ġpat ience
Ġfort une
orig inal
Ġf ond
Americ a
t w
Ġimpl ies
b uild
Ġdr ain
Ġred ist
Ġauthent ic
Ġbarrel s
ĠSw ift
Ġreb uild
Ġtrick y
O O
Ġnav igation
ade qu
Ġinter section
out ed
Ġinflu ences
G reat
T ION
Ġp airs
ĠQu inn
y ang
res pect
Ġâ Ī
lick r
V R
ĠMet hod
Ġl ighter
Ġaim ing
s im
Ġob esity
ak y
Ġdefin itive
Ġrel ent
ĠD ue
Ġcy cles
de velop
ĠB iden
ĠBe ast
ĠNew ton
ĠTeh ran
A FP
Ġo d
econom ic
Ġgl ory
ĠArab ic
Ġlist ened
Ġha ul
ĠFire fox
Ġsur pass
Ġdeb ris
ĠLaur a
Ġd rown
ĠK or
Ġacc using
Ġviol ate
Ġbreak through
ĠB obby
ĠCh and
Ġa ster
Ġp ockets
Ġk icks
Ġiniti ated
Ġattack ers
Ġreluct ant
ĠIm perial
t alk
b uilding
on ies
Ġp etro
Ġsh ower
ĠM IT
IC K
ĠC T
B ased
ĠA G
Ġpos es
ĠHispan ic
Ġdeter ior
ĠM ode
em ail
ĠÃ Ĺ
Ġphys ician
Ġre iter
th ird
ĠQu ick
ĠJ obs
Ġsp at
our ge
Ġlay ing
Ġor al
With out
h u
Ġins pire
ĠWell s
ernand ez
c ost
mont on
Ġban ning
ĠCl ose
cul us
ĠAle ppo
Ġp up
ĠM B
Ġhe m
un ks
Ġn urse
Ġter rain
ĠAr c
Ġtroub led
ou g
ĠCle an
V er
Ġ( +
Ġrecre ational
ĠH S
ĠD awn
Ġfact ories
Ġtext ure
F R
Ġflaw s
T ex
am as
aus ible
Ġsub mission
Ġfam ously
ĠD aw
th ree
ĠSh aw
U P
Ġmass acre
Ġre lying
ĠR ud
Ġtax i
Ġrevel ations
ĠB annon
Ġtw itter
b one
Ġdis ability
Ġdisc ourse
Ù Ĭ
ĠL ot
ĠB aghd
Ġwar r
Ġsum mar
min ed
Ġb atch
Ġd read
ĠMar cus
ĠInvest ig
ĠMach ine
Ġend e
Ġassass ination
in is
Ġprof itable
Ġblog s
G old
ĠM itch
Ġkick ing
ĠBase ball
Ġtour ist
ĠNob el
Ġpre y
Ġmob ility
Ġmeas uring
Ġhy d
Ġspons or
Ġdynam ics
uff y
C ong
Ġattract ion
Ġstar ring
Ġsoc ially
Ġvary ing
Ġgrad uated
ĠAn imal
Ġanaly ze
Ġdu o
Ġprov ing
Ġ8 9
Ġint act
Ġfavor able
ĠK ate
Ġsk etch
ĠGl obe
Ġund oubtedly
" ;
A f
ĠM ath
rav is
ĠGarc ia
ĠS pect
alth ough
Ġban ner
Ġvill ain
ne apolis
y d
Ġse al
terror ism
Ġcred ible
Ġ ic
Ġdecl aring
Ġc u
ĠJ oint
ick ets
Can ada
Ġst ark
all ow
Ġar ise
ĠT ar
RE E
ĠAust ria
Ġarbit rary
ĠH BO
Ġman eu
Ġinc omes
Ġfit ting
Ġintention ally
ĠCol lect
Ġpref erences
b ot
Ġwas h
Ġrisk y
Ġal beit
os ures
Ġnation ally
f ull
Ġa ides
he nd
Ġstr anger
ob i
ĠI BM
ĠFl ight
Ġmag azines
Ġinter im
ĠTO DAY
ĠC our
Ġrecip es
ĠA bs
ĠH ait
Ġhand y
er ting
esc ope
Ġexpect ation
Ġequ ation
ĠN at
Ġrent al
Ġcl ause
Ġphilosoph ical
Ġprote ins
D irect
U ntil
S ports
Ġcur rencies
Ġhel met
Ġse am
i per
ur l
Ġour s
el er
ĠIsrael is
ĠDr ag
ar cer
ain ted
Ġkilomet ers
ĠSud an
Ġover see
Ġback ers
Ġuns uccess
ov ation
Ġstick ing
ĠCl ay
col or
omet own
Ġfict ional
ĠL em
ĠYan kees
ĠNash ville
Ġprovin ces
ĠSt ring
Ġtoile t
roph ic
re amed
ĠK ath
Ġrun ner
ĠW ire
ĠN EW
ĠStud ent
Ġexclud ed
L ong
Ġvar ied
ĠNe ither
Ġneutral ity
m us
ĠJam ie
Ġdon or
Ġanal og
an ne
ĠRe form
ĠAff ordable
ĠBir mingham
Ġca ut
ĠPolit ics
Ġimport s
Ġles bian
Ġne o
Ġbl end
Ġst icks
ĠB ishop
Ġident ities
ok o
F ox
AS T
Ġbroad ly
O pen
Ġcrew s
am bers
M ac
ĠWork ing
Ġur gent
Con f
ĠPet e
ĠHol mes
ian ces
fr ame
ah o
Ġsum mon
Ġmis under
rib ly
agon ist
IG HT
Ġnetwork ing
Ġb out
ĠChief s
rament o
so ever
Ġdiss ent
................ ................
Ġin herent
ĠLe v
Ġdistingu ish
ĠE le
Ġsatisf action
Ġcorrel ation
Ġ9 1
Ġmem orable
Ġhe ated
ĠP ath
Ġbul lets
ĠG rey
ĠAtt ack
at ched
II I
Ġmed i
irl ines
ĠGirl s
and o
Ġev olve
ul k
Ġswe pt
z illa
ĠAl ong
ĠK remlin
Ġsubscrib ers
ĠProt est
ĠSn ap
Ġn er
ĠS em
Ġexpress ions
Ġsear ched
Ġassoci ations
ĠCom puter
Ġbroad c
cer pt
ĠE rd
Ġload ing
ir med
ĠBr ig
br aska
Ġw ard
izz ard
rit ical
ĠD A
ov ich
ĠUS S
Ġhor izont
ĠEngine ering
ĠInd ex
Ġdef ines
Ġevent ual
U lt
Ġsubst itute
ĠMem bers
Ġwor ries
O H
Ġconven ience
M obile
off icial
CL A
ro gen
us ions
Ġpreced ent
ĠF inn
sc ript
ve t
ĠH orn
Ġris es
ced es
Ġprov es
ĠInc re
ĠBoe ing
ĠM I
Ġover r
Ġepid emic
Ġun aware
vel t
op ular
Ġoff enders
Ġsupp lied
ĠFour th
Ġshe ets
Ġrece ivers
Ġen roll
ĠLeg end
H ub
Ġre ct
m em
Ġ196 5
atic an
it utes
ac hers
Ġcontribut or
ĠPro cess
Ch ar
Ġdefend ant
g s
Î ¹
Ġp uck
Ġcontract or
Ġteam mate
ĠPh D
Ġconfront ation
Ġg i
Ġdiv ine
Ġf oster
Ġg au
c ulation
ange red
ĠAgree ment
Ġentertain ing
ĠFer r
Ġm all
ĠAl b
ĠBry an
ĠR PG
Ġachieve ments
ell ing
Ġinterpre ted
a q
head s
Ġan throp
ĠAct iv
Ġcrowd ed
ar u
Ġfin ale
Ġ9 4
Ġthe or
ĠW ade
Ġreven ge
Rem ember
Ġfac ial
Ġsk ip
Ġa usterity
Ġinv itation
ĠAl ice
Ġ0 2
Ġscript s
te lling
Ġquant ity
Ġg aps
ĠB order
ort ing
Ġab uses
Ġa pt
Ġval ued
ĠS F
Ġopp ression
ĠE ither
L ater
ĠY e
K K
Ġdisappoint ment
Â ¶
Ġad oles
the m
zb ollah
Ġworry ing
im ated
In tern
Ġcur s
Ġconsult ing
Ġc yn
ĠJ ong
Ġqual ifying
D et
Ġl iv
Ġfree ze
ĠÂ »
Ġj am
in ho
ĠTh ai
Ġpred iction
Ġtheat ers
Ġout look
ast rous
Ġignor ance
as ma
Ġstar ters
Ġpr ayers
s ocial
ĠAl most
ĠPD F
ĠSam uel
Ġquestion able
Ġfix es
ĠBroad way
ĠChe m
Ġgrand mother
l ass
Ġdu pl
Ġn erve
ĠCat al
Ġ> >
Ġtact ic
C ount
W ASHINGTON
sh ow
Ġgrand father
ere k
gg le
Ġm aj
Ġmulti player
Ø§ ÙĦ
Ġn est
Ġle ase
Ġyoung est
Ġc ra
Ġwhat soever
ĠH R
sp oken
Ġcredential s
Ġstead ily
S um
rit ies
Ġprec ision
Ġbr ick
ĠD ise
ĠK az
Ġtur b
se arch
se en
Ġopt ed
am ation
Ġm im
Ġmal icious
Ġse aled
ĠN athan
ĠDe al
Ġembarrass ing
ĠMat ter
Ġmac ro
in formation
ĠAss ange
Sc ott
ĠI de
ia z
Ġtrans mit
Ġneighbour hood
ĠK ill
s qu
ĠOb ject
B ill
ĠM es
Ġobst acles
ĠH erald
ĠP H
li ers
Ġmart ial
Ġdispro portion
ĠAth let
AN T
ĠOccup y
Ġn asty
Ġf isher
Ġapp et
ĠL an
ĠPot ter
Ġarch ive
Ġvac uum
anche z
Ġremind s
em ale
Ġh ated
Ã¡ n
ĠB ear
ĠNex us
U se
m und
if iers
Ġdomin ance
REL ATED
p ound
ĠPortug al
ĠSh in
pl ant
Ġcol umns
Ġpass ive
Ġdesign ing
Ġunc overed
ne x
app ro
Ġnons ense
Ġassault ed
Ġremem bers
Ġpharm aceutical
Ġeuro s
ment ioned
Ġcur ric
umb ai
S H
ĠP ink
est a
y our
Ġvar iant
OR K
Ġsur render
he astern
Ġregul ated
inf o
ĠDiam ond
Ġover ly
Ġrend ered
h ots
ĠG ive
Ġ196 4
Ġmod ify
Ġflaw ed
ĠPrin cess
ic ating
im eter
Ġsk i
k now
le ased
ful ness
ĠF oster
Â ©
Ġse min
Ġcomm em
iber al
Un like
Ġt ire
ment ation
Ġaggress ively
Ġb ay
Ġm ush
ĠM ine
c d
ĠPict ures
us hed
Ġcontain ers
Ġmin im
ĠOver all
ilit ary
c all
Ġcommit ments
Ġprem ise
ĠD rew
J on
Ġtr ump
Ġo ven
Ġun int
Ġanch or
Ġhor izon
Ġne ural
he tt
Ġsu ited
ĠC hen
Se pt
bel iev
Ġinf lic
Ġmole cules
ĠW ii
M arch
OM E
ĠE RA
Ġacc idents
Ġdisc ont
ĠO P
ĠR ing
Ġshar ply
ose velt
ĠC ris
Ġmanufact ured
as ive
ed uc
ĠA round
per t
S am
Ġover th
Ġcompl aining
ĠRodrig uez
B rien
Ġbas eline
Ġm ast
Ġparam eter
ĠS ens
Ġball ots
#### ####
less ness
ĠGO OD
ĠMart inez
ĠL l
Ġorgan ised
per ty
child ren
G N
ĠFin land
Ġhack ed
Ġthro at
Ġb er
Over all
ch ief
ĠRod gers
Ġble w
Ġwho ever
Ġreject ion
ĠN ep
Ġpublic ity
Ġto kens
st ick
ĠNiger ia
ĠCr iminal
ri ved
Ġun cle
Ġamb ul
ab i
Ġcorrespond ent
Ġinvent ory
Ġsub way
ĠComm ander
Ġcoll ision
Ġrecord ings
Ġcomprom ised
min ent
Ġland l
ĠJes se
Ġw rist
St ring
Ġvirt ue
Î µ
Ġl as
et a
J eff
v ised
Ġat e
Ġnational ist
ĠHer itage
l ation
ĠL ore
Ġ{ \
Ġbuff er
Ġcl ash
P erson
F ire
U G
ĠA irlines
i ological
Ġ ×
Ġapplic able
Ġc ups
Ġtradem ark
Ġcomp ounds
Ġmanip ulation
Ġfather s
ĠF IFA
ĠChance llor
p ol
Ġr ivers
Ġp add
Ġan k
Ġen v
co very
ĠHe y
Ġhot els
ĠWeek ly
Ġint imate
Ġcomple ment
Post ed
Ġmess aging
Ġtouch ing
Ġcat tle
Ġg re
Ġinj ust
ĠNe uro
Ġbelong ing
on ut
Ġp ad
Ġsol ving
ĠS O
as se
ok u
Ġdim ensions
r aged
Ġcont ing
ific ant
com pass
IM E
Ġper ce
ĠIn iti
ĠZ immer
Ġde lete
Ġent ers
Ġpresent ing
Ġdest ructive
c lick
int age
Ġadminist rators
w ould
op ic
Ke ep
Ġn arc
Ġinter medi
ãĥ ¼
ĠPet erson
ĠB elt
ĠCost a
ic ides
] )
Ġle thal
Ġadvis ers
.âĢĻ âĢĿ
ur as
for cing
pri v
Ġjust ification
Ġprev ents
ĠPresident ial
Ġsatell ites
Ġupgr ades
Ġbase ment
ro d
Ġnav al
M D
ĠCar ib
os ity
Ġjo ins
ĠBrew ing
Ġbr ush
us cript
Ġelimin ating
Cal if
ĠDun can
ĠG am
Ġmer it
E mail
qu ire
Ġinc arcer
pr ises
Ġinfect ions
Ġdism ant
Ġp ars
Ġpur ple
Ġpun ished
In vest
do ing
Ġencour ages
l ocal
Ġc ord
ĠP red
Up dated
Ġbicy cle
ĠP owell
Ġo k
Ġfor k
Ġpack s
ĠAlp ha
Ġev angelical
ĠBrother hood
augh s
Ġconcent rated
ie ve
ĠMin neapolis
Ġge omet
ĠEnter prise
Ġ Å
ĠK os
en z
ig ue
ĠN HS
Ġ ),
ĠG ot
B o
Ġpr isons
ĠHol ocaust
Ġr ides
J uly
Ġback wards
Ġam ateur
ĠEv il
ĠStud ents
ĠA ven
ĠG A
Ġpress ures
Ġp el
Ġtrack ed
ĠIndian apolis
Ġhol idays
Hill ary
ĠM ons
Ġcryptocur rency
Ġs ab
Ġres ur
Ġtroub ling
ide os
ĠOb serv
ĠV atican
ĠAngel a
Ġinvestig ative
Ġbud gets
Ġun constitutional
ag ain
Ġcompan ion
R eal
Ġimpl icit
Ġflo at
Ġsaf egu
Ġrandom ly
as ures
Ġcrit ique
ĠC op
oll o
Ġsle e
Ġdownload ed
M M
Ġfe as
Ġ16 0
Ġpo le
Ġbo oth
iction ary
Ġextrem ists
Ġrecon c
Ġexam ining
Ġr ugby
oun cing
k n
Ġkn ees
se in
Ġor b
Ġplug in
ĠMont ana
j u
ĠCom b
worth y
Ġreal ised
ĠClar ke
Ġpitch ing
Ġboot s
ĠCur rently
ĠMot ors
p ay
ĠAnt ar
ĠPal mer
G C
ul ent
ĠJ ar
ĠBaghd ad
s ay
Ġmed itation
Ġextrem ist
ĠReds kins
ĠG R
Ġconstrain ts
Ġh ilar
Ġlink ing
Ġbrew ery
Ġbeh ave
G en
J une
Ġnon etheless
oot s
anc ies
Ġcal ories
clus ive
Ġinject ion
ab bit
Ġj acket
\ -
Ġannoy ing
fl u
osp el
Ġrelig ions
min ster
ophob ia
ĠS ullivan
ah an
Ġcalcul ate
N AS
Ġunder go
h ad
Ġpl ag
ĠC and
ĠN ar
ess age
ĠCitiz ens
Aust ral
ĠS old
Ġdis astrous
ĠC ulture
Ġsecret ly
Ġcens orship
are z
av ailable
b b
ĠPict ure
Ġdiscon nect
ĠS ave
Ġclar ify
ab lo
Be ing
Ġnin th
ĠEd monton
Ġcommit tees
ĠK an
Ġto oth
ĠHel p
Ġpro xy
ĠMus k
ust ain
Ġoff ence
M o
lic ation
Ġin accur
ĠC av
Ġir rit
Ġstri pped
Ġconclud es
Ġmathemat ical
Ġder iv
Ġirre levant
Ġsa ves
Ġden ies
Ġhead er
ĠCol in
os ph
T w
Ġmake up
H ead
ĠChall enge
Ġrep et
Ġcost ume
Ġtu ition
ĠR u
Ġref und
ĠMoh ammed
h ou
ĠMS NBC
Ġsince re
ĠAn aly
Ġhaz ard
ĠG round
Ġintern ationally
Ġadj acent
ĠCub s
Ġin adequ
Ġcommission ed
Ġlaun ches
Ġham mer
Ġch unk
ond e
ĠZ ach
b oth
ĠS L
Ġemot ionally
Ġtroub les
M uch
ĠL ives
ip se
ĠSac ramento
Ġcalcul ations
ibl ical
ertain ly
ĠCl in
Ġprosper ity
Ġintrig uing
o ven
ĠS ierra
ĠP ubl
if iable
ĠQueens land
Ġdist ribute
Ġstud ios
um atic
uff ed
ĠPriv ate
Ġst amp
Ġatt ach
Ġsurv iving
at isf
Ġl iver
ens on
Ġsan ction
Ġst iff
Ġte aches
Ġmind set
ĠSur v
ok ia
Ġmet ric
Ġforeign ers
Ġnice ly
un ge
Ġencoun ters
Ġsubur ban
C onst
ĠTele graph
ĠH E
ov o
Rober t
g reat
ĠO z
Ġnorm s
k ers
it ations
ĠB ald
Ġsovere ign
Ġl azy
Ġpict ured
ĠF am
Ġprop ose
Ob viously
Ġoption al
ĠT ogether
Ġoffer ings
A pril
Ġfinger print
ain er
Ġhyp oc
u art
Ġel ites
Ġneighb oring
b ank
Ġres id
ĠWe ather
Ġrob bery
av i
G R
s ight
Ġcat ches
ĠLeg al
ĠSqu ad
Ġhabit at
Ġtoug her
Ġlif ting
Ġl ending
Ġcent res
ĠÐ ²
Ġg reed
Ġprison er
Ġdecent ral
Ġch ron
Ġsc roll
ĠÂ °
ĠC abinet
Ġfact ions
Ġpot ent
ĠRo osevelt
Ġaccord ance
Ġexpl ored
Ġ19 45
gh azi
Ġrevers ed
Ġconf erences
Ġcl ashes
ĠJess ica
iz ers
Ġint ends
ys on
AM E
oc y
it ted
ĠWood s
imens ional
Ġrest rain
ĠPal m
sp ons
V ID
Ġsc are
Ġtransf ers
vent ions
Ġby pass
ed i
Ġtal ents
ĠJo el
Ġh ometown
In f
Ġtrad es
V A
Ġcampaign ing
Ġland mark
ĠT arget
ï¿½ ï¿½
âĢĿ :
Ġfar mer
Ġdig it
by e
gener ation
M ax
play ing
ĠTex ans
ĠCom ic
ig s
Ġb ans
p df
if ully
Ġhor rific
Ġthr illed
Sm ith
Ġra ids
iter ranean
Ġhed ge
v or
os aur
ĠE arlier
Ġenact ed
ĠStr ong
ĠNe braska
F ile
Ġnot ified
Ġterr ifying
Ġsocial ism
ĠBre nd
he rently
ĠH im
ĠK er
Ġgl ance
ĠR ank
ĠIm agine
Ġsubst ances
Ġdep ict
Ġretain ed
ĠK o
at hetic
Ġhe y
Ġunemploy ed
ĠR ivers
G S
Ã ª
ĠB omb
Ġcommun ist
Ġvacc ines
ĠImm igration
ew s
col m
E xt
om ers
Ġdim ension
Ġst ole
Ġsymb olic
ĠTra ff
ĠK ay
Ġfl ower
Ġprof iles
Ġboss es
Ġdeli vers
ĠAll ah
ĠW ing
ĠF ight
ĠM ong
Ġtow ers
Ġrock ets
Ġdeliber ate
ĠE thereum
lin ing
Ġhomosexual ity
Ġlight ning
ar in
et on
Ġprom in
l iter
Ġsc al
p her
T able
Ġa ug
ind ex
Ġrecru ited
Ġcig arettes
ĠR acing
d b
ĠB att
ul ously
Ġintegr ate
ask et
ĠRe ally
Ġturn out
ĠTr aining
Ġpres erved
eal ous
p os
Ġflow ing
Ġunw illing
ĠS K
yl an
Ġa irst
Ġcur b
ĠZ one
P ower
Ġsequ ences
Ġsubur bs
Ġindict ment
omet er
Ġspecial ized
Ġimag ery
Ġdep icted
12 5
F eb
ĠP in
Ġref uses
Ġsimpl er
Ġkilomet res
Ġcou pled
Ġm apping
Ġk g
Ġpriv at
Ġfif ty
ĠD ri
ĠCh ip
Ġinf inite
Ï Ħ
Ġover head
Ġthread s
Hist ory
F ull
r ams
Ġexpl oded
ĠAr med
Ġincorpor ated
Ġind ie
ĠD ynam
ĠCh ad
Ġpro long
L ear
ol ics
ĠHe zbollah
ĠZ en
at able
ĠLook ing
Ġconce aled
y on
ĠAdv anced
Ġany time
Ġload s
ĠNaz is
Sh ort
Ġfav ored
Ġfe ver
Ġmin er
ĠW alt
Ġeconom ically
Ġha un
ĠAb raham
ograp her
Ġshare holders
Ġcont empt
ĠSt alin
Ġfurn iture
leg al
Ñģ ÑĤ
ĠM aking
tr ue
Ġdict ators
Ġo un
Ġcomp act
ug ar
s omething
ost ic
H el
ĠCh ase
r us
Ġbe ans
ĠDem ocracy
J im
at ility
Ġdis gr
Ġorder ing
ĠEdd ie
Ġrall ies
Ġactiv ation
F eed
O kay
Ġaccount ed
Ġdrag ged
Ġinc om
ĠK enn
g om
Ġcrit ically
Ġun law
imp se
ĠBangl adesh
Ġsub t
Ġd awn
Ġoverwhelming ly
E U
Ġtheat re
atern ity
ĠSen ators
Ġemphas ized
Ġhand gun
ĠC urt
Ġsh oe
Ġgl impse
am pton
OS E
Ġ12 5
ĠAny one
B ro
Ġcollect ions
Ġfemin ism
Ġporn ography
Ġg ly
Ġaff irm
ed In
Ġshe ep
ĠJ ared
Ġcompar isons
Ġgrad uates
il ia
Ġtr im
pe ction
Ġhe els
Ġdisp utes
Ġlit igation
ĠPro s
Ġple asant
ing le
ĠP ract
ĠEp isode
1 30
\ \
Ġe rect
Ġhas ht
Ġn aming
Ġcolumn ist
Te am
Ġro oted
Ġassess ed
ident ified
F il
Ã º
Ġsup reme
Ġmin ers
ĠA ub
ĠK i
M att
ĠY ale
undred s
Ġbre ed
Ä ±
Ġschol ar
Ġdef enses
Ġgu ided
Ġconfir ms
Ġconst itute
ys ical
ĠA K
ĠH TC
and ing
C all
Ġpract icing
on est
Ġins ert
ĠF ac
ud a
V I
ĠMc D
Ġreact or
m ax
r ise
w ait
ver ted
ol ver
ĠG raph
ĠNY C
Ġcontrad ict
d esc
Ġswe ep
Ġaer ial
es ville
Ġfre el
ĠL akers
Ġcontin ually
Ġshout ing
k ar
Ġcrack down
Ġcritic ised
ĠJeff rey
Ġreal ise
Ġproceed s
Ġplace ment
Ġm old
ac cess
Ġref res
ĠE ight
ĠVis it
Ġmet eor
i ably
Ġs id
Ġl ips
Ġpost ers
rik es
s an
ĠId ent
] ;
ĠAh med
EL L
ĠCreat ive
we gian
ĠMed iterranean
Ġlack ed
Ġsatisf y
Ġm g
Ġco pper
Ġcop e
Ġst ones
Ġsc ales
Ġcance led
Ġind ivid
Ġpat ents
Ġpurs ued
Ġcor ps
ĠAh mad
um ar
ĠAn a
Ġu pt
Ġlegal ization
em et
ĠCom cast
ous ands
ĠM umbai
ĠW ang
um my
ĠEurope ans
ĠBen ghazi
Ġneed ing
raw ling
n c
Ġman ually
iment al
Ġbe ast
ĠB esides
Ġimport ed
Ed itor
Ġdist ress
Ġcry stal
Ġd war
Ġsu cc
ĠCarib bean
Ġreb ounds
ĠH ERE
ĠM urd
ri ans
us c
ĠAd vis
ach t
ĠK ash
Ġsec uring
Ġdis hes
Ġch airs
Ġdep uties
ĠMov ie
P ac
ĠLight ning
Ġefficient ly
an ies
ĠK in
Ġvo iced
id ity
ig ion
osh i
Ġscholars hip
Ġpr one
ĠV oice
Ġsur plus
Ġinf ilt
Ġh ike
ãģ «
ny der
Ġuncons cious
Ġtravel s
ĠP ic
Ġobsc ure
Ġremain der
ll o
Ġab ortions
ĠUS C
ĠB aby
ĠSteven s
ĠM O
ĠL G
Ġmix ing
ipe g
ĠH ig
Ġsp here
Ġm ud
Ġj ets
ograph ical
m ill
ich t
Ġdisc retion
Ġdress ing
ĠOper ations
ĠHung ary
Ġactiv ated
G L
Ġthreat ens
Ñ ĩ
ĠL ic
Ġappreci ated
h or
ens en
ĠT u
ad itional
Ġl ing
g irl
V M
ĠCons ider
l ength
Ġl inem
ĠD im
we b
ĠInter ior
F ixed
ĠMet al
P age
Ġt ender
ĠU ser
ĠBoy s
Ġsh ark
200 7
Ġpost season
Ġch im
ĠR af
Ġsl ice
B ox
ĠPriv acy
Ġdepos its
re cy
oul os
ĠMarg aret
e ment
ĠBar n
at ics
Ġpoet ry
Ġphys icians
ĠMil an
Ġpack aging
ch t
ĠT ouch
ĠCol ts
ĠAlex and
ch ant
ĠPri or
ĠEm peror
Ġoff s
F I
sh aped
c amp
ĠD anish
gh ai
Ġforth coming
ĠP etro
v oc
ĠNorm an
ĠM ull
ot er
Ġdr agon
ĠÐ ½
Ġceleb rities
ad ata
Ġres il
Ġwas ted
sh it
A E
ĠMer cedes
Ġgrass roots
ĠLu is
Ġc ables
Ġd ining
Ġint ensive
Ġbatt ling
Ġmusic ian
e i
Ġs add
âĢĶâĢĶâĢĶâĢĶ âĢĶâĢĶâĢĶâĢĶ
Ġop io
Ġfin ances
p resident
sec ution
N one
ĠCan cer
Ġgest ure
Ġtri o
ĠC ou
Ġwe aker
Ġins pection
Micro soft
ĠM ade
id i
ĠN ine
Ġeas iest
ĠCommon wealth
ce ans
Ġprogress ion
H ello
Ġen velop
Ġfru its
Ù Ĩ
Ġte lev
Ġpredict able
ĠW es
Ġcar ing
Ġbackground s
Ġstrength s
im g
ĠBoe hner
Ġcome back
Ġment ality
mer cial
Ġguarant ees
le ague
ĠÎ ¼
Ġfavor ites
Ġneg lig
Ġdig ging
,' '
Ġbr idges
ĠT ree
Ġj unk
F ive
ĠE P
ĠMag n
Ġ q
Ġc aucus
Ġst ap
Ġle ver
p ical
Ġdes cent
ĠCan n
Ġsu ite
ĠB ren
N on
Ġl i
Ġver bal
Ġappreci ation
ĠErd ogan
ad h
Ġapart ments
s u
Ġmin es
.' "
ĠHud son
p aid
Ġboy cott
Ġir ony
Ġmount ing
ĠUn ity
Ġtra ject
ĠD ian
D I
Ġflee ing
ĠB ak
Ġsl aughter
ĠCur rent
ĠRaven s
Ġsc attered
l isted
Ġpass port
Qu est
Ġch ick
Ġ196 6
ĠTib et
Ġman uscript
Ġdes ires
otten ham
ope z
Ġr abb
ĠForm ula
in ner
am on
Ġorg ans
ĠD ame
Ġcomp iler
Ġh ipp
Ġsystem atic
Ġlad der
Ġca f
tit le
Ġsu e
ik o
asc us
Ġd ug
ĠRe yn
Ġconv ictions
Ġdig est
Ġstat ute
Ġshout ed
S N
Ġstorm s
Ġnut rition
ĠStat istics
ur ry
Ġim minent
ĠNew castle
Ġassign ment
Ġgr im
Ġiss uing
ĠA CC
Ġ} ,
ke ll
Ġmo ist
ues e
charg ed
Ġwat ches
Ġtrop ical
Ġbe ats
g ue
s un
Ġamb ig
Ġcont race
ĠSat an
ĠK aren
Ġdis puted
Ġdis ruption
Ġmor ality
cl ub
ĠD elta
M ENT
Ġdis reg
Ġunh appy
J oe
Ã© e
ĠYou th
Ġmarg ins
Ġcontinu ously
m ount
Ġg ambling
ĠD w
ft y
Ġinstruct ed
Ġport rait
Ġmulti pl
W omen
Ġwhe at
ĠB ent
Ġdis gu
g on
Ġconcent rations
ĠS anchez
Ġsh aking
Ġsurvey ed
ĠG ore
Ġaccording ly
Ġhel m
ĠSpr ings
Ġru in
Ġw ield
Ġsim ulation
. ).
Ġbull ying
ateg ory
Ġactiv ism
est on
Ġic ons
Ind ia
Ġ196 3
S I
bro ok
Ġtransport ed
lud ed
chn ology
am mar
Ġsh ook
ĠS ie
Ġbl unt
[ /
Ġfix ing
OW N
ogen ic
ĠVin cent
P eter
Ġhy pe
Ġd are
ĠB apt
or um
D el
ĠSchool s
run ning
Ġinstall ing
Ġprompt ing
ĠC P
Ġst ub
ĠCry stal
ĠM is
Col or
emet ery
Ġpromot ional
Ġfl ames
mid t
Ġw ished
ĠM oss
ĠF o
Ġliber ties
or ically
ur ally
ĠMos ul
Ġcommod ity
P ass
Ġb ored
Ġc abin
Ġfl ies
uck ed
Ġsl ated
ON E
ĠTH IS
ris k
Ġnot ification
Un ited
t i
ph is
******** ********
atch ing
b ach
Ġp estic
Ġcon gr
Ġprofess ors
Ġapplic ants
Ġacc ent
Ġopt imal
Ġreprodu ctive
ĠT ask
Ġ9 00
ĠL ower
Ġbehavior al
Ġmeasure ment
b us
Ġlegitim acy
E nd
ĠC opyright
ab lish
ĠLat ino
ĠD I
r ising
ĠG aming
Ġen vision
ro v
ĠCo in
ĠA er
h art
Ġadjust ment
Ġincorpor ate
Christ ian
Ġanx ious
K ing
Ġc age
ĠK ids
ĠCar r
ĠLabor atory
Ġattend ees
Ġsynt hetic
Ġt ennis
C re
Ġstart ups
ĠI R
ĠK ap
Ġfound ations
Ġpat ches
Ġan om
Ġh urd
Ġwild ly
ĠS au
ĠColomb ia
Ġimpact ed
Ġaest hetic
Ġhe ating
Bl ue
ĠI Q
ĠCol lection
ĠG N
Ġlog s
d eb
âĢĿ ?
Ġcand y
Ġfert il
ĠSc reen
ĠS witch
Ġelect orate
Ġconnect ivity
M E
Â Ģ
arm ing
ĠCoun ter
Ġprec ip
ĠC ool
ĠSt rip
Ġalumin um
Ob ject
T ra
Ġin k
Ġem pir
Ġtou ches
Ġpark ed
Ġadvent ures
d ollar
ĠLim ited
el ed
est e
ould er
200 5
Ġsmall est
Ġamb itions
Ġpar as
cont ent
Ġcook ed
Ġcinem a
ult z
ĠSteel ers
Ġup hold
Ġremote ly
Ġcompet itor
Ġindic ator
Ġadvis ory
ĠO pt
Ġgot ta
ĠLegisl ature
ĠD rop
ong yang
gu ard
M ad
ĠGib son
c ourt
Ph il
AC T
S un
b augh
ãģ ¦
Ġw ra
Ġfe ather
Ġmotorcy cle
G P
Ġmed ieval
ix els
Ġ0 4
Ġcent ered
ĠVal ent
Ġ0 3
Ġcharacter istic
Ġcontribut ors
Ġwe ighed
akes pe
Ġforg ot
Ġaffili ated
ĠW or
asc ript
ĠMajor ity
Ġsuprem ac
Ġsound track
ĠHop efully
L ab
Ġsm iling
Ġproject ions
Ġacadem ics
S il
Ġdies el
ĠIniti ative
Ġ( Â£
th reat
b ra
Ġst int
Ġacc laim
ĠSome one
M or
Ġconsult ation
ĠEff ect
ens ed
Ġill usion
Ġdistinct ive
Ġsufficient ly
Ġfortun ate
ĠM ann
ĠF alls
Ġdist urb
> <
Ġl ied
ĠO m
agg ering
Ġdispl aced
Ġwe ed
Ġt ide
Ġeat en
ĠC ash
Ġpolic ing
ĠSum mit
Ġs oup
ĠN ad
Ġund ocumented
ĠO culus
Every thing
Ġst aring
Ġcl ue
Ġu m
s ite
Ġinspir ing
ĠBe aut
m ember
Ġm ol
Ġrhyth m
Ġur anium
Ste ve
B ron
ĠW ant
Ġdemonst rators
Ġse gments
Ġadjust ments
ĠGreat er
1 000
Ġcle aring
Ġplant ed
' )
Ġflags hip
ãģ Ĺ
on gh
Ġcar n
ig m
ud ed
Ġwood s
cific ally
ĠToy ota
ĠWh ats
ĠCh an
Add ed
Ġn ucle
ĠOther wise
Ġsynt ax
om ore
Ġshe lf
gom ery
ĠW a
ĠW ere
ĠJ ama
ob a
Ġin herently
Ġindivid ually
Ġrail way
V is
J S
M ap
Ġfoot print
Ġbox ing
ĠWe ap
p ie
Ġwh oles
Ġdispos al
pro ve
ĠÂ Ń
ĠC it
Ġmasc ul
yn c
Ġhand les
Ġrein force
Ġp ork
________________ ________________
Ġport ions
ĠPoint s
ĠApp arently
ean or
own er
Ġunp redict
Ã ł
Ġcertain ty
ĠFO X
Ġshow case
ĠN ut
ĠT on
Ġpit ches
Ġsc i
Ġas leep
b as
Ġsh adows
Sp ace
ĠArm strong
Ġo w
ĠM add
Ġv ag
n ia
AC E
ĠMon ster
ĠT ravis
ĠG or
Ġcons cience
gg ing
Ġp unk
Ġneg lect
Ġlad ies
Ġp ond
Ġaver aging
Ġlight ly
ĠHT TP
Ġphys ic
3 50
ĠB anks
ĠM aur
Ġro d
Ġrow s
Ġposition ed
T T
Ġto pped
ĠM end
And rew
Ġdiam eter
Ġoff line
ĠGand hi
N E
ĠS QL
Ġansw ering
ĠWal mart
ĠL ion
ĠY ellow
Ġa fore
Ġexplo ited
Ġb ats
ĠV M
ad ian
ĠS id
t ax
ĠH appy
Ġcr ap
Ġimm unity
ĠUp on
Ġrecover ing
op oulos
Ġut ilities
w age
Ġst akes
Ġmy st
Ġrun ners
Ġancest ors
B as
Ġprotest ing
Ġque en
Ġp und
ĠH ousing
h at
il itation
ĠD j
I ran
Ġe go
ment al
Ġmanip ulate
{ \
ĠH onda
Ġcustom s
Ġm i
Ġrep ository
Ġcert ified
Ġd ent
akespe are
ĠMatthew s
Ġpull s
Ġg orge
ĠM ob
Ġstr angers
Ġoff enses
els h
ĠT X
ĠHuff ington
M ain
Ġr ou
Ġun believ
Ġbench mark
ew ay
ĠJ et
Ġprior it
an ed
Ġsec urities
ar se
ĠÃ ł
ĠH az
ĠFred er
Ġcomb o
ĠL arge
Ġmin imize
ĠDam ascus
Ġpersu ade
Ġund erest
pect ives
Ġbon uses
ĠCont ent
Ġpit ched
prising ly
Ġcurric ulum
Ġp iano
ow itz
ĠTom my
Tex as
ĠF ix
Ġauthor itarian
ant om
Â »
Ġsw ap
ĠRichard son
Ġsent encing
AS E
Ġat op
ãģ §
Ġw itch
AS S
ĠSim p
Ġr anges
Ġfaith ful
Ġmathemat ics
Ġble eding
an as
Ġinv ention
ĠBr ight
Ġloc ate
Ġincumb ent
s n
ÃŃ a
ĠW ings
Ġmetab ol
Ġcont ender
itz er
Ġrecogn ised
Ġcro re
ĠâĢľ [
Ġpaint ings
ĠMe g
Ġresc ued
Ġcrus hed
Ġcook ies
Ġb ru
ur ious
ĠInt egr
Ġblog ger
Ġtrave lled
ĠAn alysis
Ġvel ocity
Ġgi ants
d ist
ĠK end
S w
c ond
ĠS ter
Ġdes erved
Ġstaff ers
Ġup s
ash a
Ġview er
ĠCar roll
Ġpl ausible
Ġcr ashes
AR K
ĠEs pecially
Ġv icious
ĠFin als
Ġdat as
ĠBelg ian
Ġu b
Ġco ff
ĠPar ks
ĠInd ependence
Ġgen ocide
Ġintegr al
g ow
Ġgl ac
min ing
Ġhuge ly
ĠP orter
ĠStr ateg
Ġch asing
Ġautonom y
ĠA F
als h
Ġg ates
S ure
Ġapp ar
Ġbl ade
Ġfound ers
Ġven ues
Ġab usive
__ _
ĠCast ro
ĠH ook
Ġhier archy
ot ive
Ġzomb ie
Ġn odd
ĠS r
per m
Ġprohib ition
Ġluc rative
Ġdri ed
Don nell
Ġcere mon
ĠCons umer
Ġd airy
Ġvol t
Ġsli pped
a que
ĠIndust ry
os c
ĠBM W
h h
oun ter
Ġcol ony
Ġbe es
ãģ ¨
Ã¶ r
ĠSch olar
Ġassert ion
Ġp iss
q a
orth y
Ġclim bed
ĠA br
Ġal igned
Ġunp opular
Ġcollect ively
Ġsp ont
Ġhistor ians
Any one
he art
Ġjer sey
re ctions
ĠH ass
T est
Ġal erts
l iv
ere rs
p al
ĠProp het
Ġe cl
âĢĿ ).
ason able
S erv
ib les
Ġdep osit
AT H
ell ed
sh aring
ĠDar win
ĠConfeder ate
ĠP ub
Ġhom icide
ĠAmb assador
b ane
og yn
Ġsc am
ĠL oc
ĠHop kins
T ext
Ġmatch up
ear th
ĠACL U
ĠC airo
Ġgenet ically
ing rich
Ġfif teen
Ġincl ined
Ġport able
Ġdelight ed
Ġche ss
ĠVeter ans
â Ļ
Ġmar riages
Ġlow ered
ĠEm ir
Ġgas oline
Ġjail ed
Ġsupp ress
ĠTit ans
Ġfact ion
Ġappeal ed
ins ki
Ass ad
Ġr iots
Ġat omic
Ġhapp ily
Ġamb ition
que z
R yan
Ġt ended
Ġn ostal
ret ty
Ġ> >>
ĠCath olics
en ly
ĠT ab
ĠN y
ĠD olphins
ĠCh ampion
Ġby tes
ĠT ak
ĠBr ain
Ġgener ates
ĠLeon ard
Ġrecruit ment
Ġdep ressed
Ġbreat he
Ġsl ammed
Ġsie ge
Ġdeb ts
ĠN uclear
ĠWinn ipeg
le en
ĠW ait
ers ed
Ġprotect s
Ġ196 2
ator ial
Ġbail out
im ity
Ġassist ed
Ġque ue
ĠM ix
Ġadvis or
ĠM ol
ĠH ost
Ġblow ing
am iliar
ĠGr an
ĠPer formance
n els
ov an
Ġassoci ates
ĠSur face
Ġelement ary
He alth
Ġv ic
ĠRe lease
ĠCrime a
ĠArch itect
Ġmet er
Ġadv ancing
Ġnegoti ated
p ose
ĠU CLA
ĠWest minster
Q ue
Ġext inction
d est
Ġab rupt
ruct ed
Ġenthusi astic
W ould
Ġair ports
C ome
M iss
ll ah
Ġeduc ate
ibl ings
ĠLe ave
ĠK ush
ĠV a
Ġpat ron
al one
iat ric
ĠMun ich
Ġ Í
Ġdeleg ation
dep th
yn asty
Ġdetect ive
b ast
Ġaccess ed
Ġnic he
oc cup
Ġpost p
Ġcongr at
Ġo we
ĠLe x
ber ger
Ġsimilar ities
Ġexplan ations
Ġn ail
Ġbl at
Ġconsum ing
ĠCD C
R ad
Ġcig arette
Ġhalf way
ĠX i
Ġvari ants
200 6
Ġhon ored
Ġsatisf ying
Ġp ul
ĠN okia
Ġj azz
ĠAs k
ĠB ody
Rich ard
ig o
Ġsp ike
Ġsp ying
Ġl ion
Ġemb ark
Ġsn ake
ĠOrig inal
Ġinhabit ants
Ġdirect ing
olit ics
ir ies
ach i
g ay
ĠK id
Ġover view
Ġtreat s
Ġrecogn ise
s ix
Ġslow ed
ĠId aho
us k
un ique
ra f
ĠHe brew
Ġdown s
Ġju ven
ĠF ace
ĠNor wegian
Ġrif les
um per
Ġbr on
Ġutil ize
Ġfe ud
Ġclass ification
C AR
ĠW ITH
Ġper ipher
on al
Ġeff ic
De velop
Ġd orm
Ġsc iences
Ġbook ed
er ness
Ġtri v
ĠMon th
Ġquant ities
Ġch rom
ĠâĨ Ĵ
ĠAgricult ure
ourn als
ĠEn forcement
Ġquarterback s
N ob
igg s
B B
Ġcl ips
Ġshel ves
Ġf reed
Ġapp le
Ġmon itors
ĠFor bes
Ġwe ars
Ġdefic its
ĠR A
ĠDise ase
Ġw ives
OR D
Ġrecip ients
ĠRand y
ĠK urt
Ġmark ing
ĠSimp son
Ġpo em
Ġpromot ions
Ġflav ors
f ix
Ġc ivic
it ous
ĠD erek
Ġupgr aded
m ake
z el
ĠS eth
W as
Ġt ags
ĠM ut
ĠP ew
reat ing
Ġdec isive
ĠMal colm
ĠP ierre
Ġop ener
ĠGener ation
se xual
AM Y
Ġamend ments
ale z
Ġd ough
Ġcycl ists
ĠS nyder
Ġabsor b
F orm
Ġcatast rophic
Ġincons istent
ĠDep ression
reg ular
Ġprem ature
ĠNo ah
Ġan ten
ch at
connect ed
Ġfor wards
Ġincl usive
ĠNich olas
ĠShan ghai
ĠG az
ĠCre ate
f un
ĠB O
Ġalleg es
w ent
Ã ĥ
ĠS outheast
ir us
ĠPere z
Ġshow c
Ġfil ters
i Ã³n
ad ays
ĠQ ur
Ġencrypt ed
Q U
Ġconstitu ents
Ġo ath
et ooth
ĠO ften
Ġcamp uses
met ic
ĠSocial ist
v ance
Ġblank et
I ES
ĠM asters
Ġbi ased
ir ation
ĠIS BN
Ġimp osing
ĠCl int
ĠTe levision
Ġthr ust
Ġadminist rator
Ġprol ifer
Ġev olving
Ġb ent
Ġconsist ing
ore st
serv ice
y outube
Ġr ip
Ġcirc ulation
uter te
at ism
ef e
Ġther mal
Ġcast le
ĠE t
Ġart illery
f ood
r ational
Ġse ize
Ġpros pective
Ġs od
it ime
Ġpass words
is le
F ar
ĠB ills
ĠN GO
ĠGl as
ĠEmer gency
ourge ois
ad os
Ġinc ap
Ġ0 8
f inal
h aw
l av
Ġman ga
Ġ12 8
Ġ0 6
ĠAg ent
Cont in
erv ative
Ġver b
Ġyield s
Ġ0 7
Ġ0 9
Ġpract iced
Ġuns upp
Ġmis er
Ġcoord ination
ent ry
Ġcor rection
Ġinvestig ator
ĠB ec
Ġecho ed
Spe cial
Ġno ble
Ġcontem pl
ĠAp ollo
Ġpr iced
ĠB ark
ĠP engu
Ġr ipped
el ong
ĠCur ry
Ġsyn chron
Ġt a
ĠWild life
a uth
ĠS ri
Ġno on
Pro t
it ially
Ġint oler
Ġun related
k it
ĠR ule
Ġpersonal ities
ĠThanks giving
Ġo st
ot ics
ĠT win
Ġhum ble
Not es
ĠS ask
Ġfor ty
ĠX L
Ġsh ine
Ġemer gence
ĠSt ories
Ġfrag ile
S cient
ĠR O
ĠRe x
Ġjud ged
Ġremark ably
Ġextensive ly
âĶĢâĶĢ âĶĢâĶĢ
ĠPortug uese
ĠGene va
Ġso y
il ight
ĠM ills
Ġres ent
ĠW E
k ov
Ġde ar
Ġredu ctions
Ġp oured
ĠMin i
Ġfart her
ĠD oc
Not hing
ĠIsa ac
Ġve ctor
ĠDel aware
I ts
ĠT rip
ĠR ut
ĠKas ich
Ġs acks
Ġc otton
ĠS add
ĠPy ongyang
H ome
lev ard
Pl us
os oph
um ed
Ġex cerpt
Ġman a
Ġsl ogan
he arted
Ġinstrument al
Ġbre wing
Ġmet rics
Ġver ified
Ġh ref
ĠNorth west
Ge orge
ĠMet ropolitan
ĠB in
Ġintu itive
Ġwell s
ou ble
id y
Ġreal ities
st ation
Ġsl im
ãģ Ł
Ġcru ise
l ance
Ġspe ar
Ġsl ides
d imensional
Ġperform s
ĠSal v
Ġdys function
Ġagg rav
ĠH ence
Ġar rog
Ġinher it
Ġwhistle bl
Ġe ld
Ġliv est
ĠK ane
Ġ10 5
Ġlight weight
Ġcommer ce
Ġrem inis
Ġillust rate
Ġpredomin antly
Ġvast ly
Ġcl iff
Ġafore mentioned
ĠA j
Ġscar ce
ĠUlt imate
Ġsp am
Ġcul p
Ġinaug uration
B rown
Ġend angered
Ġd ude
OU R
im er
Ġpay roll
Ġrecip ient
Ġwork out
Ġtat too
Ġadd itions
ĠKen ya
ĠU l
Ġup ward
ĠBa iley
ĠFal cons
ourn ament
Ġacadem y
Ġpremium s
Ġh obby
ĠV el
Ġorgan isms
ãģ ª
Ġcooper ate
Ġfore most
Ġobtain ing
ĠL ate
Ġoutrage ous
ĠB eth
ans om
act iv
Ġins isting
l it
ĠHus sein
ĠJen kins
ins ky
Int erest
ĠKurd s
Ġcoinc idence
n ar
le um
ĠAct ually
he ster
Ġc ad
Ġg ren
he y
st rom
ĠE sp
ĠJ unior
iet h
Ġnav ig
Ġsymp athy
il ers
Ġtro phy
Ġreflect ing
Ġimpro per
Ġ Ñģ
Ġd ip
Ġcol ored
Ġtight ly
Ġwar ns
Ġpract ition
add afi
Ġconsist ed
Ġt ense
Ġappl aud
ĠFl a
Ġdemonst rating
ĠS ite
Ġcomp ile
Ġun con
el ines
Ġimprison ment
ine a
ĠMar ie
Ġrespect s
ä º
Ġm igrant
Ġth rive
ĠSh akespeare
Ġmonit ored
Ġtest ify
Ġkind a
Ġcon form
ĠDod gers
Ġwrit ings
Ġvend or
f illed
ĠC I
Ġsm iled
Ġbelong ed
Re illy
ĠIM F
ĠBash ar
ĠTun is
ĠEr n
cl ock
ball s
Ġquick er
Ġobs essed
ĠSil va
Ġt ales
road s
Ġ( -
up iter
ĠBar nes
Ġprim aries
Ġparticip ant
os ion
Ġoptim ism
ĠLoad ing
Ġc ripp
Ġclin ics
ĠE M
om on
ĠUn less
Ġpri ests
Ġfiref ighters
" ).
ĠâĢ ĭ
Ġen forced
Ġche f
Ġlic ence
ĠRepresent ative
Ġweakness es
Ġcoord inated
uff le
Ġâ Ķ
ey ed
g rown
ĠR ot
ĠLouis ville
% ),
Ġst aggering
Ġbl oc
ĠBre tt
ke eping
o ir
ig el
het ical
Ġupload ed
p ically
ĠThe ory
sh adow
Ġste ering
Ġbound ary
Ġshall ow
16 0
Ġoverlook ed
Ġpositive ly
Ġdescript ions
an cer
Ġgr ades
Ġrest oration
ann ers
Ġord inance
ator ies
Ġbank ers
ĠD ust
ĠEag le
H C
Ġpo ised
Ġim aging
Ġconc ur
ĠArn old
Ġmention ing
Ġinher ited
m ph
Ġrel iability
Ġexp ans
iff e
Ġinterven e
Ġadd ict
Ġm a
Ġu mb
Ġnever theless
b illion
Ġinterf ere
Ġmonop oly
Ġbas ics
10 1
ĠA ur
ik er
Ġty r
.' '
Ġtask ed
E s
Ġp ets
ĠA FL
Ġass erted
Ġhand ing
Ġrece ipt
Ġseek ers
Ġst airs
ĠCase y
p res
Ġdatab ases
Ġtast es
ĠBr is
an throp
ĠEconom ics
ĠLeaf s
ĠN ord
Ġreward ed
Ġad ul
ĠSt uart
amp ire
Ġnum er
Ġp ills
Ġhor r
st ated
ĠL ed
Ġtra it
Ġqu ot
Ġinput s
) -
ĠK il
ĠGr ace
Ġawa iting
Ġr h
Ġr ider
s uper
ĠS ale
ĠH A
Ġspr int
Ġang les
ĠWe bsite
Ġ0 5
Ġfl uct
eng ine
Ġchap ters
Ġc oding
ns ic
Ġbureau cr
ĠHend erson
Ġorig inated
Ġb ounce
ec d
AR Y
Ġst agn
Ġ* /
A ir
D isc
asc ular
Ã ¸
Ġl oot
Ġbre eding
ĠS weet
Ġautom ation
ĠGOOD MAN
ĠFl int
Ġhorizont al
ĠK iev
Ġre nown
ĠW AR
Ġexp osing
mit t
Ġemp athy
ĠJ ob
Con clusion
Ġconj unction
e ous
ĠMem phis
u ber
un al
Ġcapt uring
Ġred irect
Ġtour s
Ġcaut ious
p ict
ĠF ocus
Ġbl u
Ġcou ch
Ġcon gest
r ays
Ġbuy er
ĠEll is
rop he
ĠGet ting
Ġsens ible
c ue
Ġval ley
ĠCole man
Ġs iblings
ĠL um
d oc
Ġen compass
ise xual
Ġmerch and
Ġreal izing
Ġsus cept
v id
pro cess
Ġsun light
ĠV ideos
ou x
Ù ħ
ile m
ane y
Ġtrad ers
ophob ic
O p
Ġnurs es
Ġred es
ĠG oth
Ġz oom
Ġsubject ive
Ġhur ting
ĠS B
ĠD rake
Th us
Ġcandid acy
ric anes
ard i
Ġadmit ting
Ġdev il
ĠW elsh
ĠF uk
ĠV ent
Ġw oke
ĠD ow
ĠJ ays
Ġmilit ia
ĠFerr ari
ĠL av
Ġdetain ees
ĠIn g
Ġins ufficient
j pg
st airs
ĠVis ual
im ination
Ġmor ph
Ġslow ing
ĠBur ke
oy le
RE D
Ġgang s
n is
ĠSach s
Ġank le
ĠMcC l
f air
Ġprop osition
Ġabund ance
l ar
Ġunder water
ĠS pl
IT E
ĠC ort
Ġpar a
f amily
Ġje opard
Ġimm un
ĠHer oes
Ġaston ishing
s ic
Ġwho lly
Ġadm ire
ĠM atch
Ġgu ides
Sh ould
ĠD ad
Ġla wn
Ġt ires
ĠS gt
Ġener g
hol m
Ġpist ol
ek ing
ĠA V
Ġgener ator
R un
Ġdr astically
ĠSch ne
Re view
Cont act
ĠAbd ul
Ġunsupp orted
ĠW ag
Ġne arest
ĠE aster
Ġun named
~~ ~~
Ġbarg aining
i ott
Ġprox imity
ĠT ories
im edia
Ġcontest ed
Ġs way
hed ral
Ġbo o
Ġpl ural
Ġg em
ĠArab s
ĠPre vention
OC K
cy cl
Ġpus hes
Ġbot hered
Ġphenomen a
ĠBudd hist
ĠC rew
and als
ĠV I
ĠPr ide
Ġinadequ ate
Ġc ared
ĠC raw
ĠN aval
yl on
" ),
ĠMont gomery
ĠSc ript
ĠAt hens
S ources
ĠH od
Ġvibr ant
ĠR B
ĠY u
Ġlo oph
cons cious
load ed
Ġc ites
oc used
l anguage
Ġform ats
ĠLear n
amer a
Ġopt ical
Ġj aw
am ount
ĠP aper
Ġassault s
ĠPr ison
h all
S al
t ake
EN D
Ġunder grad
ep rint
Ġatmosp heric
Ġconv entions
b ucks
Ġpot atoes
rell a
Ġprotocol s
Ch ild
P T
ĠB ot
f a
Ġserv ants
Ġrelax ed
Ġlog ged
h ouses
Ġrepe ating
Ġflo ors
Ġjew el
Wh atever
ĠA pr
igg ins
Ġbo asts
ĠAd rian
Ġ Ã©
00 3
Ġenjoy s
ĠL anc
Ġcomb ining
Ġhighlight ing
in ers
are a
ĠReg ion
Ġoverwhel med
dri ving
ĠL opez
Ġfl own
Ġsurf aces
ĠL iqu
ie ves
ian i
Ġfin est
ĠSC P
Ġcomed ian
ĠN RA
Ġnurs ing
Ġwond ers
Ġgar lic
Aug ust
Ġst aged
Ġmar athon
H y
ĠP and
Ġuncom mon
Ġpop ulated
Ġnick name
Ġdist ances
acer b
i u
Ġliqu or
} ,
Ġapolog ized
ĠGT X
us p
alk ing
play ed
o qu
ĠHe ights
ĠH ack
12 3
Ġself ish
PD F
Ġmole cular
R P
ĠHe avy
Ġunderstand able
Ġmos qu
is se
Ġhur ts
Sand ers
Ġinjust ice
Ġc ensus
Ġb aking
p ad
ĠA IDS
ĠY am
ind uced
Ġtriv ial
Ġdiplom ats
Ġsoul s
inent al
ĠSom alia
ĠVal ue
Oct ober
Ġhilar ious
ĠJ in
ĠTh rones
Ġcraft ed
Ġpick up
Ġa in
Ġg ases
Ġimpl ied
Ġhack er
Ġexha usted
a ic
ID E
Ġillust rated
Ġassum es
ĠHold er
Ġcomb inations
Ġrev is
Ġerupt ed
Ġde portation
ĠG ingrich
Ġsupp liers
Ġanaly tics
Cl oud
Ġflood ed
od ied
iet al
ĠVirt ual
M arc
ĠB io
names e
ĠW A
Ġpast or
ĠPost ed
ĠP ul
Ġfit ted
am ples
ĠD at
ĠSt rike
az or
Ġspin ning
ĠC amb
L ocal
ĠR ust
Ġshot gun
Ġsub urb
Ġconcent rate
Ġsad ly
ĠPear l
if a
Ġproceed ed
S ocial
ĠW izards
ĠE ye
Ġinsect s
ĠH off
Ġnew com
Ġexplos ives
if le
In c
Ġdark er
Ġg ently
ĠIndust rial
ĠU P
ĠAustral ians
ĠBudd h
ĠT ottenham
Ġsens ation
R ev
Ġc um
Europe an
c iously
Ġsec recy
ĠCon n
ĠLe aders
Ġactiv ate
ĠFre eman
et z
Ġcol ours
ĠFal con
7 50
Ġpromot es
Ġc ater
ĠS HA
other apy
Ġprob ation
ĠJ os
Ġemphas ize
Ġincom plete
pe ace
Ġen rolled
Ġprob able
Cur rently
Ġnot or
ĠHe aven
Ġstand point
L ove
er ie
Ġl ingu
A ut
ĠNot es
C T
Ġback ward
Ġaffect ion
Ġvulner abilities
Ġb ourgeois
ĠN am
ĠAut om
ĠC rypt
ĠWord Press
ãĤ ĭ
Ġparad ox
ĠCom plete
Ġaccompany ing
ĠJ agu
Ġout line
D ate
Ġb rib
Ġmicro sc
author ized
Ġo wed
Ġver se
Ġbe am
Ġmot ive
bu ilt
Ġun b
Ġmain land
Ġvar ieties
D ear
Ġalph a
m ajor
r ina
Ġcompl iment
asp berry
Ġto ggle
200 1
Ġtr ails
Ġ Ø§ÙĦ
Ġstate wide
ĠSch umer
ĠM ak
Ġcat aly
od er
ĠN FC
Pro ject
ĠKn ights
at tering
it as
def ense
ĠDub ai
U ser
c ig
ne ys
ĠNS W
ĠR idge
Ġqu eries
che m
ĠE N
ĠÂ §
ĠSim ply
ĠStep han
R ub
Ġprov oc
st eps
ĠApp eals
ĠSt range
ĠV illa
Ġdeal er
Ġretail er
ĠT E
Ġha w
Ġunder cover
Ġfair ness
H and
Ġm es
ĠAl z
ĠF ixed
Ġcl ues
Ġpool s
s ens
Ġeval uated
Sub scribe
Ġe ternal
ĠScient ology
Ø ±
c in
Ġrele g
Ġliber ation
Ġan ecd
Ġg ru
Ġsyn c
Ġgr ams
ĠGu ant
ĠAdd ed
en es
ut ton
Ġall ocated
ĠEm ily
Ġgen ome
ĠX P
set t
Ġd uck
ĠL ux
Ġdef er
ĠCy ber
the ning
Ġgl uc
osa urs
ĠGab riel
Ġun equ
Ġen light
c ock
ant on
Ġsing ular
14 0
Ġpa ired
Ġgreet ed
Ġrespond s
du llah
uss ions
az ar
Ġl enses
ump s
ĠLl oyd
. (
il ogy
ĠX ia
Ġtort ured
Ġpopul ist
ro e
Ġconf ined
at ivity
Ġpl ots
Ġass ure
Ġpropri etary
ĠGo ing
Ġhar ness
Th ink
Ġconf isc
ĠTer min
ĠV ersion
Ġcorrid or
ĠK enny
Ġnational ism
Ġan them
Ġinsure rs
ick er
Ġcompe lled
o at
ĠB ach
Ġco vert
Ġcar b
Ġobs ession
ĠJosh ua
ĠC F
ĠF ew
uff s
Ġcal culation
Ġwel coming
Ġhint s
ĠP le
Ġind ul
Ġincomp et
S QL
ĠR ules
Ġinter ventions
ĠTri ple
Ġsex y
Ġstere otypes
ĠEth iop
L og
M ass
Ġcat alog
ĠIns ider
p olitical
Ġh ills
Ġg rief
Ġdes irable
Ġpartic le
ĠF u
Sept ember
Ġgra pp
Ġw olf
Ġax is
Ġb ang
ut ic
ĠF ear
ĠSw an
Ġex acerb
Ġborrow ing
re v
ĠT ol
Ġ1 11
Ġdefin itions
uk a
Ġconnect s
ĠPat rol
Ġpartners hips
Ġsoph omore
Ġs atur
sh ine
Ġambul ance
Ġmach inery
Ġtraject ory
Ġafter ward
ĠGl en
Ġathe ist
Ġlit eral
Ġadminist ered
ĠU FO
Ġdebut ed
Ġhur ricane
Ġobject ions
ĠKind le
D ev
xt on
Ġplaint iffs
ĠT iger
ĠAn onymous
ĠEv an
Ġrebell ion
Ï ģ
O k
Ġens ures
ĠCharg ers
int egr
Ġcool er
aw i
ĠRe act
d ogs
respons ible
Ġunlaw ful
l at
Ġware house
ĠWin ston
ĠF aith
iz oph
AN S
ĠAng els
Ġteach ings
oint ed
ĠD ash
Ġsum s
î Ģ
Ġterrit orial
commun ications
Ġsymp athetic
ĠW alsh
d et
Ġprop osing
Ġhom eland
Ġmax im
ĠSu z
Ġemb ry
ĠRoberts on
M ult
ar ious
viol ent
Ġd ull
ĠAsh ley
ĠB our
Ġmet ro
N O
ri ents
Ġmat rix
Ġneighbour s
W elcome
Ġl ag
Ġdo i
Ġfig uring
Ġcoc onut
Ġnotice able
do ors
display style
C BS
Ġro pe
Ġpres cribed
S ix
in ian
Ġprivile ged
Ġprosecut ed
Ġy oga
Ġsm ok
We b
sec ret
Ġyell ing
g one
h n
ĠCon cer
ĠEm ma
Ġto pp
Ġ19 48
sh irts
ĠU T
ĠCirc le
Ġvar ies
Ġimpro ves
Ġincon ven
Ġsystem ic
Ġcontro llers
Ġrev ision
Ġten ants
Ġreck less
g as
T otal
ĠR alph
Ġcur iosity
ĠBer g
Ġin ning
Ġhold er
Ġgorge ous
Ġen rich
ener gy
Ġprot agonist
Ġsuff ers
ĠGreg ory
Ġub iqu
ĠSt ay
ĠOff icial
Ġlobby ists
be cca
re ra
Ġreact ed
ÑĢ Ð°
Ġdelic ate
Ġgri ev
ustain able
ĠB uch
Ġgl oves
Ġstret ched
ĠE ug
Ġins ulin
ĠInd igenous
Res earchers
Ġext ensions
Ġprem ises
ĠImp act
Ġdisapp ro
m and
ill on
Ġconstit utes
ract ed
ĠPro bably
Ġd oses
Ġcan on
Ġam ended
Ġwas hed
Ġide als
Ġstab bed
ĠW el
Ġ196 1
W ant
ĠN early
Ġf lick
25 6
Ġintern ally
Ġcompet itions
Ġd ice
Ġpur ported
Ġfeed s
V C
Ġb og
ĠOr d
Ġmax imize
Ġsurf aced
Ġcr ush
Ġmethod ology
Ġmaneu ver
P E
ĠG ang
ĠE arl
Ġcons oles
ĠT PP
Ġste alth
ela ide
erv ing
Ġcho oses
Ġout reach
izoph ren
\ /
Off icials
Ġhelicop ters
ĠBurn s
ĠLib yan
Ġbuck et
ĠP or
Ġpl um
ĠEll iott
in burgh
op ath
Ġsam pling
Ġproject ion
ĠQu arter
ri ad
ĠF ortunately
ax ies
ĠJ upiter
Ġcont ention
ĠReg ister
ĠSask at
Ġresist ant
in v
Ġlo vers
ĠFried man
ĠD iet
ĠRe b
B ob
U r
ãģ ¯
Ġpen is
ĠInd y
Ġperform ers
Ġbrows ers
it an
ci ation
ri um
ĠShe ll
s um
ĠM UST
Ġav iation
iss ues
Ġmed ications
Ġinform al
Ġstory telling
Ġfool ish
ĠAdvent ure
c ision
Ġdis abilities
ĠGu ild
IC O
b ird
ant a
g em
is i
Ġj ar
Ġfin ed
Ġlot tery
Ġimprison ed
Ġa kin
ed e
Ġadv ise
ĠC li
Ġcr ises
Ġsen iors
al ion
Ġweek ends
Ġcomment ators
ĠH ob
Ġlog in
Ġmeth ane
Ġsh irts
ĠE sc
Ġconsider ations
Ġeleph ant
ĠB uc
year s
Ġse as
Ġcry st
Ġric hest
AAAA AAAA
Ġdeb ated
ĠHar bor
rig er
intend ent
Ġrom ance
f its
ĠSpace X
Ġignor ant
st ud
Ġfemin ists
ĠReyn olds
ĠBapt ist
Ġlog ging
ĠNov a
U TC
h it
Ġ á
Ġs i
Ġst ew
ĠCont act
ĠTrans port
Ġc el
ind ust
Ġmis ogyn
ÂĢ Â
N or
Ġun just
Ġel imination
Ġexc av
ĠC ob
Ġpay load
H op
Ġm asters
ĠTH AT
in yl
Å ¾
ĠCh a
on ial
Ġwar rior
ĠViet namese
ĠPer l
Ġexem pl
Ġairpl ane
ĠC able
Ġcont ests
Ġtime ly
Ġmis dem
Ġjump s
ĠPolit ico
b ard
h l
B ern
Ġs ore
de ep
Ġinterrupt ed
Ġl od
ook ie
Ġco h
c ot
You ng
Ġrel ates
ĠIns urance
Ġat roc
ĠU g
Ġcl oth
ract ion
Ġspecific s
C ent
Ġ **
Ġhome owners
Ġwh ale
Ġconced ed
Ġdistingu ished
US E
Ġappropri ately
ĠW end
Ġhum ili
aun ting
Ġdiam ond
Ġp ixels
ĠComp et
ĠM t
Ġcompl ications
oke mon
Ġprivile ges
Ġeleg ant
Ġadvoc ating
Sh ow
g mail
p ark
200 4
stan bul
ĠThe ater
ĠApp ro
Ġdiscuss es
Ġdest inations
Ġcort ex
ĠC AN
ĠBl izzard
Ġauthent ication
ĠT at
Ġmin ors
osp here
ĠKle in
G I
com fort
Ġvoc als
Ġth y
In s
Ġsl ots
ĠSh o
Ġcolon ies
Ġperce ive
Ġl ining
ĠD ylan
Ġsens es
Ġfat igue
ĠT roy
Ġmil estone
ic ans
D am
ĠGr ad
Cong ress
Ġcompr ised
Ġbat ting
ok a
Ġup rising
ĠJ eb
10 5
Ġselect ing
ĠBas ic
Ġartif acts
IN T
Ġappet ite
Ġdiscover ing
M el
Ġo ceans
b ial
Ġprest igious
B Y
p aper
Ġg ad
With in
ĠMa o
B T
D an
ar ak
ĠP HP
Ġadop ting
ĠC atherine
nd ra
ĠO mar
Ġment or
ĠPl ant
Phot os
ĠI CE
Ġsuccess es
Ġunw anted
Ġaggreg ate
Ġembarrass ed
Ġcritic ize
ĠÃ ®
Ġacceler ate
Ġband width
Ġvit amin
Ġpedest rian
Ġwh ales
ters on
Ġprompt ly
or o
Ġp ave
he res
Ġid iot
Ġpal m
ĠE ST
Ġprocess ors
iv ia
Ġmin us
St op
work ers
Ġpit chers
aze era
ion age
with out
al iation
âĢĿ ),
Ġrep ay
Ġcorrect ed
ĠMill enn
Ġsl am
Ġhost age
Ġstrateg ist
Ġunsuccess ful
Ġtyp ing
ĠC ensus
it ches
ĠH ood
Ġhead set
m g
Ï Ĥ
Ġsepar at
conf ig
Ġenthusi asts
Ġc ried
im en
es ar
Ġfin ishes
Ġ ..
ĠR ift
' :
an ity
ĠW ake
ĠH arm
ĠMc N
Ġ19 44
Ġtrans mitted
Ġpers pectives
ĠM aterial
Ġbl aming
Ġmet adata
Ġstun ned
ĠT i
x on
ĠE A
Ġhe ck
Ġl ur
H R
Ġprogram mes
Ġsett lers
is ite
red ited
Ġbless ing
Ġpr ag
Ġsand wich
Ġ" [
Ġsw orn
ĠMor oc
Ġphr ases
M ORE
ag le
ched el
Ġpsychiat ric
ish ment
ĠM our
! ).
C raft
Ġun ified
Ġenjoy able
Ġweigh ing
n ings
ĠR BI
Ġfr acking
Ġcolor ful
ĠAlf red
Al ong
ĠChampionship s
op hers
ĠH ab
Ġalarm ing
Ġ ë
Ġaccept s
ĠC inem
ĠM ik
Ġentire ty
Ġvis ibility
Ġint ro
port ing
re a
ĠM ets
ĠElect ronic
Ġimp ly
ĠF ine
ĠEver ton
Republic an
ĠI gn
Ġstruct ured
Th ings
Ġded ication
ib al
Ġmer ger
ĠA A
Ġcert ification
ĠP os
ci pl
Ġbrut ality
Jo in
S W
f ax
Ġoccup y
Ġtoler ate
Ġman kind
Ġintention al
ĠW rest
com mon
Ġinaug ural
Ġnot ifications
Ġworks hop
C ON
em ption
oc o
Ġso ap
Ġcorner back
ĠBou levard
Ġout law
Ġcul min
ĠPar ad
Ġpip es
ĠAven gers
ĠT ap
Ġrecogn izing
e ger
ic ates
Ġl end
Ġas c
Ġcap ita
ĠS aw
av an
Ġmot ives
" [
ĠBe gin
ĠL ag
man y
ĠSt age
oy s
ang led
ish a
Ġph osph
Ġmiss es
ĠCro at
Ġgau ge
ĠKash mir
Ġdet r
Ġround ed
ĠPel osi
ĠFrank en
Ġde er
ĠWe instein
he e
Ġper secution
Ġcle arer
M ex
ĠH ours
Ġunpredict able
Ġth a
Ġl ament
ĠSat urn
L ine
ĠBas ically
Ġuniform s
ĠGlas gow
Ġb ore
ocaly pse
Ġg odd
Ġrenown ed
Ġcap ac
br and
Ġhasht ag
ĠC ele
ĠTh om
ind a
ĠSe bast
ipp le
ĠHy per
ĠL amb
Ġdis asters
Ġtw isted
Ġt il
ĠB rent
ie u
Ġar row
az er
Ġprejud ice
b ps
Ġinfer ior
ĠTim othy
Ġextrem ism
ard on
b led
ĠN as
ĠC el
ĠMar ines
ĠM aps
O per
Ġsk ate
op ers
se at
ĠL anguage
Ġright ly
Ġsing les
Ġb od
ĠH app
Ġgr in
ĠMor rison
ĠExpl orer
Ġdece ased
ĠD ale
ĠSN P
w ave
ĠH orse
ĠBro ck
Ġcoun cill
Ġrecru its
ĠM oto
oci ated
Ġprohib it
o ids
Ġcomb ines
Ġbed s
Ġst unt
Ġarm ies
Ġdesp air
Ġpred ators
Ġexp on
th ouse
Ġsh ade
Ġvac ant
ĠVol ume
ixt y
w ald
ount ain
ĠSh op
Ġrecogn izes
ĠB ever
est ine
o an
ster dam
Ġcell ular
Ġmer cy
ãĤ Ĵ
Ġv ivid
ĠSch midt
Ġl aughter
Ġab st
ĠSh a
Ġd y
ood y
Ġoff ences
Ġinflu x
Ġexclus ion
L ead
Ġdis respect
ĠRep orts
B D
An n
p c
anc ers
Ġthe sis
ot ine
ĠNot re
Ġcoordin ate
ownt own
Ġparad igm
Ġdet on
ĠGonz alez
ĠS ak
ener ation
C ode
e ur
Ġmer its
Ġacknowled ges
Ġstory line
or f
Ġball oon
Ġan at
ov ak
Ġbarg ain
Ġmar ched
ĠAlz heimer
Ġtr aces
Ġcommand ers
Ġw ary
ot ers
Ġbr acket
Ġsymp ath
Ġvir uses
Ġingred ient
Ġinaccur ate
Ġtw ent
Ġdown ward
act ed
Ġ17 0
ount y
Get ting
ĠOr acle
Ġantibiot ics
U RE
Ġgun man
Ġrestrict ion
Ġcondition ing
Ġrefere e
Ġalt itude
Ġre dd
Ġdisplay ing
in el
Ġwrong doing
ĠSpr int
ĠP OL
it ational
vert ising
Ġexem ption
Ġl amb
Ġwar riors
ev al
Ġbar red
b uster
re view
or p
Ġp and
Ġseason al
c ourse
Ġdetail ing
ĠThe resa
av ior
OU T
Ġp ixel
ĠD uterte
ĠU pper
Ġshut tle
ĠTreat y
A round
ic ularly
ĠE gg
me ga
Ġer ad
e pt
Ġst ems
Ġbl essed
Ġbund le
Ġclos et
Ġpe cul
or ie
ĠR hod
let te
ĠK on
ĠMir ror
Ġh over
Ġr ust
Ġport al
spe aking
Rec ently
d id
Ġpreval ent
Ġthought ful
ĠR ange
Ġshe lls
J ul
ex cept
Ġillust ration
li ber
ĠStart ing
Ġadvoc ated
Ġexceed ed
Ġj ungle
ĠL iter
ans on
Ġsne ak
Ġstatist ically
Ġo live
Ġch ill
C ourt
Ġmor ally
Ġfur ious
Ġc raz
Ġcas ino
Pac ific
ĠL ay
Ġatt ain
Ġb acon
Ġkn ocking
Th omas
af ia
Ġs ights
pl ates
ĠPen insula
b ag
Ġintrodu ces
W R
fol k
Ġye ast
ĠMons anto
ĠI van
Ġgrad uation
Ġst yl
Ġwh it
Ġc ite
Ġthere after
ĠSing le
ĠC ities
Ġchampionship s
Ġtr action
ine ment
Ġsub po
ĠEn c
Ġobst acle
S ave
Ġpr inter
For ce
Ġupd ating
Ġreb oot
Ġmicro phone
ĠDev il
im ag
Ġex otic
Ġche ating
ing ham
Ġl ob
Ġvol can
ĠE L
We ek
Ġbroadcast ing
Ġj ournals
Ġprolong ed
ĠLeg ends
Ġwarr ants
ĠC e
Ġar che
Ġrespons ive
C amp
Ġfilm maker
Al most
ett ings
Ġprogram mers
atin um
Ġfreedom s
r ill
à ¹
âĢĿ ;
ess ors
Ġrest art
Ġclean er
Ġpun ct
ist ical
Ġmark er
Ġskept icism
Ġsol ic
Ġdefe ating
g ro
Ġb ast
ograph ics
Ġdil ig
ĠEmb assy
udd enly
% ).
Ġout field
gg y
Ġter rific
V ery
f light
Ġterr ified
Ġunf amiliar
f alse
ent e
int o
isp here
D aniel
W in
Ġrec ons
ĠCo ffee
Ġcrack ed
ch anging
ĠL O
Ġinst itute
ĠJackson ville
ĠAub urn
ic able
Ġexped ition
Ġsquee ze
P ict
w ere
Ġmag net
place ment
ĠPrinc eton
ĠT weet
Ġtun nels
( (
Ġcon ceived
F ind
Ġsur g
Ġfuel ed
ĠSt o
Ġident ifies
Ġbig ot
ĠIS IL
Ġannounce ments
ĠPC s
ĠO t
ick y
18 0
y ers
Ġd ilem
ĠL ogan
ĠHait i
Ġmet als
! âĢĻ
] ]
ĠKn icks
omed ay
Republic ans
Ġnort heast
Ġbe e
Ġindu ced
E lect
L ive
ry s
ren ched
Ġtake over
Ġ10 80
Ġaccommod ation
N OT
ur st
Ġsuper b
Pl an
ĠLGBT Q
ĠExper ience
Ġv ine
Ġgr ind
Ġengine ered
Ġbron ze
W il
Ġimper ative
we ather
Ġstr ains
Ġheav ier
Ġloc ks
Ðµ Ð½
ĠD h
ĠN ak
Ex per
er k
Ġan nex
ress es
Ġrequest ing
ĠNY PD
Ġsc aling
Ġsubsid iary
Ġm asks
af ort
Ġlisten ers
R ay
ĠO kay
Ġborrow ed
Ġbe ard
ĠH i
Ġall ocation
Ġgovern ors
Ġhand c
nder ing
Ġcirc ular
Ġg rit
Ġfl ame
ĠWH O
am el
Ġa u
Ġund is
Ġcontam ination
as is
Ġprop he
Mc C
ĠFif th
Ġobject ion
id av
Ġr apper
Ġ20 30
cast ing
p ers
Ġo ct
Ġlower ing
att ack
vas ive
Ġbureaucr acy
ra ve
Ġre per
ĠR ugby
ĠG y
ĠCharl ott
Ġd od
Ġst ip
ĠSh ane
b usiness
Ġsn apped
Ġcriticism s
Ġillust rates
ĠDO J
S aturday
Ġposition ing
Ġabsor bed
ĠAndre a
he ed
Ġs perm
ĠF ighter
Ġpo inter
G H
it ives
Ġsh aping
Ġback yard
Ġmult ip
ĠG L
Ġphilos opher
ĠBah rain
Ġinv iting
Ġanaly zing
ĠTrans it
ĠI stanbul
or ian
ĠRom ania
ol ith
Ġball istic
Add itionally
ĠK ell
pr im
Ġunst able
ĠAl ways
ĠCourt esy
John son
Ġacqu iring
Ġru ined
Ġpot ato
ĠFl ag
Ġhous ed
Ġhealth ier
Ġrecept or
ĠBlu etooth
Ġvolt age
om ical
Ġpl at
ĠVictor ian
ĠA RE
ĠCent ers
Ġcourt room
Ġenter prises
ant ry
Ġvol atile
Ġmir acle
ĠSU V
Nob ody
T urn
Ġf ist
lic t
G roup
en berg
ick ers
Ġsm arter
Ġreg ain
Ġstar red
ĠLind a
ĠEd inburgh
Be yond
g rowing
Â Ĺ
ĠEl ite
ĠLet ter
m ass
Ġp ine
Ġk its
âĢ¦âĢ¦ âĢ¦âĢ¦
Ġun real
Ġnodd ed
Ġpl asma
t v
oss ibly
Ġpreval ence
Ġv est
ĠSim mons
ĠGil bert
Ġl b
Ġoff ended
bl ue
ĠV o
ĠBr anch
Ġrad ius
Ġden ounced
Ġorche st
ev ent
t z
,âĢĻ âĢĻ
Le ague
ĠN ice
red dit
Ġsoc io
Ġme ga
sh ould
ĠLeg acy
Ġunus ually
Ġdevast ated
Ġwip ed
D en
Ġf ren
Ġcy l
ĠWalk ing
ĠDay ton
ink le
ĠSpe aking
ĠElect ions
ĠFil ip
B erry
F in
in qu
ah ar
Ġbro ker
ĠBren nan
Ġcell phone
gu ided
Bel ow
Ġunder going
Ġdef ect
Ġcr ust
Ġnomine es
fund ing
Ġdo omed
Ġe Bay
um i
ĠAb dullah
ĠChe v
rah im
S ar
r ab
ĠP ars
De cember
et c
Ġexplos ions
Ġrev ival
Ġpaper work
!! !!
s rc
ĠD ana
Ġreact ors
Ġfright ening
Ġque er
Ġrig orous
Ġagree ing
Ġproud ly
Ġexclud e
Ġl over
ĠM iles
ĠK umar
Ġep it
Ġdict ator
Ġpsych ologist
ĠO ri
Im agine
Ġattract ing
Add itional
Ġrecomm ends
ĠFR OM
ill es
ish ops
ĠLear ning
ĠR iley
ĠKush ner
Ġdiplom acy
Ġfav ors
C y
Ġposs essed
Ġbal ancing
ire ction
Ġreg imes
Qu ery
Ġreferen ced
Ġl av
ĠN ode
rist ol
ĠMan uel
Ġthr one
Ġmin eral
Ġwatch dog
keep ers
Ġbenef ited
ĠUlt imately
ĠM az
Ġsl og
ĠM ig
us ers
ĠR uth
Ġend uring
Ġcar pet
Ð¾Ð ²
Ġprost itution
Ġun m
ĠL ith
Ġle mon
Ġrec laim
ĠS ales
Ġbet ting
Cur rent
Ġforb idden
c od
ĠJ edi
cent er
Ġunch anged
ay an
duct ed
Ġgall ons
ĠPartners hip
Ġint ric
ff iti
ĠV ision
Ġter ribly
Ġret aliation
ĠSe oul
Ġ19 00
sp an
Ġdeleg ate
Ġinspect or
Ġhorm one
Ġbeaut ifully
Ġmir rors
H ard
Ġsh red
Ġarch ives
Ġappar atus
ĠE isen
Ġpos ing
p sy
Ġclear ance
C rit
ĠA verage
ĠE instein
ins pired
11 5
ĠBet a
ĠGen esis
Ġsanct uary
Ġec ological
ĠS oph
Ġown ing
Ġt apped
ĠC ad
od s
Ġback drop
ĠS hip
ĠC lear
pt ive
Ad am
ĠProgress ive
p arent
ĠAust rian
m ut
Ġend ured
sequ ently
Ġsubmar ine
ĠT M
Ġren ov
ĠAnn ual
Ġpredict ing
) ?
ĠG ross
ĠRoll ing
l ived
Ġhost ility
ĠStar bucks
Ġlength s
Ġgal axies
ag ne
Ġ10 4
Ġn avy
Ġend ure
Ġton nes
K im
Ġgood ness
ram id
Ġtack ling
ĠB un
ump ing
Ġalleg ation
Ġsimpl icity
ight y
itness es
ĠS kin
L ou
i ov
Ġph ases
ĠPr adesh
Ġundert aken
Ġgr an
ro ot
Ġb end
Bit coin
ĠD ani
Ġpart ition
ĠPl aza
ĠGr ass
Ġl bs
ĠCom ment
T ech
c ry
Ġt am
gg er
gg ie
Ġhy ster
l ins
os er
ĠJ ill
10 4
Ġdisappear ance
g ie
Ġje ans
ĠSter ling
Ġspecial ists
Ġh orn
Ġn g
ãģ Į
Ġhard core
Ġrest ing
Ġsell er
D i
is co
Ġher b
Ġtheir s
Ġanticip ate
Ġpig s
Ġcritic izing
Ġcompens ate
Ġcon qu
Ġref ined
Ġ1 12
achel or
Ġfree zing
ĠN J
so ver
L in
ĠT ournament
Ġins ider
Ġs idelines
Ġl ou
ĠC ards
Ġdevelop s
" "
Ġtravel ers
Ġcommunic ating
_ {
Ġt ant
Ġconcept ion
ĠSher man
oster one
squ are
re z
Ġs rc
Ġmodel ing
Ġaw aken
Ġbom ber
Ġdub ious
ĠSt ream
ĠR F
Ġur gency
ĠGit Hub
Ġswit ches
spons ored
Ġfert ility
Ä Ł
Ġg le
Ġhun ter
Ġrival ry
UL L
H i
Ġa ven
Ġrepl icate
Ġdiscover ies
Fr iday
Ġp ap
Ġsuper visor
Ġpath way
ĠR abb
N ovember
rat ives
Ð ·
Pr int
ĠScient ists
Ġd iving
Ġ( .
Ġcore s
Ġelig ibility
Ġbl ows
Ġuns afe
Ġto dd
ate l
Ġacc use
ern ame
ĠON E
Ġconcess ions
Ġshort s
Ġgoal keeper
Ġastronaut s
Ġwa ist
ĠRich ards
bal ance
Ġcompet ent
IS A
Ġemail ed
I AL
av in
Ġinterrog ation
H uman
health y
ĠPan ama
Ġvolunt arily
Ġmerchand ise
ĠS ame
Ġ: )
ĠOw en
ì Ŀ
Ġele ven
âĢ ²
ĠPers ian
q l
all ah
Ġstretch ing
Ġcook ie
Ġb isexual
Ġche ek
Ġshr ink
Ġ} );
Ġpreserv ation
ĠEmir ates
P rodu
ĠSp art
ĠBru ins
Ġcr unch
F ore
Ġlau nd
Ġrese mble
Ġrad ically
ĠS tern
ĠR apt
ĠE rik
Ġlaugh s
Ġg er
Ġfor fe
Ġburn s
Ġbroadc aster
u u
Ġchar itable
Ġempir ical
ĠSp icer
reg or
m atch
Ġaff idav
. ;
Ġobserv ing
Ġinfring ement
ĠP ain
amm ad
Ġaccess ories
w ic
Ch ief
ĠEvery body
Ġcooper ative
ĠTurn bull
ld a
ĠP ist
ĠFr ame
pl aced
Ġbit coins
Ġcrypt o
ĠTill erson
Ġreiter ated
Ġde af
Ġ19 41
Ġcontent ious
Other s
ĠFood s
Ġv intage
S O
Ġne ut
ĠF a
Ġcont end
ĠJul ie
mod ern
ĠCore y
ĠC aval
ĠB urg
Ġwas hing
Ġre ef
Ġhapp ier
Ġinterf aces
Ġr anged
Ġpri zes
F inal
Ġthe rape
Ġ/ >
K evin
ĠF act
Ġpen al
Ġdistract ion
le ys
Ġobser ver
Ġside walk
ĠB ert
ond o
Ġassess ments
Ġhypot hes
B esides
ĠT aking
Ġreb uilding
Ġsch izophren
Ġ4 50
Ġstret ches
19 90
ĠMap le
Ġro de
Ġalleg ing
Ġspir al
Ġm s
Ġcontract ed
Ġill icit
ĠSadd am
ac s
Ġvan illa
E p
ol iberal
ĠMe yer
Ġathe ists
J ose
ĠG ir
Ġprogram mer
Ġinnov ations
ĠJul ia
Ġw ipe
ĠTh an
Ġref riger
ĠMe et
ett i
ed u
Ġf usion
ĠÂ «
ĠIns pect
ĠAl ger
ĠC er
Ġacceler ated
Ġvis as
be h
ĠYOU R
Ġlone ly
Ġm arsh
Ġst ellar
Ġmod ification
Ġtour ing
ĠJud iciary
Ġunbeliev able
M ur
rest rial
Ġconfir ming
Ġshut ting
s il
he ard
g ae
ĠV ince
Ġdump ed
r h
Ġfact o
Ġcapt ures
Ġrig id
R edd
ĠH ernandez
Ġnegative ly
abl ished
l ich
OR Y
Ġdetect ives
Ġv andal
ĠReg ardless
ĠHaw ks
Ġwithd rawn
it em
Ġple as
b ling
Ġ2 20
Ġal lev
ĠSt ef
P ay
P ublished
Ġfeas ible
in vest
ĠL P
ĠK iss
ĠVe h
200 3
Ġgluc ose
Ġ __
ĠG rowth
Ġinf ants
ĠAd elaide
s ided
ent ric
art en
Ġdiet ary
Ġnot ices
Ġinst ability
Ġpour ing
Ġdepend ence
Ġselect ive
Ġv inyl
Ġcateg or
rec ord
E ric
Ġren amed
Ġpreserv ing
ĠKenn eth
bl ood
ĠAP Is
Ġper ceptions
Ġ18 00
ĠSim ple
K en
mo il
S B
Ġa rose
Ġcr ashing
any on
in ational
k ara
ĠChe ney
ĠWeb b
Ġbom bers
ĠCon way
Ġaut umn
ĠDev ils
ĠInvest ment
a ft
p atch
s ch
Up on
Ġsustain ability
Ġf og
op ed
ĠU nd
ĠRe play
Brit ish
Ġf ost
Ġconstitu ency
W C
ĠQu ant
ĠInvest igation
S und
Ġout spoken
Ġmyth s
! '
Ġtr aced
ĠSch ultz
Ġradio active
S omething
ĠA be
ĠPri x
b ia
st y
Ġch uck
Ġup wards
Ġmer ge
Ġtel escope
Ġenroll ment
c ity
larg est
f alls
H E
com plete
Ġreminis cent
at ured
Ġdepend ency
Ġcha otic
w en
ĠN ike
Ġmamm als
l ia
Ġs ack
Ġwithd rew
ĠEc u
aw ays
K it
ĠT rent
Ġvis ually
Ġto e
Ġall ied
Ġout dated
Ġ24 0
Ġat oms
ĠH erman
ĠE lementary
Ġcost umes
Ġlun ar
Ġvalid ation
Ġar senal
ãģ Ļ
Ġfre ak
Ġre he
Ġdoub les
Ġdisadvant age
Ġe cc
land er
ĠCl are
ĠMoh amed
Ġcontam inated
Ġex terior
ari at
ĠPir ates
Ġveget able
pl atform
Ġrob otic
ĠBris bane
Ġinto x
Ġ19 47
Ġstim ulation
Ġrep airs
AN G
Ġindic ators
verse ly
Ġscreens hot
Ġbrand ed
Ġdownload s
Ġn urt
Ġsurpr ises
H as
Ġpod ium
Ġevac uated
F rench
ĠAli en
Ġext rad
own s
Ġoffs pring
w iki
Ġb ilateral
Ġha iled
ĠAct ive
Ġt apes
P o
ĠT ah
ĠCraw ford
ĠRock ets
ĠCharlott esville
ĠQual ity
ĠCurt is
ng th
c am
Ġcost ing
I ll
ĠS V
ik ipedia
Ġdr ums
ĠC opy
Ġrelent less
B uild
Ġin ad
Ġbomb ings
Ġanarch ist
Ġmod ifications
ign ment
Ġnational s
ĠZimmer man
Ù Ī
Ġp ier
ĠD iff
Ġsever ity
ĠDis covery
l ings
p arents
Ġtransl ates
Ġutil ized
Ġe man
Ġv om
ĠRec ently
ucc i
20 18
R om
Ġtw ins
Ġce ment
Ġembr acing
v ity
w ife
Ġd well
ĠJo in
Ġchar ities
Ġaut op
Ġdecl ines
Ġtrig gers
Ġiron ic
Ġst amps
ĠR ol
Ġrel iance
Ġcur se
st atic
Ġg aze
ĠScient ific
ĠH ag
Ġshel ters
ĠMid west
f ed
Ġst al
ĠF ernand
Ġde ported
,âĢĻ âĢĿ
ĠCitiz en
E nt
I Z
ĠMy ster
Bet ween
ba um
Ġand roid
ident ally
Ġret ros
Ġhun ters
ĠF resh
Ġwar mer
Sub ject
T em
Ult imately
Ġcan cell
æ ľ
Ġfest ivals
ĠP v
Ġacknowled ging
Wind ows
Ġo lig
ĠK ot
Ġnut rients
if ted
Ġfr amed
Ġredu nd
Ġru ins
Ġcruel ty
ĠResp ons
Ġoper a
ien cies
am ic
Ġj ealous
Ġleft ist
c ross
ĠT as
Ġey eb
Jan uary
le aning
Ġcont ributes
ĠHay es
Ġr ack
ĠF lickr
ĠCom ing
Ġdem ise
Res p
Ġc ows
Ġreward ing
Ġairst rikes
Ġt ally
Ġdis se
ĠUs ers
ĠBeat les
R ock
ar ium
F OR
f ired
ort ium
Ġvalid ity
Ġth under
Ġac oust
Ġ11 5
Ġâ ĸ
ple asant
ed in
Ġdeter mines
Ġuns ure
ĠBrend an
ĠN est
J ones
c led
Ġd un
Ġgoal t
Ġvisit or
Ġle aking
ot on
ob ic
over ty
Ġur ine
ĠSim ilar
Ġzomb ies
Ġd os
Ġmark ers
S u
c ulture
Ġtrain er
ĠCelt ics
Ġcease fire
Ġp ensions
ĠD L
ĠWhe eler
ĠObserv atory
ĠTro phy
ĠHon or
ĠBeh ind
it ures
Ġup held
Ġinter val
Ġappoint ments
ĠConserv ation
Ġs ung
Ġpar an
Ġseiz ure
Ġor ph
Ġimp air
oun ge
Ġna ive
D ig
Ġw ires
is ure
Ġsex ist
ĠAm sterdam
m ult
ĠG ul
ĠLe o
ĠLa unch
Ġw anna
Ġblast ed
Ġpo orest
ĠRe ce
10 9
Ġf ra
Ġper tain
ustom ed
ĠSpe cifically
Se ason
Ġadoles c
ĠS end
Ġ- --
Ġforecast s
ĠB og
Ġatt achment
ĠCo ver
More over
Ġcongress man
Ġcos mic
N ick
ĠEx cept
Ġprim itive
ãĥ ³
Ġr im
iv able
Dem ocrats
Ġaster oid
ĠM T
ĠCris is
Ġst d
ri o
sec ure
ĠH ugh
Ġbr ig
Ġins erted
w s
ĠVi enna
ĠW it
ĠL ance
ĠSky pe
D O
f est
Ġmetaph or
Ġle aning
ĠCh arter
Ġdecentral ized
cre ate
our ing
iz a
Ġind o
Ġchar m
Ġbull shit
Val ue
AN K
Ġpo pped
E ver
ĠT ier
ush i
AC A
ĠAud io
ĠF M
ĠPer fect
ĠUs ually
ĠDet ails
t imes
Ġtax ation
Ġpret ending
Ġanticip ation
right s
b ands
ul atory
Ġsex ism
Ġtoss ed
ĠBeng als
Ġemploy s
ĠPerson al
Ġtang ible
ĠW u
Ġ| |
Ġground ed
Ġneuro log
o il
ile aks
Ġsal ad
ĠDam age
M a
ĠG E
ĠPro du
Ġtop s
Islam ic
V ol
ĠSh ot
ĠTer rit
Ġp ulse
ĠW er
Ġdefe ats
Ġh alls
ol ia
IS S
Ġmut ation
B ur
Ġcomp uls
lud es
Ġid ol
N P
V e
Ġrem ed
Ġpast e
Ġ195 9
W estern
Ġprosec ute
Ġs om
Ġineff ective
Ġindirect ly
ĠAn cient
c ro
ĠW ave
Ġviol ates
board ing
Ġmechan ic
Ġfalse ly
Through out
Ġr uth
Ġr ansom
ĠD ell
ans ing
Ġn as
ĠR are
Ġfore front
bor o
Ġcop ied
Ġpredict s
Ġdivor ced
bour g
Ġrelie ved
Ġres olutions
Ġmy riad
Orig inal
Ġl aps
S at
ĠMon ica
def ault
ĠMerc ury
ĠD ot
ĠN er
ĠE asy
Ġ19 39
Ġtur moil
Ġgovern ed
g age
Ġrele vance
Ġair lines
ĠVal ve
Ġhonest y
ĠSav age
ĠN L
Ġsound ing
Ġh ollow
Ġresearch ing
ĠBuzz Feed
Ġrefres hing
k owski
Ġso ber
Ġshoot s
Top ics
Ġperpet rators
Ġ19 42
Ġneed le
Ġreconst ruction
f ocused
ort al
ĠTw enty
Ġjust ices
it ating
Ġaccess ing
Ġfranch ises
Ġindef initely
Ġkidn apped
an ol
Ġd ess
ĠMan afort
Ġconcept ual
ĠH alo
ĠEv ents
200 2
ĠLe Bron
Ġsle pt
Ġnegoti ation
F ederal
S k
Ġac ids
ĠFl oyd
ra red
iss an
Ġcur tain
Ġpal ace
in ters
Ġv ault
P an
Ġun cover
Ġbol ster
it us
Ġjuven ile
ĠM ist
oc hem
ĠSu ccess
Ġaccum ulated
ob ject
Ġrecept ors
ĠN an
ĠO val
Ġsusp end
Ġrein forced
Ġfrag ments
l ate
ĠB oss
ex pl
Ġstreng thening
part isan
Ġhypot hetical
Ġdiscont in
L ee
ĠL ud
ĠE lder
Ġsmooth ly
ĠBald win
B P
ĠZ ucker
Ġresemb les
t ier
on so
ĠÂ ·
Ġs oda
ĠC ork
ĠP ra
ĠCom edy
IN D
ĠAny thing
d oes
ĠCan on
a unch
im an
ĠR S
Ġun a
Ġdom ains
Ġfut ures
t ag
ul ed
ĠO L
ĠAt las
Ġexp ired
Ex p
ĠSol id
Ġash amed
Ġf aint
Ġre jo
,' "
ĠH ogan
Ġj ugg
vention al
ĠC raft
V ict
h ops
ĠT C
ĠR unning
ĠK ub
Ch icago
Ġmerch ants
t ar
ĠHel en
Ġb unk
ĠB ass
IL E
ring ton
Ġjud ging
elect ed
Y ear
Ġcomp ares
em y
Ġgl orious
Ġdepth s
Ġnarrow ly
ĠWhats App
ab we
Ġreal ization
Ġfraud ulent
Ġsign aling
Ġdepend encies
s or
Ġnight club
ĠPart icip
Ġchar ism
ĠCon c
Ġnorth west
C ast
ĠB ened
erv ation
ĠB ast
st ad
ĠS it
Ġmicro bi
c ould
p i
ve red
Ġbad ge
Ġregul ator
Ġprint s
ĠAbb as
Ġcatast rophe
v ideo
Ġheight ened
Ġcompat ibility
ĠÐ ¾
ĠMurd och
ĠInd ividual
Ġsab ot
Ġhop eless
Ġsuper st
J es
Ġte asp
ĠÂ Ĺ
Ġconver ting
Ġcreep y
Ġpe an
be fore
be e
Ġcelebr ations
Ġmel ting
ĠHass an
en ment
ac a
A cc
Ġ ï
A ud
r t
Ġacceler ation
cur rent
Ġt outed
Ġsh arks
Ġmilit ar
ĠJohn s
em a
g ithub
f ight
Ġinter ceptions
Ġspec ulate
Ġfrequ encies
Ġmeaning less
oles ter
Ġnar ratives
ave z
ĠNational s
De ath
Ġs ang
Ġsuscept ible
H am
Ġj oked
Ġ å
il ib
ab ee
imb abwe
Ġv apor
Th ird
ĠFor ward
Ġunique ly
is ans
st ill
Ġcan vas
Ġextract ed
ices ter
Ï ĥ
Ġst acked
els en
ĠMan it
Ġembarrass ment
ul ators
Ġsuper vision
ĠHe ath
ĠSc ore
ĠTechn ologies
Ch inese
ĠEx xon
Ġdest abil
ĠAm anda
Ġind oor
Ġsur geon
Ġcollabor ative
W ow
Ġdimin ished
Ġdisg usting
Ġdom ination
Ġgrab bing
iv o
Ġhe ights
ĠCol onel
Feb ruary
ĠTr ack
abul ary
Ġk in
te chn
// //
Semit ism
h m
ĠV as
Ġretrie ve
Ġpro claim
ĠGe off
ĠSouth west
ĠProf essional
Ã© t
Ġsurround ings
È Ļ
Ġun armed
ret urn
11 1
D eb
Ġfore nsic
Ġvers atile
Further more
Ġsqu at
Ġl ith
ĠCh oice
P ath
Prof essor
ĠB TC
ĠSh ia
12 8
Ġcraft ing
Ġdistract ed
3 60
ĠD LC
rav ity
Ġopio id
C ustom
ĠD ance
S n
ush ima
Ġoverth row
Ġsh iny
Ġcl o
read ing
P rior
ĠO g
Ġposs essions
f act
ch in
Ġperfect ion
B at
ĠH ond
Am azon
Ġeval uating
ĠBudd ha
ĠF ury
Ġco erc
Ġc ant
Ġheter osexual
f ill
ĠV ote
Ġhero ic
È Ľ
ĠR oute
Ġcomp ilation
uff er
Ġoverl ap
ĠSchne ider
B rian
id able
ĠD ocker
Ġsuccess ion
the med
Ġsuper market
Ġhook ed
count ry
Ġg y
Ġon set
ĠK ob
ven ant
ON D
J ew
ĠW ine
Ġcho pped
ĠPir ate
ĠC ord
open h
h ash
ĠS hen
ĠLe ad
Ġv oy
Ġdi agram
ot he
pro ject
Ġyell ed
em ade
Ġprop onents
Ġhon ors
ĠLike wise
ĠB le
ĠMount ains
Ġun ite
Ġdec ay
Ġclean ed
R on
Ð ¹
à ¥
Ġb idding
ĠB irth
ĠK em
et ed
io let
ĠAd obe
Ġnom inations
Ġramp ant
Ġovert urned
ĠLeban ese
Ġst ing
ĠP E
ĠF ans
ĠBl ade
Ġweaken ed
Ġpund its
isc her
ĠPro duction
Ġbi ography
ĠTre vor
ĠC rist
ĠCl aire
ĠIS Ps
Ġg ays
stand ard
ĠDav ies
im portant
Ġdoub ling
ĠIll ust
Ġexch anged
Ġcom r
ĠArch ives
Ġmiser able
st ru
Ġgrant ing
Ġpecul iar
Ġillness es
Ġstake holders
ĠJ ak
Ġd ur
Ġout raged
Ġgl oss
Ġgif ted
he id
he avy
Ġwe ights
Ġobs ess
Ġw olves
ac ial
Ġunder went
Ġgl ow
ĠAr row
Ġland sc
Ġrad i
ĠBer ry
> </
Ġf rog
ĠMar athon
En large
List en
Ġl akes
ĠE R
per ing
M aking
Ġextract ion
ed a
ĠR ise
al ong
ĠD ucks
Ġex ile
qu arter
On line
Ġmit igate
F oot
ĠD uty
ĠStr ategy
ĠCle arly
Ġinqu iries
L ittle
Ġcomment ator
ph oto
ĠMin utes
f iction
Ġret ention
s cient
ĠC ous
Israel i
qu et
ĠJ azeera
Ġsuper natural
ĠEv olution
ĠJS ON
Supp ort
r ance
ĠC anyon
Ġrehab ilitation
qual ified
Â¶ Â¶
ĠF ell
ub s
Ġfr inge
R ather
Ġp anc
ĠDec l
Ġaspir ations
G ov
Ġalign ment
Ġdiplom at
Ġadequ ately
ĠCamb od
Ġrep s
em on
ĠL il
Ġdirect ive
Ġbe aches
En ter
sm all
ĠM TV
Ġcont enders
Ġ 000
Ġ/ *
lant ic
ĠM ead
um bs
ĠJ azz
W ater
ĠS ig
Ġlike wise
Ġbr ass
d in
Ġs outheast
c irc
Ġ10 2
Ġiter ation
Ġlung s
Ġpen cil
Ġunp aid
Ġdest ined
Ġreb ound
Ġwith hold
met ry
Ġm aid
Ġcl one
Ġorganiz er
ig ators
Yes terday
ĠW orth
Ġreg ression
be y
B rad
Ġoper atives
ĠRes ults
Ġstaff er
Ġe ject
ĠRe becca
ĠZ omb
ĠJud a
ĠF REE
ĠV P
Ġlo oming
D ue
r ath
in th
âĢ¦ ]
Ġintr ins
d ue
Ġo z
ĠB ristol
ak is
Ġstuff ed
mark ed
Ġfundra iser
ĠC AP
ĠAR M
Ġcock tail
c f
Ġp ent
Ġch amp
Ġspe cially
ĠP okemon
ĠMon te
ĠMot ion
O ld
C ard
ĠJ ur
de ath
ĠCar p
Ġstat istic
ĠRef uge
Ġshr inking
Ġspat ial
ĠâĢ ķ
Ġbr ace
Ġmortg ages
m ia
st atus
person al
Ġdiscipl inary
ĠCustom s
Ġt in
art icle
Cre ate
J osh
Ġoff ender
Ġsc outing
is ch
ĠN ear
-------- ----
Pr ime
S F
ĠA part
ĠB oot
Ġsell ers
Ġrum or
ĠH uck
ud s
ĠRe ality
ĠMem ory
ĠB orn
ĠDar ren
ris y
Ġsl ap
amb urg
Ġcorrespond ence
ĠSalv ador
ass is
Ġlivest ock
ĠW ald
ĠK oh
Ġprem ie
Ġpir acy
Ġreconc iliation
ĠTr ain
ex per
ĠSy n
Ġprogress ives
ĠPan el
S ky
Ġfall out
Ġpedest rians
au f
Ġdis like
Ġsc andals
Ġ195 6
ĠProtest ant
I r
ĠM Y
ant ine
ĠL akes
Ġphotograp hed
Ġimpe achment
Ġan th
ĠC ertainly
ĠTest ament
Ġscan ning
ĠWag ner
ĠG em
Ġoccur rence
ed ience
ĠD iaz
Ġfilm makers
ĠRel igion
ĠGu inea
Ġmanip ulated
pir acy
Scient ists
Ġcan s
ĠM ate
Ġg room
Ġsc oop
ĠPro secut
Ġho ax
em er
Ġbelie vers
Ġdraft ing
Ġumb rella
Ġblu eprint
ĠIn qu
osp ace
Ġlif elong
T M
Ġch ambers
Ġab normal
Ġanal ogy
Ġpun ched
Ġcompos er
ĠA zer
Â §
ĠK re
Ġmult inational
ĠÐ ¸
ors i
rat t
Ġremark ed
Ġb un
ump ed
ĠAmeric as
Mart in
an an
in j
ĠG ri
ich i
Ġrec urring
ĠM oses
ĠSaf e
ĠKurd istan
ĠM illion
are ndra
Ġcontin uation
ĠMy ers
Ġthe ology
id ate
Ġsett ling
Le vel
I B
ĠS ugar
ĠM int
Ġbur ial
ĠGall up
Ġdisagree ment
c ule
v s
ĠLeg ion
ĠLyn n
h ig
Ġa ka
Ġcl usters
ĠRe ich
Ġbrew eries
Ġstap le
Ġun pleasant
ell i
Ġ10 3
ĠYork er
Eng lish
Ġcr acks
ĠAng ular
Ġd ock
Ġun authorized
omet ric
Ġauthor ization
Ġdictators hip
ic ular
h un
Ġcountry side
ĠRel igious
ĠThrough out
Ġcommun al
L ondon
ĠB il
Ġir rational
Ġintimid ation
ĠBeng al
m or
an mar
ĠZ oo
ĠKit chen
IN K
ĠHam mond
ĠRock et
edd y
M ond
i ya
ors che
ĠCoun sel
Ġpsy chedel
Ġh ats
spe cial
Ġmad ness
o it
Ġp uls
Ġapp les
ĠA FC
ĠF eed
Ġded uct
N early
Ġto mb
Ġsuper star
ari us
ĠDes ert
ic us
ĠS ah
Ġkidn apping
Ġcross es
ett es
Ġbrows ing
ĠEcu ador
ĠW att
ĠPlan ning
Redd it
Ġrep ression
Ġhead phones
Ġdr ills
Ġmilit ias
Ġdisag reed
ĠCl iff
ĠIntern al
ĠAv iv
ĠP TS
ass er
ang ular
Ġ19 17
Ġworth while
Ġver ification
C BC
pl er
ĠN om
Ġsect arian
Ġcoll ar
L ocation
Ġmess y
kins on
Ġcann on
ĠRhod es
ĠR ew
ĠKore ans
c ified
Ġm um
Author ities
Ġdis charge
10 3
Ġunders c
Ġro gue
Every body
B er
â Ĺ
Ġabund ant
Ġturn over
Ġresist ed
ĠFred die
Ġsupp ression
Ġweigh s
ĠRC MP
" );
ĠV ern
Ġch lor
ĠConst itutional
Ġne oc
ĠLaure n
ĠAd mir
Ġconcer ts
im o
It em
ĠStand ing
Ġwor s
Ġneg lected
Ġ195 8
Ġarchitect ural
Ġdis able
ĠRe venue
Ġsal mon
Ġst umbled
ĠCan ucks
Ġhel pless
O pp
Ġunanim ously
S orry
Ġsp ouse
ĠV ita
Ġge ographic
Ġaccident al
p resent
r ice
ĠG C
Ġfore see
Ġo mn
Ġk et
Ġende av
C ould
ĠAnd ers
Ġb ounds
Ġres h
ĠMy anmar
Ġgovernment al
ĠD owntown
ass ed
Ġp ac
ĠP ine
ĠCr us
a verage
ĠN ate
Ġsc out
Ġedit ions
ablish ment
ĠB row
Ġdraw ings
Ġcler k
J UST
P ER
n as
he rence
ĠRest aur
f uel
10 2
Ġimag in
ĠNe o
Ġevac uation
Ġw inger
ĠG olf
ĠQuest ion
T L
w ire
Ġh ug
im ation
gr and
ĠLi u
ĠCor nell
ĠLen in
Ġd ots
Ġind icted
Ġspl ash
Ġbu ys
Ġjudge ment
Ġsurviv or
Ġtherape utic
Ġacc ustomed
Ġback pack
Ġsens ory
ĠProv ince
et r
Ġsub missions
wh y
Ġprohib its
Ġconting ent
Ġcamp ing
Ġener get
Ġreject ing
Start ing
m ails
ĠPl atform
Ġpar ole
Ġparent al
OL L
Ġsuprem acy
A BC
Ġanten na
M ont
ĠG ur
Ġsupp lier
ĠMarx ist
ill as
Ġmed als
ĠInter view
ĠKu wait
ess a
L ess
ĠChurch ill
ĠO C
Ġpo orer
h on
enz ie
Ġprepar ations
ĠZh ang
Ġcongest ion
f ounded
ĠL ar
ĠCh i
ĠLink edIn
Å Ĥ
Ġre op
Ġref resh
Cons ider
Ġ ion
ĠC oy
Ġ10 8
Ġinflamm ation
ĠP am
ĠR aspberry
Ġsystem atically
Ġdig its
ĠUp dated
Ġcar ved
ĠÎ ±
A ri
Ġpro claimed
ĠG iant
Ġdial og
Pr ice
Ġwholes ale
pl aces
ĠCons ult
ĠOrig inally
w ild
ĠH aven
Ġtr ilogy
Sec ret
4 50
st ro
ĠR ating
Ġtrans plant
Un iversity
Ġaccomplish ments
ĠOut side
Ġdismiss al
Ø§ Ø
Ġpersu aded
s afe
ĠW on
Ġapp end
Ġrem edy
in as
ĠB rief
Ġcertific ates
ket ch
orm an
ĠPS N
H H
ig ger
lin er
D ist
m is
rict ed
Ġst oring
Ġest e
Ġchance llor
Ġcommod ities
Ġmon arch
Ġca fe
Ġintermedi ate
v able
us ra
Ġb iblical
Ġplay ground
ĠBar rett
D D
F und
Ġen forcing
ĠV ic
ĠDem s
ific ent
ĠBel fast
ef ined
Ġpoison ing
ĠPun j
Ġdisreg ard
Ġeffic acy
ĠAdd itional
R o
art z
Ġsm oked
Ġexc uses
ĠOff icials
j ah
ĠB ag
ace y
ĠFro st
Ġbe lly
Ġsol itary
Ġinstruct or
m ag
AR S
ĠPsych ology
Ġb aked
Ġconce al
Ġf ried
ĠBut ter
Calif ornia
ĠPh arm
NAS A
og ene
Ġeven ly
Ġprop oses
Ġdesign ation
Ġpolicy makers
Ġspecific ations
Ġ25 6
Sund ay
id ad
ĠBre aking
ĠAr s
B ase
L ight
ast ics
Ġsk ies
ĠGar rett
Ġmaj ors
Ġex h
Ġdisrupt ive
Ġdr astic
Ġgrad ual
Ġske let
Ġf etch
Ġgest ures
C redit
ĠP u
ĠComp anies
Ġarchitect s
priv ate
D F
he ne
cho ice
ĠPeters burg
re ne
Ġaccus ation
Ġkid ney
Ġexpend iture
Ġlear ns
Ġharm ony
Ġcrus hing
Ġgrat itude
Ġz oo
Con nect
Ġg it
ĠSh awn
Ġunt o
Ġign ores
W al
Ġopp oses
ott est
Ġdecor ated
ic idal
Ġsm ashed
udd y
bel ief
Ġs omeday
ĠRe y
pro duction
ee le
Ġforg ive
= ~
s ince
ĠT ool
ĠWar rior
Ġblog gers
ĠFort une
Ġrecy cling
ĠViol ence
ĠBrig ade
ĠNew man
rel igious
ĠCard inal
ĠIndust ries
Ġcyn ical
Ġmisdem eanor
Ġmar vel
Ġant it
ĠNort heast
ang a
Ġtweet ing
Ġre print
Ġdown side
Ġprotest ed
reat ment
Ġprin cess
ĠS onic
Ġtruth s
ĠEll en
ĠIr ving
á ½
Ġrational e
Ġminer als
" ]
Ġbre asts
Ġsouth west
Ġadjust ing
ĠJuda ism
ĠM aid
Ġtr aps
Ġinteract ing
Ġric her
if ax
Ġmed d
ĠJack ie
Î »
ĠN OW
ĠSt am
Ġir responsible
Ġbrand ing
ĠFle et
iv ism
Ġbu cks
St r
Ġdiv isive
umn i
Ġhint ed
J ournal
Ġall erg
Ġ& &
Ġdownload ing
ĠMan ufact
.âĢĿ )
Ġap ost
Ġ 00000000
Ġschedul es
ĠWy oming
d eter
AC H
f ashion
ox ic
Ġinstall ment
Ġunanim ous
educ ated
el o
Ġfair y
Ġunl ocked
p rop
Ġlast s
Ġroll er
Ġindu ce
Ġf ade
Ġproc ure
f ires
or ously
Ġdest iny
Ġb ark
Ġl enders
ĠG amer
Ġlaw maker
Ġ} ;
Ġc ros
Î ¼
Ch arl
ol ation
Ġopp ressed
Ġgar nered
Ġl id
Ġubiqu itous
n n
ĠC E
Ġemer ges
ĠRap ids
W all
Ġstri ve
ãģ £
Ġtub es
Ġaggrav ated
ĠC ert
ĠM R
ĠG ent
Ġrest ruct
eff icient
Ġfant as
Ġswift ly
Ġvill agers
ĠHans en
M R
ĠMah m
Ġcl utch
Ġang el
Ġinnoc ence
ĠLuck ily
Ġsu ing
are l
Ġanim ations
Ġrev olt
Ġdilem ma
ir teen
Ġpl ague
the ir
Ġs ized
sp ot
coh olic
ĠR ising
Ġcirc ulated
d ies
Ġam ple
ĠPer iod
Ġ ï¿½
ĠHe ather
Ġequ als
AT A
ĠG ET
Ġ195 4
ĠJoy ce
Ġfreel ance
Ġresp ir
ger ald
y et
Le ft
ĠCON T
ĠDian e
j ava
u ilt
at z
ĠPrem ium
at ical
ff ff
Ġcomfort ably
Ġthank ful
Ġost ens
. *
th y
Ġimp art
Ġsoc ietal
Ġshoot ers
Ġpol ite
Ġse gregation
Ġmight y
ĠKat ie
osh op
f acebook
M ary
W E
Ġant agon
gress ive
Ġplag ued
I ron
st ant
ĠD y
Ġcirc ulating
ĠSyri ans
Ġth riving
Ġst igma
old own
Ġacclaim ed
Ġplum met
Ġne oliberal
ĠBor is
b ishop
Ġnit rogen
ĠEn joy
Ġexagger ated
b ai
ĠI o
Ġspect acle
Ġgl am
Ġtele com
ĠEconom y
wart z
t ical
Ġund en
Ġver te
Ġpat rons
Ġg el
ĠRay mond
product ive
c p
t urn
Ġd amp
ĠV ir
Pl ayer
t xt
Ġsent iments
Ġinfant ry
N F
Ġrev ive
ĠOs borne
Ġpup ils
pher d
y ll
Ġdem ocrat
ĠSm ash
W ait
Ġfirm ware
Ġlapt ops
Ġt sun
ist ence
Ġmass ively
Ġtelev ised
G T
ĠN PC
Ġper imeter
Donald Trump
ĠZ imbabwe
ĠMe ga
.âĢĻ âĢĻ
Ġtor rent
ĠE ston
Ġcouncil s
f aced
as io
Ġver ge
ĠBur ton
ĠD uc
Ġsh am
Ġsh attered
ãģ ¾
x d
r anking
Ġmem e
Ġcomment ing
Ġwas ting
ĠZ ika
ĠRes earchers
v on
ĠT ag
Ġimp ending
icult ural
Ġearn est
Ġst air
Ġspec ulated
ĠFl ore
n ull
Ġse af
Ġkill ers
Ġt enth
Ġrepl ies
ĠAng lo
Ġb ree
Ġrun time
Ġreprodu ce
Ġculp rit
F un
ĠO UT
Ġform idable
Ġiniti ate
ĠFe el
Ġv ou
ĠHug o
ĠS ans
Ġr ude
Ġplay able
Ġmerch ant
l ain
ru z
Ġhigh s
Ġelev ator
Ġsur real
Ġstub born
Ġwild erness
ap i
ruct ions
ĠEuro pa
Ġaw ake
ĠRh ode
Ġse ated
ĠCom plex
Any way
Ġs aga
Ġmon key
Ġt apping
Ġsu cks
enc ia
" ?
Ġe ch
Ġwho pping
Ġmem br
oy a
ãģ ĭ
Ġmarch ing
Ġrent ed
ĠE cho
Ġdesc ended
w y
ĠMe chan
Ġlog istics
Ġthank ed
U t
ĠT ay
oot er
en h
Ġmer ged
VID IA
Ġro oft
J ason
ĠP ip
Ġcollect or
Ġrenew al
Ġpseud o
ro b
ĠS ikh
ub a
ĠV ers
Ġ7 50
Ġmemo ir
Ġincap able
ment ia
Ġne p
ĠF ighting
Ġsp ider
S ad
Ġm int
ĠS orry
Ġ195 3
Ġgra ffiti
ĠEp ic
Ġscreens hots
sh ort
Ġinad vert
P ak
Ġs or
ru gged
Ġsuccess ive
Ġexpend itures
M ic
at ra
Ġphotograp hers
ĠT umblr
Ġinter ception
ĠSuper ior
Ġreprodu ction
ĠR SS
un ion
Ġdin osaurs
Ġmyth ology
ĠVen us
ĠN arendra
Ġad vertisements
Ġoil s
idel ity
Ġcommer cially
Ġphil anthrop
Ġproport ions
Ġpro let
ĠDur ant
ĠI F
Ġplace bo
s i
ĠN olan
25 5
osoph y
Ġgeomet ry
h awks
Ġw ax
ĠSt ark
ĠPat terson
ĠRock y
ĠCu omo
k t
Ñ ħ
Ġover c
ĠGu ate
ĠP RE
um en
Ġch orus
Ġer r
Pro v
Ex pl
ih il
ab ase
Ne ither
ĠL SU
ass ing
ex isting
Ġgl uten
Ġcompan ions
arr ison
Ġon ion
ĠSebast ian
ill ions
Ġworld view
ĠSant os
et ics
Ġam en
ĠWat ers
ĠPod esta
pict ured
Ġdifferent ial
Ġann ot
Ġspons orship
Ġst alled
Ġ19 43
Ġaffidav it
Ġshort ages
anger ous
ĠOff icers
Ġspeed ing
Ġtransform ing
Ġdis comfort
ĠRep orter
Will iam
ub arak
Ġel bow
Ġchar ming
Ġfasc ist
n umber
ord e
tr ade
Ġcampaign ed
ĠHig her
ĠSp ark
real DonaldTrump
Ġlabel ing
Ġl iable
Ġal ias
ous se
Ġalleg iance
ĠS aid
Ġaffili ation
Mus ic
B on
ĠS ina
Ġsm ash
Ġref rain
Ġ195 7
ĠA CA
ĠP ierce
Ġloud ly
) [
ĠM ental
ĠCh in
Ġcelebr ates
Ġadvert isers
r Ã©
Ġp act
Ġcl oses
ĠBra ves
ĠHar old
ĠGu jar
Ġpath ways
ĠJac obs
Austral ia
Ġfor ged
ĠW ong
iv or
Ġinj unction
yr us
Ġcrack ing
Ġaver ages
Ð ¿
ĠC ros
Will iams
ĠGard ner
N umber
Ġexplo its
{ "
ĠS ize
Ġen cl
cript ions
qu in
aw k
Ġreg istry
ĠBl ocked
Ġpredec essors
ĠNep al
Ġde gr
ĠIs is
Sec urity
Ġpe as
Ġ10 6
me aning
ĠStrateg ic
g io
ĠD re
( $
ĠCongress man
Ġcontinu ity
ĠF ail
ĠG ut
Ġexist ential
Ġsurg ical
Ġw aking
al ine
Ġl amp
ĠMar ijuana
Ġcl ay
ĠSe vent
Ġdepart ed
Ġy a
Ġsh ining
In side
Ġdr ift
Ġprovoc ative
she et
Ġdepict ing
Ġprolifer ation
Ġar ises
hen ko
ik ed
Ġtest osterone
Ġeleph ants
Ġa rom
Ġm ansion
ĠO T
Ġbur ger
Ġreserv ations
Ġm esh
ĠG addafi
ĠJ ail
affe ine
n om
alk er
ĠAl ban
ĠK ur
Ġgood bye
Ġstr ongh
Ġpop e
Ġappl ause
Ġsimpl est
Ġchick ens
Ġhe mp
ĠAndrew s
ĠV ander
gl obal
Ġpiv otal
p ensive
Ġsp ine
Ġdem ons
ON G
Ġm aternal
ĠAl bum
Ġsl ate
17 0
Ġdisc rep
Ġexcept ionally
Ġge op
ot le
Ġsw ear
P y
ĠHe in
Ġdeep est
che wan
Ġjurisd ictions
ĠLab s
ĠWrit ing
F X
Ġre play
ĠR i
Ġpo ke
ĠCom bat
ĠMarket ing
Ġinc ub
vid ia
het ics
r ue
Ġn ud
ĠA id
ĠCol bert
Ġdevelopment al
Ar ch
Ã± a
Ġgard ens
Ġundergrad uate
ĠV oy
ĠSy nd
Ġstri ps
Ġpr ince
ĠCong o
Step hen
h in
ĠD NS
ĠRE AD
Ġwork load
ij i
Ġsad ness
ĠElect oral
Ġinfect ious
l ang
ĠUlt ra
Ġ19 55
ĠSh ut
Ġrent s
ong o
Mem bers
G ET
Ġal ley
Ġrem ake
Ġcoun ters
Cont ent
ĠH our
Ġco hes
Ġinter vals
ĠNe igh
ĠPed ro
IS IS
ĠMult i
ĠW enger
ĠU AE
ĠIn come
ĠKir by
openh agen
ĠChrist ine
Ġaccum ulation
ĠF actory
cent ric
Ġdev ote
auc as
Ġserv ant
s end
Ġir regular
Ġb aff
act ly
d ain
ĠMed al
its u
Ġharass ed
ĠN W
Ġret iring
Go vern
t aking
Ġc ough
com pet
Ġper former
com b
Ġatroc ities
Ġf al
ĠMel issa
Serv ice
Ġtr unk
ĠAr ist
ĠPer u
Ã Ł
Ġgoal ie
IC S
Con nor
ut ory
ĠSt yle
ĠT yson
Ġgrab s
Ġmic row
Ġburg l
f at
ĠP owers
ron ics
Ġske leton
ĠStock holm
Ġm as
ent on
10 7
ig i
t arians
be ck
at ri
es que
Ġcl an
att a
gener al
Ġsubsid y
it ant
Ġrem n
10 6
Ġund o
ĠInspect or
ĠMin ority
EM A
hy d
ï¼ Į
utter stock
c reat
m oon
ĠBrad ford
ĠMoh ammad
iol a
ĠBay ern
Ġ10 9
Ġess ays
Reg ardless
whe el
t im
Ġx en
Ġhal ted
Ġhypoc risy
ĠDrag ons
cl air
Ġadvert ised
ĠChap man
C ore
Ġ10 7
Ġmedic ines
Ġbo il
Ġlif es
ĠD ifferent
ĠJohn ston
Ġpet ty
Ġfor c
Ġrul ers
Ġbigot ry
Ġbl ues
Ġguess ing
b ons
ĠL anka
ĠCh avez
Ġtend encies
sole te
ĠNic olas
cr ime
b order
t arget
Ġrem oves
post s
ĠCelt ic
ĠT IME
Ġwhere by
Ġsit uated
ott a
Ġfire works
og ram
ĠLes lie
Pal est
ĠRoc hester
rain e
pro ved
ĠCal vin
ĠA ce
Ġinc arn
sc ill
cap ital
o i
Ġs ou
Ġm ans
threat ening
ĠS ara
ĠP av
ĠRep ly
gu y
ĠE z
Ġgener als
Ġenvelop e
M essage
Ġdisproportion ately
ĠBuddh ism
ĠJo an
re lease
ĠR ole
Ġconflic ting
Ġp ads
ĠB om
ĠFuk ushima
H en
M aster
Ġd itch
ĠW ILL
ĠTh ing
Ġcor related
ĠA AA
ĠP retty
ci um
Ġphenomen al
T s
Å Ł
ody nam
c uts
tt a
Ġmut ations
olester ol
Ġexpl ores
Ġr app
ĠU E
ew orthy
Ġtrans cend
p sych
Ġo ri
Ãĥ ÃĤ
B usiness
l ove
ĠList en
Ġsh ale
Ġexpl ode
Ġlau ndering
Ġconf essed
âĢ¦ "
u ously
man ned
Ġche at
ĠPre p
an amo
ĠCharl eston
ĠNob le
Ġpolit ic
Ġspecial ty
Ġpair ing
ĠFe atures
Ġassess ing
Ġpil gr
z an
Ġsc ans
Ġremember ing
Ġphilos ophers
ĠSt ur
Ġexecut ing
Ġboard ing
Ġstation ed
Ġpestic ides
W orks
ĠC oul
ĠP resent
Ġun identified
go ogle
ran ch
Ġt abs
oh an
bo at
Ġpharm ac
Ġbod ily
Ġnep hew
Ġinject ed
Gl obal
ad ic
Ġpo pping
Ġur ges
Ġinex pensive
Intern ational
Ġtoug hest
c oll
w on
ĠS ettings
Ġext inct
com merce
lling ton
Ġl akh
ĠP oor
ĠLe icester
Ġsl ope
ĠSh ir
Tr ue
Ġrespect ful
am my
Ġout we
ĠRes istance
Ġgen res
ĠBlack Berry
Ġo v
Ġf ier
Ġg ospel
ĠW id
Ġun official
Ġmis ery
Ġ13 5
c amera
ĠL un
te enth
r itional
ĠJ ab
Ġnew born
10 8
Ġl ure
ĠE manuel
Ġlim itation
Ġconsult ed
Ã ¯
Ġst ain
ĠDet ective
ĠSex ual
Ġox id
her ty
ĠOrig in
Ð ±
Ġspec s
as per
Ġrest oring
Ġconc ussion
st ed
ĠT SA
ĠR NA
Ġrun way
ĠRel ated
ĠMour inho
å ħ
ĠOs ama
ĠCre ated
ĠF X
Ġem ission
th ose
Ġunder mining
ĠC aucus
ĠH oney
Ġch unks
ĠN iet
Ġsmugg ling
ĠC W
ĠCamer a
ĠRoy als
ĠPop ular
ĠEug ene
ĠP rest
ĠD ocument
Ġper t
Ġdisc ern
Ġcommun ism
Ġk ings
ĠHe b
com mittee
Ġtempor al
p osition
Ġe lic
å ¤
ak o
inc re
Ġunivers ally
ĠAp ache
se ys
ĠD EA
Ġmail ing
ĠLind sey
Ġimp aired
ĠRec ent
Ġbr akes
B ad
E conom
ag netic
Ġ19 49
13 5
j ournal
U k
Ġco herent
Ġspecific ation
Ġneighbour ing
Ġins iders
Ġprofound ly
at hing
il o
Ġbr ink
Ġsle w
ym es
Ġauthent icity
il ot
Ġpl ight
ĠCh icken
Ġconfig ured
ĠH av
Ġ19 46
Ġmar itime
ik ers
o ji
ĠAm nesty
Ġprol ific
our cing
ia o
Ġrob bed
ĠDis play
s kin
ĠWh ole
ern ick
K now
Ġpro w
Ġpack ing
OU ND
T en
c ano
19 99
ĠOb server
ĠMad uro
T I
d ependent
ĠSh annon
Ġtot als
E ast
ç ļ
UC K
Ġinsurg ents
ĠJ P
Ġdi ets
ĠTre nd
en o
ĠG erald
ĠSh ore
ĠSch war
ĠArch ive
ĠHung arian
Y S
ĠP orsche
Ġgr ains
ĠAss ass
Ġdecre ases
Ġt iles
Ġc ues
ud o
ĠAn kara
Ġhit ter
Ġveget arian
Ġseiz ures
Ġa we
Ġpl ac
Ġincarcer ation
Ġpractition ers
Ġjud iciary
ĠLie utenant
en ary
ag ent
Ġvill ains
ĠC ultural
el in
Ġbl oom
ĠBened ict
ĠD B
ĠTor res
Ġpuzz les
c z
Ġrestrain t
C oll
ĠW yn
11 2
Ġbur nt
Ġesp ionage
op ia
Ġinv aded
EN S
ric ks
ĠID F
k top
ĠP izza
Ġhands ome
g ering
ĠD OM
Ġst all
Ġfam ed
ĠUnder ground
ber ries
gl ass
Ġdecre asing
A ction
Ġrul er
AR R
uss y
ĠConst ruction
rent ice
sh are
Ġbub bles
Semit ic
act ivity
Ġinc idence
Ġd Ã©
ct ica
ĠAv iation
ĠT W
ĠF en
Ġcomp ression
w omen
id as
ud get
any e
Ġsil icon
=~ =~
W ed
m ith
Ġtr act
ĠRe in
ĠSc out
k ick
ĠM AN
Ġlaw ful
Ġv ow
Sen ator
ir ling
ra vel
Ġge ography
ĠOpp osition
Ġinflamm atory
Ä «
Ġs ins
Ġde port
Ġexhib ited
D ark
ĠB T
Com ment
Ġpump ing
Ġcler gy
Ġal erted
li able
Ġpref ers
Ġcondemn ation
ĠF argo
OS S
is man
ĠI PA
Ġcher ry
Ġat om
ĠAn s
... ]
Ġtra umatic
Ġp oker
Ġper il
Ġhes itate
asket ball
ĠFull er
Ġby te
Ġsur rog
Ġgl owing
r ag
ing es
Ġpass er
ĠAst ron
Ġinsult ing
Ġmot ors
Ġdict ate
Ġam azed
ĠLe eds
Ġfemin ine
E st
ĠC OU
Ġd as
Ġfin anced
Ġpreced ing
m ot
Ġsl iding
ET A
ĠC ain
Ġincorrect ly
o os
Ġhorm ones
Ġdemol ition
Ġfront ier
Ġsuper f
Ġbud dy
Ġ( #
od ore
Ġge ek
Ġbacter ial
ĠIb rahim
ĠD S
Ġd op
ĠL B
Ġmis represent
Ġgig antic
Ġins ign
H appy
ar is
Ġco ached
ĠG ru
Ġ19 18
ĠChar acter
Ġhe ap
ĠP P
Ġhall uc
G Hz
Ġsp ur
Ġob ese
ott i
Ġcounsel ing
p ires
Ġarbit ration
Ġjihad ists
Ġm ocked
Ġex pelled
Ġrecons ider
Ġgun fire
ĠD HS
ĠLic ense
Ġs ulf
ĠTe en
Ġcris p
ĠG ust
Ġinv asive
ĠD raw
iv ities
Ġbra ke
Ġtheoret ically
Ġcommem or
S ystem
Ġs lick
Ġl ent
av ier
Ġ195 2
Ġch ased
Ġsw all
w agen
ĠLiber tarian
Ġrail road
ĠZe lda
ĠRevolution ary
l ists
z ip
ĠSol utions
ĠR id
Can adian
Ġnic otine
Ġc ove
Go vernment
f ig
ĠS ke
ĠÐ º
ÃĥÃĤ ÃĥÃĤ
ĠM ale
Ġyear ly
st own
ĠUn block
Ġfo am
Ġhe x
Ġwh ip
Ġ15 00
Ġregul ating
Ġflood s
Ã± o
Ġpatri ot
Never theless
ĠP itt
Ġund ec
Ġscore r
ĠPengu ins
d rive
Ġch illing
pr us
ĠMed ium
og o
ĠJoh ann
G G
ĠD uck
Ġun aff
ĠAs ked
St and
for ces
AN C
C arl
F ort
ĠGree ks
ĠKey stone
ar us
ĠT ucker
Go ing
Ġrest s
IC A
ĠFitz gerald
ĠAthlet ic
acc ount
Ġsynt hes
ĠPatri ot
m oney
Ġc it
if ts
ĠF ri
ĠHell o
s al
Ġh amm
Ġout doors
man agement
olic y
Ġbl ink
m t
Ġle v
Ġair ing
Ġtom atoes
a ude
Ġimp uls
rend ered
P ack
Ne ill
Orig inally
E arth
P rop
Ġp ains
ĠS leep
Ġlim bs
ĠL uk
ĠWe ight
az ingly
Ġimper fect
l aughs
com pl
Ġh ottest
ĠSant orum
Ġadmin ister
ĠP ale
Pre vious
ĠW rite
Ġs ir
ĠField s
Ġs unk
Ġfort unes
ĠIS O
ugg er
Ġs arc
Ġsal v
Ġconstruct ive
at ts
Ġworks hops
Ġnotor iously
j son
Ġoptim ized
ĠS R
Ġmand ated
Ġh ates
ĠW itch
ĠE VER
E ff
oc ating
ĠValent ine
ĠD iana
Ġbus h
Ġhist ories
Ġinstall ations
ĠC openhagen
IG N
ĠVict ory
Ġjewel ry
ĠK ol
Ġpol ished
Ã¡ s
fil m
am oto
Ġsm iles
ms on
if ty
ĠBar on
Ġâ ī
ĠInt o
Ġexperiment ing
, ,
or st
Ġhe ars
ĠCh ang
Ġexp ire
Ġwheel chair
Ġ iv
Ġsp un
Ġpart nered
Ġread ings
Ġritual s
ĠInn ovation
P riv
IS H
Ġste er
Ġdescend ants
ĠJan et
To o
Ġunre asonable
ĠK od
Ġconf ess
Ġfil ib
Ġfront s
ĠGuant anamo
Ġc emetery
ĠGreen e
Ġdiscrimin atory
T aking
n ick
Ġfat ally
Ġrestrict ive
Ġplug ins
ĠJav ascript
Ġis t
Ġsort ed
ld on
ĠL TE
Ġnow adays
Ġstart ling
ĠCom ments
ĠEth ics
S ean
Ġ2 30
Ġad am
ign ant
Des ign
Ġecosystem s
ĠR ash
but ton
ĠV PN
Ġperson a
Ġdefense man
Ġrock y
Ġvisual s
Ġtum or
st re
ĠBill board
ĠSer bia
mod el
Ġqu ir
Ġno od
ĠÂ ĸ
ĠRes cue
C ost
tle ment
ĠSh arks
f orth
Ġrac ially
Ġs acked
nt on
ĠShort ly
r aining
ib o
Ġgr ammar
ĠBay lor
Ġguitar ist
Ġd ictionary
ne eded
Ġpr aying
i very
ĠCom put
Ġkind ness
Ġz ip
T ell
Ġf ixture
Ġdistur bed
ĠResp onse
Ġinstinct s
is y
Ġplanet ary
Ġouts iders
ig ated
Ġemploy ing
Ġbi om
Ġrain fall
in ness
ĠP ool
ĠN issan
Ġmon uments
LA Y
Ġinv oked
Ġsl ash
Ġrese ar
ĠTechn ical
uper t
T B
ur ai
ĠM oy
ĠD ogs
udd le
ĠExt ra
Ġd ar
Ġpro se
Ġplant ing
uc ing
Ġfulf illing
l n
Ġecl ipse
ĠGujar at
ext reme
Ġsand wic
ĠCustom er
L oad
z h
Ġf aded
ier i
ĠNot ice
Ġrum ored
Ġexplo iting
ĠNic ole
it ious
Ġun available
ĠAl v
r ar
Ġs inking
ĠC oc
Ġ19 33
ĠLaw s
ĠFr aser
Ġmetab olic
L uc
Ġt issues
Ġstat ues
Ġlos ers
l ated
all ic
Ġtri angle
ĠInf o
Event ually
Ġoverr ide
Ġacoust ic
Ġsmok ers
ĠA WS
ĠV C
ĠLe h
Ġeth ic
ĠBul gar
Ġd urable
Fr ance
F lor
Ġl ocking
let cher
Ġdistribut ing
Ġpen insula
Ġn ap
. /
F ast
ĠG IF
hib ition
OL D
e on
ist ration
ĠTw ilight
Ġrat ios
Ġan ts
ĠI CC
ĠB end
Ġwas t
ĠSt rat
ĠFranc o
ĠÃ ¢
ĠPR O
Ġmanifest o
Ġincomp at
Ġdiscour age
Ġwith stand
Ġbl onde
Bl ock
Sim ilarly
not es
Sen ate
ĠH os
Ġlong standing
reg ulation
c ool
ar ations
Ġr av
Ġb apt
ĠR ena
Ġun in
Ġret ali
che t
Ġdeploy ing
ĠOper a
d ark
ble ms
Ġleg ends
St ay
ĠLam ar
ĠC V
ĠR OM
Å «
en f
Ġmod s
ĠSaskat chewan
d uty
âĸĪâĸĪ âĸĪâĸĪ
Ġmillenn ials
Ġsy rup
ĠSh arp
Ġer osion
Ġdatas et
Ġnostal gia
e a
Ġra ided
ÑĤ Ð¾
Ġcancell ation
R a
f ell
Ġw ishing
uck land
ĠIss ue
Ġs igh
ĠD ear
os lav
app a
att led
ĠAb original
Ġopen ness
ĠWill ie
Ġvan ished
Ġpump ed
ĠManit oba
Ġconfig ure
Ġschizophren ia
Ġrespir atory
Ġgrand children
m ove
ver ts
Ġst ared
ĠN igel
ĠShe ikh
Ġf ox
ov y
L P
AR C
Ġcentral ized
Ġp ant
Ġreal izes
ĠHam mer
ĠAN Y
Ġyouth s
ĠSad ly
oss ip
go ers
f inals
st en
Ġsub set
Ġgl ue
ĠMar riage
Ġastron omers
Ġmim ic
Ġquest s
Ġindic ations
Ġe ve
Ġsim ulations
Ġobject ed
Ġcommercial s
bro ken
ide press
Ġframe works
j ad
Ġd ental
Ġori ented
d an
ĠWe ber
ĠIndones ian
ĠM ubarak
Ġpack et
Ġspont aneous
ĠLiqu id
Ġp ins
ĠFront ier
en za
Ġimm ers
bur se
Ġmunicipal ities
Ġvib e
Ġl ord
Ġr abbit
Ġnot ions
Ġdec omp
oh yd
Ġcontrad iction
d ates
ĠL ac
ĠNew ark
Ġprinc ip
k ish
ĠIs n
cl ose
ĠEx pect
Ġlaund ry
ows hip
ĠMcC oy
Ġlect ures
ĠM Hz
and ro
Ġcompet ed
Ġtermin ated
Cle arly
od us
IN S
Ġtrig gering
rec ogn
Ġnot ify
ĠAl leg
F riend
M ajor
Ġprep ares
yr r
en ame
vel ength
Ġther m
Ġy en
oc ese
ob il
ĠFinn ish
ĠAdvis ory
umb les
Ġsat ir
i ago
Ġproceed ing
ĠN D
Ġf erry
Ġg ast
get own
app le
Ġblock ade
Ġsid eline
ĠFreder ick
N R
e ast
ur istic
ĠO dd
ĠVol ks
g ic
Ġt ac
Ġf uzz
ess im
so ld
Ġmotiv ations
Com ments
ĠL is
Ġsummon ed
orn ings
Ġprogress ed
Ġvacc ination
Ġt earing
ĠUn cle
Ġdefin ite
Ġarm ored
Ġorganiz ational
Ġinterpret ations
ĠL ok
ĠBron x
Ġblat ant
c ats
Ġstr anded
ĠNon etheless
ĠGro ve
Ġb ully
Ġtest ament
Ġconserv atism
ĠStand ards
Ġgentle man
ĠFly ers
Ġcontrace ption
ĠMig uel
T it
x imately
Ù ĩ
Th ursday
ĠAud i
J udge
Ġf eder
Ġfl ipped
ys ics
Ġmoist ure
ĠI E
ish i
Ġdem ographics
Ġtrail ing
Ġsplit ting
ep ernick
Ġcon ve
Ġmet ropolitan
Ġcoll usion
Ġclar ified
Ġelev ation
Ġstrengthen ed
ĠW ool
just ed
Ġdiss atisf
Ġentit lement
ld om
Ġjud gments
ĠAv ailable
ut sche
Ġenerget ic
! ),
l ide
ĠH ash
Ġboost ing
ĠBlock chain
w i
ĠW AS
Ġthink ers
im i
ĠPh ase
Ġimpl ication
ĠH ang
reg ulated
Ġhom emade
Ġt ipped
am bo
ĠCh art
ĠY ORK
Ġbl ur
Ġlik ing
Ġguess ed
Short ly
AN N
Ġunle ashed
an alysis
16 8
Ġparent ing
Ġrevers al
ilib rium
i ating
ĠCamp us
ĠMic key
Ġarc ade
medi ately
Ġsqu ares
Oh io
Ġpenet ration
Ġpost ure
Ġur l
Ġinsist ence
ess ment
Ġpar cel
ĠTon ight
ĠA ber
Ġresist ing
Ġoblig ed
ut z
ĠB ug
och ond
Ġtermin ation
Ġaut obi
ĠWATCH ED
Ġabrupt ly
- $
A I
ĠP om
Ġbeh old
ĠLiber ation
Ġdownt urn
Ġexc luding
ĠPhilipp ine
Ġ17 5
Ġrum ours
Res earch
German y
ĠF ry
ĠWhe never
Ã© n
Ġcyber security
Ġw izard
ĠPre vious
ĠN R
ĠCanad iens
Ġstandard ized
r anked
Ġexerc ising
Ġrot ating
ĠChem ical
ĠRe qu
Ġunexpected ly
Ġpossess ing
ĠSol o
Ġdrag ging
Ġhe fty
ĠW ash
Ġun ins
ĠIv anka
ĠS ally
ĠL enn
ru ce
Ġill umin
Ġtext ures
Ġreject s
Bre aking
Ġsupp lements
Ġearthqu akes
Ġpass ages
ĠHann ah
ĠB ike
Ġbal ances
ĠAzer bai
Ġde mentia
ĠH ank
Ġchall enger
Ġright eous
Ġfr iction
ĠDecl aration
Ġgener ators
Ġschedul ing
6 50
ĠB olt
ĠTe ams
rac use
ĠInterest ingly
ĠClint ons
Ġtsun ami
¡ Â°
Ġsc outs
Ġdecl ares
ĠNAS CAR
bel ie
AT T
ĠArmen ian
Ġa isle
Ġde ception
est ablished
ĺ ħ
Ġs ocket
ĠA W
us ually
Ġyield ed
Ġpione er
M rs
Ġimag inary
c u
ĠC ed
ĠK ris
ĠFr ances
Ġuns pe
ĠHard y
ĠSec urities
17 5
Ġtun ing
ĠJagu ars
Ġhold ings
Ġlo ops
ĠQuest ions
Ġday light
Ġcart oons
Co in
ĠSor os
Ġoun ce
Ġdwar f
Ġle isure
Ġelect rons
Or gan
Ġpir ate
Ġimp over
Ġnarc iss
z ero
Ġas semble
Ġper vasive
ĠRut gers
Mond ay
Ġev id
Ġend urance
Ġdisp atched
ĠF usion
Ġ12 3
Ġ) :
Ġcollabor ate
F E
Ġw aving
.. ...
ĠDe V
c ip
Ġm und
Ġethnic ity
ĠAur ora
iov ascular
Ġe in
Ġfun nel
ĠWi Fi
Ã «
Ġexecut ions
ra ven
per cent
Ġsynt hesis
N eed
k an
l b
Mod el
ĠAna heim
g ot
ĠAr ms
Ġvis ions
Ġceremon ies
Ġsubpo ena
Ġbe verage
our ced
ĠCy cling
L im
he a
in ion
Ġdisc arded
Ġvers a
L ow
f ind
Ġmel ted
ĠPhys ical
ĠM alt
Ġunder mined
Ġsacrific es
F re
Ġre write
ĠB oulder
ĠE ld
Ġmon keys
Ġce ased
Ġsem if
Ġjoint ly
Ġinspect ors
Ġcum ulative
ĠFernand o
Ġk idding
ĠPro blem
Ġsin ister
ĠP ure
ĠAll ied
Ġd ynasty
Ġcos m
mans hip
Ġad here
ĠB rom
Ġse ating
ĠZion ist
Ġvoc abulary
ĠAntar ctica
ĠT ank
ĠR andom
Ġch assis
rap er
Ġdom est
ĠSol omon
ĠStephan ie
Ġcollect ors
AM A
ĠSl ow
Ġrehe ars
ar ray
ĠL iz
ron ting
Ġprop s
ĠH ers
ĠR um
Ġswing ing
çļ Ħ
Ġsp rawling
vis ors
Ġfulf illed
per fect
ĠTr inity
Ġrespect able
Ġbroadcast s
Ġobst ruction
D er
ass es
Ġhigh ways
ĠGod s
Ġconsult ants
Ġgate way
Ġjihad ist
Ġsubst it
Ġgrand parents
' ;
ĠD ew
ĠE ther
Ġbet s
ĠW elcome
Ġtempt ed
Ġto re
ĠHas kell
bet ween
M T
Ġretain ing
Ġth ieves
Ġdiff ers
Ġhome work
ĠUg anda
ĠC ec
ĠF AA
Ġcirc uits
Ġf ills
ag her
OT H
M id
ff ield
Ġ19 36
ĠCont ract
Ã§ Ã£o
ĠCrit ics
ĠHoff man
ĠM au
ĠH ull
ĠG n
Ġout going
99 9
ALL Y
ĠMotor ola
Ġd wind
ĠR anch
ĠRe ason
Ġfil ings
Ġincons ist
b oot
e ight
ĠK abul
uck ing
ĠMult iple
C ase
c orn
ang ling
ĠLu cy
ĠD as
Ġstat utory
state ment
ĠAny way
ĠÏ Ħ
ĠL if
ev il
ĠÃ® n
ĠF ah
Act ually
H ad
Ġsk et
Ġre im
se ven
ĠPer th
Ġassist ing
Ġundert ake
Ġun used
ĠIran ians
ĠBur ger
Ġmelt down
ic z
ĠA ch
Ġcon quer
Ġpres crib
Ġaw ait
v ine
ĠDon ovan
Ġmis guided
ĠSw ord
fashion ed
Ġexcell ence
ĠÍ ¡Â°
ĠP ill
Ġplaint iff
Ġgo ogle
ĠCom mercial
aj a
Ġlab s
Ġscrut in
ĠOpp ortun
Ġalph abet
ĠP ixel
ĠMon roe
S ex
b c
re ally
ather ing
ĠMy th
ĠKaz akh
M O
t ails
Sc roll
Ġtele communications
Ġslog ans
Ġex ert
ĠDani els
Ġrot ate
ĠT ow
ĠBe e
Ġmon st
Ġtransfer ring
Ġheavy weight
Ġdiscount s
Ġf oes
Ġrestrict ing
ĠSub ject
ĠZucker berg
Ġbl itz
Ġcor ro
d ocument
Ġc apped
r il
ĠPat ric
E ight
ac iÃ³n
I K
ĠR ate
ĠMar tha
ĠSy racuse
Ġstress ful
od o
Ġutil izing
Ġundert aking
Ġdisgr ace
EC D
Ġin mate
ur ations
Ġlive lihood
Ġdi ary
Ġstim ulate
Japan ese
it imate
ov sky
ĠSc and
ĠCy prus
ĠPubl ishing
l oss
Ġext ras
Sar ah
ĠR d
Ġ19 0
Qu ick
Ġimpress ions
Ġslic es
Ġp enny
ĠA gg
Ġrel iably
e us
ĠV on
ĠR iot
Ġz u
M oney
Ġe up
ne xt
Ġens uing
Ġpip elines
m ode
oll s
Ġprop het
Ġmod ular
ĠPh antom
Writ ten
ĠS ed
ĠMan ila
p ent
ĠMon itor
G er
Ġcomp ute
Ġhur ry
ĠSpot ify
ĠApp lication
ĠS z
ĠSh ap
Ġlinem an
R od
Ġext r
ĠTam il
bet ter
ĠCous ins
ĠHuck abee
V an
are th
Ġpun ches
Ġfasc ism
us r
Ġarm our
Ġoversee ing
Ġsepar ating
ĠRa q
Ġn ause
ĠR as
Ġun healthy
Ġgun shot
Ġpossess es
Ġescal ation
Ġa ided
Ġf als
raft ed
s aving
w yn
Ġwor m
ach ine
c hens
ĠI X
out heastern
Ġshow down
Ġgrad uating
pat rick
Ġt ones
av ia
Ġob solete
cl oud
Ġburd ens
ocaly ptic
m aid
ĠD in
Ġbar bar
ser ies
Ġmush rooms
Ġc ush
Ġre written
[...]
