{"<|endoftext|>":0,"!":1,"\"":2,"#":3,"$":4,"%":5,"&":6,"'":7,"(":8,")":9,"*":10,"+":11,",":12,"-":13,".":14,"/":15,"0":16,"1":17,"2":18,"3":19,"4":20,"5":21,"6":22,"7":23,"8":24,"9":25,":":26,";":27,"<":28,"=":29,">":30,"?":31,"@":32,"A":33,"B":34,"C":35,"D":36,"E":37,"F":38,"G":39,"H":40,"I":41,"J":42,"K":43,"L":44,"M":45,"N":46,"O":47,"P":48,"Q":49,"R":50,"S":51,"T":52,"U":53,"V":54,"W":55,"X":56,"Y":57,"Z":58,"[":59,"\\":60,"]":61,"^":62,"_":63,"`":64,"a":65,"b":66,"c":67,"d":68,"e":69,"f":70,"g":71,"h":72,"i":73,"j":74,"k":75,"l":76,"m":77,"n":78,"o":79,"p":80,"q":81,"r":82,"s":83,"t":84,"u":85,"v":86,"w":87,"x":88,"y":89,"z":90,"{":91,"|":92,"}":93,"~":94,"¡":95,"¢":96,"£":97,"¤":98,"¥":99,"¦":100,"§":101,"¨":102,"©":103,"ª":104,"«":105,"¬":106,"®":107,"¯":108,"°":109,"±":110,"²":111,"³":112,"´":113,"µ":114,"¶":115,"·":116,"¸":117,"¹":118,"º":119,"»":120,"¼":121,"½":122,"¾":123,"¿":124,"À":125,"Á":126,"Â":127,"Ã":128,"Ä":129,"Å":130,"Æ":131,"Ç":132,"È":133,"É":134,"Ê":135,"Ë":136,"Ì":137,"Í":138,"Î":139,"Ï":140,"Ð":141,"Ñ":142,"Ò":143,"Ó":144,"Ô":145,"Õ":146,"Ö":147,"×":148,"Ø":149,"Ù":150,"Ú":151,"Û":152,"Ü":153,"Ý":154,"Þ":155,"ß":156,"à":157,"á":158,"â":159,"ã":160,"ä":161,"å":162,"æ":163,"ç":164,"è":165,"é":166,"ê":167,"ë":168,"ì":169,"í":170,"î":171,"ï":172,"ð":173,"ñ":174,"ò":175,"ó":176,"ô":177,"õ":178,"ö":179,"÷":180,"ø":181,"ù":182,"ú":183,"û":184,"ü":185,"ý":186,"þ":187,"ÿ":188,"Ā":189,"ā":190,"Ă":191,"ă":192,"Ą":193,"ą":194,"Ć":195,"ć":196,"Ĉ":197,"ĉ":198,"Ċ":199,"ċ":200,"Č":201,"č":202,"Ď":203,"ď":204,"Đ":205,"đ":206,"Ē":207,"ē":208,"Ĕ":209,"ĕ":210,"Ė":211,"ė":212,"Ę":213,"ę":214,"Ě":215,"ě":216,"Ĝ":217,"ĝ":218,"Ğ":219,"ğ":220,"Ġ":221,"ġ":222,"Ģ":223,"ģ":224,"Ĥ":225,"ĥ":226,"Ħ":227,"ħ":228,"Ĩ":229,"ĩ":230,"Ī":231,"ī":232,"Ĭ":233,"ĭ":234,"Į":235,"į":236,"İ":237,"ı":238,"Ĳ":239,"ĳ":240,"Ĵ":241,"ĵ":242,"Ķ":243,"ķ":244,"ĸ":245,"Ĺ":246,"ĺ":247,"Ļ":248,"ļ":249,"Ľ":250,"ľ":251,"Ŀ":252,"ŀ":253,"Ł":254,"ł":255,"Ń":256,"Ġt":257,"Ġa":258,"he":259,"in":260,"re":261,"Ġthe":262,"on":263,"er":264,"Ġs":265,"Ġw":266,"at":267,"Ġo":268,"en":269,"Ġc":270,"it":271,"is":272,"an":273,"or":274,"Ġb":275,"es":276,"ed":277,"Ġf":278,"ing":279,"Ġp":280,"ou":281,"Ġan":282,"al":283,"Ġto":284,"ar":285,"Ġm":286,"Ġin":287,"Ġof":288,"Ġd":289,"Ġh":290,"as":291,"âĢ":292,"ic":293,"Ġand":294,"Ġth":295,"le":296,"om":297,"ion":298,"ll":299,"ent":300,"Ġn":301,"Ġl":302,"Ġre":303,"st":304,"ve":305,"ly":306,"Ġe":307,"ro":308,"Ġbe":309,"Ġg":310,"id":311,"ut":312,"ac":313,"ot":314,"ĠT":315,"ĠI":316,"Ġthat":317,"Ġon":318,"ay":319,"ĠS":320,"Ġis":321,"et":322,"im":323,"am":324,"ad":325,"ow":326,"ig":327,"se":328,"Ġfor":329,"âĢĻ":330,"ĠA":331,"ver":332,"ur":333,"ct":334,"ld":335,"ĠC":336,"Ġu":337,"Ġst":338,"Ġy":339,"Ġit":340,"Ġhe":341,"ir":342,"ation":343,"ith":344,"Ġwh":345,"ĠM":346,"ce":347,"ter":348,"ol":349,"Ġwe":350,"il":351,"Ġwith":352,"Ġas":353,"ĠB":354,"ch":355,"ill":356,"nd":357,"ĠP":358,"Ġwas":359,"ers":360,"Ġyou":361,"ke":362,"ĠâĢ":363,"Ġcon":364,"Ġde":365,"Ġr":366,"her":367,"if":368,"ate":369,"Ġat":370,"ag":371,"Ġha":372,"ĠW":373,"Ġse":374,"ĠH":375,"ore":376,"Ġpro":377,"ul":378,"pp":379,"ment":380,"ri":381,"Ġare":382,"ĠD":383,"est":384,"us":385,"Ġ1":386,"Ġcom":387,"ist":388,"and":389,"ĠR":390,"op":391,"ain":392,"ĠThe":393,"Ġ2":394,"igh":395,"rom":396,"Ġ(":397,"ort":398,"od":399,"Ġne":400,"ĠF":401,"un":402,"um":403,"Ġex":404,"res":405,"ab":406,"âĢĿ":407,"Ġnot":408,"Ġv":409,"ĠN":410,"Ġhave":411,"ess":412,"ity":413,"ould":414,"em":415,"Ġor":416,"th":417,"Ġby":418,"os":419,"ant":420,"ĠG":421,"ive":422,"Ġfrom":423,"Ġal":424,"el":425,"'s":426,"oc":427,"art":428,"Ġsu":429,"ĠL":430,"Ġsh":431,"Ġthis":432,"nt":433,"qu":434,"ight":435,"pe":436,"ust":437,"Ġle":438,"ĠE":439,"ies":440,"end":441,"Ġch":442,"Ġsa":443,"out":444,"Ġab":445,"The":446,"all":447,"ie":448,"ack":449,"00":450,"red":451,"ĠâĢľ":452,"Ġhas":453,"ally":454,"ĠJ":455,"Ġpl":456,"Ġgo":457,"ard":458,"iv":459,"ome":460,"Ġhis":461,"ap":462,"ost":463,"gh":464,"ear":465,"ĠO":466,"our":467,"Ġtr":468,"ast":469,"Ġj":470,"ak":471,"ud":472,"Ġdo":473,"Ġthey":474,"Ġbut":475,"Ġwor":476,"Ġcan":477,"rou":478,"Ġwill":479,"ge":480,"Ġsaid":481,"Ġwhe":482,"ĠU":483,"ich":484,"Ġk":485,"ok":486,"Ġall":487,"Ġ\"":488,"Ġwho":489,"ide":490,"Ġint":491,"ame":492,"ther":493,"ans":494,"ial":495,"Ġout":496,"ff":497,"Ġtheir":498,"ong":499,"ect":500,"pl":501,"ice":502,"pt":503,"ure":504,"age":505,"Ġmore":506,"one":507,"act":508,"ions":509,"Ġme":510,"ike":511,"Ġup":512,"ous":513,"ine":514,"Ġad":515,"Ġabout":516,"ra":517,"ated":518,"ber":519,"Ġone":520,"Ġwere":521,"og":522,"Ġso":523,"Ġus":524,"ime":525,"ep":526,"ĠK":527,"Ġhad":528,"are":529,"ub":530,"ia":531,"cc":532,"Ġwould":533,"Ġ20":534,"Ġcl":535,"Ġim":536,"ind":537,"Ġwhich":538,"ake":539,"ue":540,"iz":541,"very":542,"Ġcont":543,"Ġag":544,"Ġte":545,"Ġoff":546,"Ġcomp":547,"Ġbeen":548,"ĠSt":549,"Ġun":550,"so":551,"Ġen":552,"per":553,"ign":554,"au":555,"ĠTh":556,"ary":557,"ace":558,"ip":559,"Ġyear":560,"ew":561,"Ġlike":562,"ere":563,"ven":564,"ook":565,"Ġinc":566,"ays":567,"Ġman":568,"Ġpe":569,"ry":570,"ose":571,"Ġres":572,"Ġper":573,"ite":574,"able":575,"ord":576,"ass":577,"Ġsp":578,"ire":579,"ĠIn":580,"Ġother":581,"mer":582,"Ġsome":583,"ile":584,"ib":585,"ence":586,"ople":587,"Ġ201":588,"ks":589,"ical":590,"Ġover":591,"ations":592,"Ġthere":593,"ress":594,"ult":595,"Ġdis":596,"own":597,"int":598,"Ġnew":599,"Ġalso":600,"Ġar":601,"Ġthan":602,"Ġbec":603,"Ġthem":604,"ance":605,"ru":606,"ount":607,"ough":608,"Ġapp":609,"port":610,"Ġpart":611,"ail":612,"Ġyour":613,"Ġwhen":614,"Ġwhat":615,"ree":616,"ond":617,"orm":618,"Ġpeople":619,"Ġsc":620,"fter":621,"Ġqu":622,"ase":623,"av":624,"ĠCh":625,"Ġjust":626,"Ġany":627,"ĠY":628,"Ġits":629,"Ġtime":630,"ach":631,"ĠIt":632,"Ġkn":633,"Ġher":634,"ens":635,"Ġmy":636,"lic":637,"Ġrec":638,"Ġ3":639,"Ġget":640,"reat":641,"Ġif":642,"ĠV":643,".âĢĿ":644,"ian":645,"Ġinto":646,"Ġwork":647,"ound":648,"irst":649,"Ġtw":650,"vel":651,"ction":652,"Ġno":653,"du":654,"ings":655,"ory":656,"Ġour":657,"ick":658,"ition":659,"ident":660,"ors":661,"ob":662,"Ġpre":663,"Ġplay":664,"ove":665,"ang":666,"Ġ-":667,"ink":668,"ause":669,"wn":670,"te":671,"ade":672,"hing":673,"ates":674,"ark":675,"amp":676,"Ġshe":677,"Ġro":678,"Ġpol":679,"Ġco":680,"vers":681,",âĢĿ":682,"Ġafter":683,"ne":684,"Ġcould":685,"Ġfirst":686,"Ġhow":687,"ĠHe":688,"Ġ19":689,"ious":690,"Ġacc":691,"nder":692,"aw":693,"ild":694,"ons":695,"Ġhim":696,"'t":697,"Ġpo":698,"Ġatt":699,"Ġonly":700,"Ġfe":701,"..":702,"ict":703,"hed":704,"Ġpr":705,"Ġtwo":706,"ov":707,"rit":708,"ish":709,"Ġspe":710,"âĢľ":711,"Ġcomm":712,"form":713,"Ġact":714,"we":715,"Ġbl":716,"ft":717,"erv":718,".\"":719,"Ġbet":720,"Ġdec":721,"ning":722,"Ġback":723,"ces":724,"Ġmost":725,"ood":726,"ck":727,"ĠâĢĵ":728,"Ġam":729,"iff":730,"oy":731,"Ġdid":732,"rough":733,"ater":734,"round":735,"Ġagain":736,"Ġ4":737,"ual":738,"day":739,"Ġwant":740,"ise":741,"Ġunder":742,"Ġdes":743,"ull":744,"sel":745,"Ġcons":746,"Ġbecause":747,"Ġnow":748,"lud":749,"man":750,"Ġyears":751,"ĠâĢĶ":752,"ents":753,"ublic":754,"tern":755,"ec":756,"Ġneed":757,"Ġeven":758,"iss":759,"Ġinv":760,"ĠWe":761,"Ġknow":762,"Ġ$":763,"Ġsee":764,"ments":765,"ting":766,"Ġadd":767,"ced":768,"old":769,"Ġind":770,",\"":771,"Ġsec":772,"fore":773,"Ġevery":774,"uch":775,"urn":776,"Ġ5":777,"Ġsupp":778,"Ġmake":779,"pect":780,"ock":781,"Ġthese":782,"ĠUn":783,"Ġem":784,"oll":785,"Ġwhere":786,"ject":787,"In":788,"ational":789,"xt":790,"vern":791,"Ġbu":792,"Ġlook":793,"Th":794,"oss":795,"ĠAnd":796,"Ġdon":797,"Ġev":798,"Ġway":799,"ating":800,"ump":801,"Ġrem":802,"Ġbeing":803,"Ġright":804,"row":805,"ily":806,"lect":807,"Ġmay":808,"ng":809,"Ġthen":810,"Ġmany":811,"iew":812,"Ġdiff":813,"Ġrel":814,"Ġdef":815,"ason":816,"ĠBut":817,"Ġcall":818,"ased":819,"Ġthink":820,"ont":821,"aking":822,"ied":823,"ĠTr":824,"les":825,"Ġinclud":826,"meric":827,"Ġreg":828,"Ġimp":829,").":830,"ath":831,"ited":832,"rib":833,"Ġthrough":834,"Ġshould":835,"Ġ[":836,"ell":837,"Ġsy":838,"Ġpres":839,"Ġsay":840,"uring":841,"Ġthose":842,"Ġvery":843,"ower":844,"ty":845,"Ġfl":846,"Ġlast":847,"other":848,"Ġmuch":849,"ific":850,"ĠThis":851,"Ġstate":852,"Ġshow":853,"ities":854,"tle":855,"ative":856,"ss":857,"hen":858,"Ġbr":859,"arg":860,"Ġwell":861,"oth":862,"als":863,"Ġph":864,"ĠWh":865,"Ġdown":866,"Ġcount":867,"--":868,"und":869,"Ġ200":870,"Ġdoes":871,"ics":872,"Ġown":873,"Ġuse":874,"Ġbel":875,"arly":876,"Ġend":877,"Ġass":878,"ange":879,"ts":880,"ĠAmeric":881,"ters":882,"Ġlong":883,"Ġbefore":884,"ince":885,"omet":886,"ward":887,"gr":888,"Ġgovern":889,"Ġmon":890,"ible":891,"up":892,"Ġreport":893,"Ġstart":894,"Ġke":895,"ues":896,"ĠNew":897,"Ġfin":898,"Ġteam":899,"ble":900,"olog":901,"ife":902,"Ġmade":903,"ren":904,"Ġsuch":905,"ener":906,"erson":907,"),":908,"oun":909,"ix":910,"ism":911,"com":912,"ility":913,"lp":914,"Ġgoing":915,"ek":916,"Ġsm":917,"Ġworld":918,"ists":919,"ful":920,"ually":921,"âĢĶ":922,"Ġstud":923,"Ġgood":924,"Ġac":925,"It":926,"tain":927,"Ġeff":928,"Ġsub":929,"Ġgame":930,"Ġsur":931,"Ġagainst":932,"Ġset":933,"ork":934,"Ġgu":935,"its":936,"Ġpoint":937,"Ġ6":938,"Ġent":939,"ys":940,"ars":941,"gan":942,"li":943,"Ġstill":944,"stem":945,"Ġprov":946,"roup":947,"Ġwhile":948,"Ġhelp":949,"Ġlead":950,"illion":951,"000":952,"Ġob":953,"Ġmin":954,"cy":955,"ef":956,"ank":957,"imes":958,"alk":959,"ax":960,"ween":961,"ms":962,"Ġsays":963,"Ġprodu":964,"Ġgr":965,"cess":966,"Ġsim":967,"Ġinter":968,"Ġinst":969,"Ġstr":970,"Ġcol":971,"io":972,"Ġtake":973,"Ġconf":974,"self":975,"arch":976,"ures":977,"Ġsame":978,"Ġthough":979,"Ġdiffere":980,"ever":981,"Ġoffic":982,"Ġcr":983,"Ġbetween":984,"ah":985,"ool":986,"ollow":987,"ution":988,"uss":989,"Ġdisc":990,"air":991,"Ġop":992,"Ġhigh":993,"read":994,"ĠRe":995,"land":996,"Ġsign":997,"Ġlaw":998,"way":999,"gg":1000,"Ġed":1001,"Ġnum":1002,"ames":1003,"ner":1004,"Ġgovernment":1005,"hip":1006,"hes":1007,"led":1008,"atch":1009,"cent":1010,"any":1011,"Ġsomet":1012,"Ġter":1013,"velop":1014,"ted":1015,"We":1016,"Ġins":1017,"ten":1018,"Ġref":1019,"Ġrun":1020,"Ġtrans":1021,"Ġser":1022,"Ġfound":1023,"ives":1024,"Ġaround":1025,"ather":1026,"ave":1027,"Ġhere":1028,"Ġthree":1029,"Ġmed":1030,"Ġmem":1031,"Ġreal":1032,"Ġused":1033,"oot":1034,"ouse":1035,"ved":1036,"Ġexp":1037,"ci":1038,"Ġ10":1039,"ĠYou":1040,"cept":1041,"az":1042,"Ġreally":1043,"Ġsystem":1044,"ving":1045,"con":1046,"Ġsupport":1047,"Ġmod":1048,"ĠAr":1049,"Ġgroup":1050,"Ġ7":1051,"cer":1052,"ins":1053,"Ġcour":1054,"ets":1055,"ale":1056,"Ġhand":1057,"Ġpublic":1058,"Ġret":1059,"Ġspec":1060,"ying":1061,"ĠLe":1062,"pr":1063,"Ġgreat":1064,"ton":1065,"Ġcur":1066,"irect":1067,"Ġext":1068,"ense":1069,"Ġcar":1070,"alth":1071,"Ġwom":1072,"Ġfam":1073,"ĠIs":1074,"ĠCom":1075,"Ġfact":1076,"Ġfr":1077,"ĠTrump":1078,".[":1079,"Ġhapp":1080,"Ġexper":1081,"Ġday":1082,"ĠThey":1083,"ph":1084,"Ġfind":1085,"Ġcap":1086,"Ġboth":1087,"uth":1088,"Ġread":1089,"ĠAl":1090,"ular":1091,"Ġlit":1092,"oh":1093,"Ġrep":1094,"Ġdet":1095,"ines":1096,"Ġsl":1097,"ĠSh":1098,"ices":1099,"Ġduring":1100,"ĠAs":1101,"ered":1102,"Ġcre":1103,"akes":1104,"Ġbig":1105,"Ġdevelop":1106,"ision":1107,"the":1108,"min":1109,"Ġperson":1110,"Ġtold":1111,"Ġmonth":1112,"Ġ8":1113,"ex":1114,"ĠCl":1115,"Ġfollow":1116,"Ġsince":1117,"ared":1118,"Ġserv":1119,"Ġiss":1120,"ically":1121,"ages":1122,"Ġ0":1123,"Ġweek":1124,"Ġfew":1125,"med":1126,"Ġwar":1127,"ording":1128,"Ġpolit":1129,"Ġcent":1130,"ivers":1131,"orth":1132,"ash":1133,"ves":1134,"Ġleg":1135,"aj":1136,"get":1137,"Ġexpl":1138,"Ġlot":1139,"ĠSe":1140,"Ġbelie":1141,"Ġgener":1142,"ric":1143,"Ġtoo":1144,"Ġopp":1145,"der":1146,"rent":1147,"Wh":1148,"Ġrequ":1149,"Ġprot":1150,"Ġcontin":1151,"Ġ9":1152,"anc":1153,"iet":1154,"ata":1155,"ention":1156,"bers":1157,"Ġfil":1158,"ized":1159,"Ġput":1160,"Ġcle":1161,"Ġresp":1162,"ness":1163,"Ġanother":1164,"Ġsomething":1165,"ĠIf":1166,"Ġinf":1167,"Ġdifferent":1168,"chool":1169,"ĠDe":1170,"ute":1171,"Ġloc":1172,"20":1173,"Ġinvest":1174,"Ġsoc":1175,"Ġcor":1176,"Ġche":1177,"Ġpower":1178,"uc":1179,"Ġhead":1180,"Ġpass":1181,"ience":1182,"Ġcommun":1183,"Ġrele":1184,"ĠFr":1185,"Ġart":1186,"Ġlife":1187,"ox":1188,"Ġfar":1189,"Ġmet":1190,"thing":1191,"Ġvot":1192,"ody":1193,"Ġplan":1194,"Ġcamp":1195,"Ġthings":1196,"ned":1197,"Ġposs":1198,"ants":1199,"This":1200,"erest":1201,"Ġ'":1202,"Ġmight":1203,"ier":1204,"arge":1205,"ross":1206,"Ġask":1207,"ize":1208,"view":1209,"Ġdep":1210,"Ġeach":1211,"Ġchild":1212,"Ġnever":1213,"iness":1214,"ik":1215,"ĠAn":1216,"Ġnext":1217,"Ġmark":1218,"Ġsecond":1219,"Ġquest":1220,"ield":1221,"Ġdem":1222,"ĠFor":1223,"Ġadv":1224,"Ġcome":1225,"ient":1226,"Ġgot":1227,"Ġbus":1228,"Ġbest":1229,"Ġ.":1230,"ital":1231,"tt":1232,"Ġopen":1233,"ĠThat":1234,"Ġallow":1235,"ĠâĢĺ":1236,"Ġseem":1237,"ĠUS":1238,"rat":1239,"Ġpost":1240,"Ġfeel":1241,"nce":1242,"Ġpercent":1243,"ĠPro":1244,"ple":1245,"gram":1246,"cl":1247,"Ġpri":1248,"Ġincre":1249,"Ġdirect":1250,"Ġhome":1251,"ug":1252,"ired":1253,"Ġdist":1254,"son":1255,"Ġcontro":1256,"ĠRep":1257,"osed":1258,"Ġresult":1259,"orn":1260,"Ġhard":1261,"less":1262,"ately":1263,"Ġcomple":1264,"chn":1265,"Ġplace":1266,"Ġcare":1267,"Ġimport":1268,"Ġav":1269,"conom":1270,"Ġinform":1271,"Ġincluding":1272,"Ġwithout":1273,"Ġhum":1274,"Ġmillion":1275,"ama":1276,"Ġproble":1277,"Ġide":1278,"Ġbuild":1279,"ĠBl":1280,"Ġtop":1281,"aim":1282,"gy":1283,"oney":1284,"Ġnumber":1285,"Ġcountry":1286,"ral":1287,"Ġgl":1288,"Ġstand":1289,"ret":1290,"uro":1291,"riend":1292,"co":1293,"ably":1294,"ished":1295,"Ġel":1296,"Ġfour":1297,"Ġbetter":1298,"ways":1299,"Ġpartic":1300,"Ġmov":1301,"Ġrecent":1302,"Ġtri":1303,"ration":1304,"Ġinterest":1305,"But":1306,"Ġless":1307,"Ġlet":1308,"Ġlittle":1309,"Ġseason":1310,"ead":1311,"line":1312,"Ġturn":1313,"Ġbeh":1314,"10":1315,"Ġappro":1316,"Ġbro":1317,"ract":1318,"Ġcase":1319,"ling":1320,"ised":1321,"Ġcalled":1322,"app":1323,"Ġmil":1324,"ency":1325,"Ġdr":1326,"Ġattack":1327,"Ġrest":1328,"Ġleft":1329,"Ġpop":1330,"Ġann":1331,"ĠZ":1332,"ĠThere":1333,"Ġmove":1334,"Ġdidn":1335,"Ġkeep":1336,"ina":1337,"Ġfull":1338,"Ġfun":1339,"ĠInd":1340,"Ġmain":1341,"ode":1342,"ering":1343,"be":1344,"Ġeffect":1345,"me":1346,"ajor":1347,"Ġtest":1348,"inal":1349,"leg":1350,"Ġusing":1351,"Ġprev":1352,"Ġprogram":1353,"ature":1354,"Ġval":1355,"to":1356,"Ġpay":1357,"Ġear":1358,"Ġpolice":1359,"Ġeconom":1360,"Ġwrit":1361,"Ġnews":1362,"Ġwin":1363,"Ġform":1364,"Ġpos":1365,"Ġsit":1366,"ĠAmerican":1367,"Ġdata":1368,"Ġlevel":1369,"ology":1370,"ined":1371,"iving":1372,"Ġchar":1373,"ains":1374,"ready":1375,"Ġsmall":1376,"Ġlist":1377,"rap":1378,"He":1379,"uck":1380,"Ġeas":1381,"Ġwomen":1382,"Ġschool":1383,"mit":1384,"ided":1385,"ger":1386,"'re":1387,"__":1388,"Ġprocess":1389,"Ġchange":1390,"Ġcurrent":1391,"ird":1392,"Ġhist":1393,"ploy":1394,"reen":1395,"Ġdri":1396,"Ġprom":1397,"used":1398,"Ġpresident":1399,"Ġcompany":1400,"ians":1401,"ĠSo":1402,"ohn":1403,"Ġrece":1404,"Ġalready":1405,"Ġmat":1406,"ĠUnited":1407,"wit":1408,"Ġty":1409,"ruct":1410,"Ġwhy":1411,"Ġbre":1412,"Ġexpect":1413,"Ġunt":1414,"ĠHow":1415,"Ġmoney":1416,"Ġsol":1417,"Ġtechn":1418,"Ġlater":1419,"ĠOb":1420,"Ġalways":1421,"ron":1422,"ĠShe":1423,"Ġbook":1424,"Ġofficial":1425,"ĠQ":1426,"stand":1427,"Ġbusiness":1428,"aign":1429,"Ġproject":1430,"ĠPh":1431,"Ġbo":1432,"Ġthing":1433,"Ġorgan":1434,"ases":1435,"Ġclass":1436,"Ġclaim":1437,"Ġinformation":1438,"Ġtalk":1439,"iversity":1440,"...":1441,"Ġable":1442,"aff":1443,"Ġjob":1444,"ards":1445,"Ġchang":1446,"Ġrese":1447,"lection":1448,"Ġdesign":1449,"Ġprof":1450,"Ġvis":1451,"Ġmajor":1452,"Ġfree":1453,"Ġstory":1454,"iven":1455,"urs":1456,"ĠBe":1457,"ĠCan":1458,"ertain":1459,"Ġhealth":1460,"Ġpast":1461,"Ġ--":1462,"here":1463,"Ġoper":1464,"ior":1465,"Ġmust":1466,"Ġaway":1467,"ĠAd":1468,"Ġcity":1469,"outh":1470,"Ġsk":1471,"ample":1472,"sc":1473,"uthor":1474,"ption":1475,"rist":1476,"ural":1477,"Ġimportant":1478,"Ġhappen":1479,"Ġkill":1480,"Ġpat":1481,"acy":1482,"ured":1483,"Ġgrow":1484,"ury":1485,"Ġ18":1486,"Ġold":1487,"ending":1488,"Ġleast":1489,"urity":1490,"Ġdoesn":1491,"ission":1492,"Ġest":1493,"Ġvar":1494,"ained":1495,"Ġcost":1496,"Ġ=":1497,"ides":1498,"ney":1499,"Ġmen":1500,"Ġcampaign":1501,"Ġconst":1502,"ĠGo":1503,"Ġhop":1504,"Ġtell":1505,"St":1506,"els":1507,"side":1508,"Ġ12":1509,"Ġdays":1510,"Ġstre":1511,"Ġcame":1512,"âĢ¦":1513,"ider":1514,"Ġedit":1515,"Ġaff":1516,"Ġenough":1517,"resident":1518,"ĠMar":1519,"Ġview":1520,"Ġmaking":1521,"oad":1522,"Ġkind":1523,"50":1524,"ern":1525,"ccess":1526,"eral":1527,"Ġrecord":1528,"Ġlarge":1529,"ĠSp":1530,"Ġmar":1531,"ush":1532,"Ġfriend":1533,"Ġfamily":1534,"ley":1535,"Ġelect":1536,"by":1537,"Ġpolic":1538,"Ġtax":1539,"ator":1540,"Ġpolitical":1541,"As":1542,"Ġvide":1543,"ality":1544,"ising":1545,"Ġuntil":1546,"ified":1547,"pped":1548,"ived":1549,"arent":1550,"ror":1551,"Ġdeb":1552,"ee":1553,"Ġdeal":1554,"ional":1555,"----":1556,"augh":1557,"alf":1558,"Ġworking":1559,"If":1560,"ries":1561,"ĠJohn":1562,"bs":1563,"ĠRepublic":1564,"Ġtook":1565,"ane":1566,"ued":1567,"Ġline":1568,"ister":1569,"aining":1570,"Ġve":1571,"Ġes":1572,"Ġair":1573,"11":1574,"Ġactually":1575,"Ġmean":1576,"Ġbecome":1577,"Ġfore":1578,"ĠPl":1579,"ocrat":1580,"Ġintern":1581,"ember":1582,"iol":1583,"aps":1584,"ony":1585,"ware":1586,"work":1587,"Ġoften":1588,"Ġgive":1589,"Ġfund":1590,"ĠSc":1591,"ott":1592,"Ġaccording":1593,"ann":1594,"Ġever":1595,"Ġformer":1596,"Ġwon":1597,"ĠEuro":1598,"Ġgames":1599,"oint":1600,"most":1601,"year":1602,"aring":1603,"wh":1604,"eng":1605,"Ġword":1606,"ization":1607,"Ġtimes":1608,"Ġname":1609,"Ġhuman":1610,"Ġreturn":1611,"Ġbas":1612,"Ġorder":1613,"Ġbit":1614,"gin":1615,"Ġdev":1616,"ĠDem":1617,"19":1618,"ĠRuss":1619,"iqu":1620,"ĠAll":1621,"Ġpar":1622,"Ġperform":1623,"ison":1624,"Ġmarket":1625,"uture":1626,"ĠMc":1627,"raft":1628,"Ġsing":1629,"for":1630,"Ġsever":1631,"Ġ199":1632,"ĠSy":1633,"Ġwr":1634,"icle":1635,"ĠAt":1636,"There":1637,"ither":1638,"ĠCon":1639,"Ġdoing":1640,"ĠOr":1641,"Ġcharac":1642,"rop":1643,"Ġappear":1644,"Ġfac":1645,"idd":1646,"sh":1647,"aken":1648,"mber":1649,"Ġnight":1650,"Ġplayers":1651,"ched":1652,"ĠMay":1653,"Ġtoday":1654,"Ġra":1655,"Ġla":1656,"Ġlear":1657,"Ġearly":1658,"Ġhaving":1659,"Ġseen":1660,"Ġpot":1661,"Ġsocial":1662,"Ġevent":1663,"Ġcrit":1664,"Ġmedia":1665,"ER":1666,"Ġ15":1667,"Ġchildren":1668,"ĠPresident":1669,"artment":1670,"idence":1671,"Ġwhether":1672,"//":1673,"Ġmeet":1674,"ene":1675,"Ġcontrol":1676,"iously":1677,"Ġsure":1678,"Ġwent":1679,"Ġseveral":1680,"Ġpress":1681,"Ġprop":1682,"Ġfive":1683,"ats":1684,"Ġquestion":1685,"Ġequ":1686,"Ġwater":1687,"Ġyoung":1688,"ĠYork":1689,"ories":1690,"une":1691,"ium":1692,"Ġocc":1693,"Ġmilit":1694,"ots":1695,"br":1696,"Ġlikely":1697,"Ġexample":1698,"ands":1699,"Ġcertain":1700,"Ġmembers":1701,"Ġdone":1702,"iver":1703,"Ġarg":1704,"Ġant":1705,"Ġside":1706,"ĠCol":1707,"Ġvers":1708,"ĠStates":1709,"Ġshort":1710,"Ġeng":1711,"let":1712,"Ġinvol":1713,"ĠMr":1714,"enn":1715,"Ġsuccess":1716,"ential":1717,"Ġalong":1718,"ended":1719,"ball":1720,"ĠEurope":1721,"empt":1722,"vert":1723,"ially":1724,"Ġhour":1725,"lf":1726,"And":1727,"12":1728,"Ġfight":1729,"ague":1730,"Ġsex":1731,"Ġactiv":1732,"Ġ,":1733,"ster":1734,"Ġwithin":1735,"Ġdesc":1736,"ĠObama":1737,"ubl":1738,"Ġcourse":1739,"Ġmonths":1740,"uff":1741,"iting":1742,"Ġonce":1743,"ulation":1744,"Ġfuture":1745,"Ġinvestig":1746,"ĠOn":1747,"Ġamong":1748,"rew":1749,"nect":1750,"Ġunderstand":1751,"Ġauthor":1752,"ortun":1753,"ourn":1754,"Ġpossible":1755,"ggest":1756,"urch":1757,"ĠBr":1758,"Ġcho":1759,"Ġconcer":1760,"Ġthought":1761,"Ġmeans":1762,"imate":1763,"Ġproblem":1764,"Ġknown":1765,"ĠCar":1766,"Ġavail":1767,"itive":1768,"Ġviol":1769,"Ġpriv":1770,"gress":1771,"my":1772,"ones":1773,"Ġ11":1774,"ler":1775,"Ġproduct":1776,"ĠNo":1777,"Ġprotect":1778,"oci":1779,"ivid":1780,"Ġyet":1781,"ald":1782,"Ġacross":1783,"Ġmakes":1784,"Ġnon":1785,"Ġfail":1786,"Ġhold":1787,"Ġlocal":1788,"ĠTe":1789,"Ġsuggest":1790,"Ġcommunity":1791,"Ġreason":1792,"âĢĵ":1793,"inc":1794,"ederal":1795,"ĠWhen":1796,"Ġ]":1797,"ĠState":1798,"back":1799,"Ġ&":1800,"You":1801,"por":1802,"not":1803,"Ġorig":1804,"verage":1805,"Ġmus":1806,"Ġasked":1807,"Ġ2016":1808,"ensive":1809,"Ġothers":1810,"Ġgiven":1811,"Ġreported":1812,"Ġbelieve":1813,"Ġlight":1814,"Ġvideo":1815,"orld":1816,"aged":1817,"book":1818,"iber":1819,"Ġstrong":1820,"Ġgetting":1821,"Ġprob":1822,"Ġben":1823,"ances":1824,"ober":1825,"ĠHouse":1826,"itions":1827,"Ġannoun":1828,"Ġident":1829,"iron":1830,"Ġca":1831,"ored":1832,"Ġlim":1833,"Ġ30":1834,"Ġsent":1835,"Ġi":1836,"ĠCo":1837,"iety":1838,"Ġsour":1839,"30":1840,"ĠChrist":1841,"Ġcreat":1842,"ashing":1843,"ams":1844,"ĠUniversity":1845,"urther":1846,"Ġcut":1847,".,":1848,"Ġcond":1849,"'ve":1850,"ament":1851,"Ġnet":1852,"arm":1853,"Ġland":1854,"Ġclose":1855,"Ġbat":1856,"Ġnational":1857,"Ġsaf":1858,"Ġindust":1859,"Ġstarted":1860,"For":1861,"Ġavailable":1862,"ĠMin":1863,"Ġaccount":1864,"Ġdeath":1865,"resent":1866,"Ġbased":1867,"Ġhig":1868,"Ġlow":1869,"of":1870,"aster":1871,"ĠDemocrat":1872,"Ġfollowing":1873,"use":1874,"Ġhistory":1875,"Ġparty":1876,"Ġissue":1877,"ĠCent":1878,"Ġlove":1879,"orts":1880,"rest":1881,"Ġmom":1882,"Ġ2015":1883,"ĠX":1884,"selves":1885,"ument":1886,"Ġago":1887,"utes":1888,"ability":1889,"Ġtrying":1890,"Ġcomes":1891,"Ġemploy":1892,"pro":1893,"gether":1894,"Ġtogether":1895,"ination":1896,"hers":1897,"Ġalmost":1898,"Ġfoc":1899,"ĠAm":1900,"uly":1901,"ĠFl":1902,"eb":1903,"ĠAmerica":1904,"Ġidea":1905,"reed":1906,"Ġaccess":1907,"Ġseries":1908,"Ġcommit":1909,"ief":1910,"ilar":1911,"AT":1912,"ĠSen":1913,"ails":1914,"Ġtrad":1915,"Ġclear":1916,"Ġpract":1917,"Ġisn":1918,"Ġimpro":1919,"itional":1920,"ĠOne":1921,"Ġ#":1922,"rael":1923,"Ġ16":1924,"ĠWhat":1925,"Ġadded":1926,"though":1927,"ĠBro":1928,"Ġexperience":1929,"unch":1930,"witter":1931,"Ġhit":1932,"15":1933,"erence":1934,"ustom":1935,"Ġhalf":1936,"inton":1937,"af":1938,"ged":1939,"Ġ2014":1940,"Ġfilm":1941,"Ġlooking":1942,"Ġrul":1943,"Ġanything":1944,"ograp":1945,"Ġanal":1946,"Ġsix":1947,"ring":1948,"Ġmiss":1949,"ividual":1950,"Ġlive":1951,"Ġcomplete":1952,"Ġarea":1953,"Ġfav":1954,"raw":1955,"Ġris":1956,"ai":1957,"minist":1958,"ĠComm":1959,"Ġsaying":1960,"rict":1961,"ĠEx":1962,"Ġpresent":1963,"nes":1964,"ote":1965,"aid":1966,"ĠCanad":1967,"erman":1968,"cially":1969,"ev":1970,"Ġbad":1971,"ĠEng":1972,"rug":1973,"uge":1974,"Ġaut":1975,"Ġtaken":1976,"Ġvict":1977,"ĠPr":1978,"Ġcourt":1979,"ert":1980,"ĠTo":1981,"Ġbill":1982,"Ġcompet":1983,"Ġphot":1984,"ators":1985,"ows":1986,"Ġentire":1987,"Ġbehind":1988,"play":1989,"Ġtry":1990,"What":1991,"'m":1992,"Ġnear":1993,"Ġz":1994,"ien":1995,"wards":1996,"ĠPol":1997,"IN":1998,"Ġproper":1999,"Ġtre":2000,"Ġface":2001,"Ġmult":2002,"Ġmor":2003,"Ġmilitary":2004,"Ġsecurity":2005,"ĠÂ":2006,"Ġstudy":2007,"sy":2008,"Ġrather":2009,"Ġer":2010,"Ġ14":2011,"ĠDon":2012,"Ġdiscuss":2013,"Ġquick":2014,"ĠWar":2015,"Ġsingle":2016,"Ġthreat":2017,"Ġfood":2018,"osp":2019,"Ġindividual":2020,"Ġpubl":2021,"Ġ|":2022,"Ġtot":2023,"An":2024,"Ġmind":2025,"ĠMan":2026,"Ġwanted":2027,"ĠSec":2028,"Ġfall":2029,"aper":2030,"irc":2031,"ĠAf":2032,"Ġpolicy":2033,"ĠBrit":2034,"amed":2035,"ids":2036,"ales":2037,"ĠGr":2038,"ĠNorth":2039,"atic":2040,"Ġsomeone":2041,"off":2042,"ĠDep":2043,"On":2044,"Ġmess":2045,"lement":2046,"Ġplayer":2047,"Ġredu":2048,"lling":2049,"Ġbring":2050,"Ġkey":2051,"par":2052,"ris":2053,"Ġcompan":2054,"Ġcult":2055,"Ġblack":2056,"Ġattempt":2057,"Ġspecial":2058,"ttp":2059,"Ġcomb":2060,"Ġsum":2061,"ply":2062,"Ġtaking":2063,"ĠNational":2064,"ON":2065,"ify":2066,"ĠIsrael":2067,"ĠBar":2068,"When":2069,"viron":2070,"ashington":2071,"Ġfoot":2072,"olution":2073,"dd":2074,"Ġ17":2075,"Ġ13":2076,"Ġspace":2077,"icult":2078,"Ġfront":2079,"Ġpret":2080,"Ġresearch":2081,"Ġ/":2082,"Ġelse":2083,"elt":2084,"go":2085,"Ġprobably":2086,"Ġbody":2087,"16":2088,"Ġnothing":2089,"ĠClinton":2090,"rote":2091,"ches":2092,"Ġcou":2093,".)":2094,"Ġconnect":2095,"ĠIm":2096,"ault":2097,"ĠCal":2098,"ĠCity":2099,"ĠWorld":2100,"Ġcoming":2101,"ming":2102,"Ġsw":2103,"Ġjo":2104,"Ġdescrib":2105,"over":2106,"Ġhowever":2107,"Ġbenef":2108,"Ġcoun":2109,"Ġsimilar":2110,"cing":2111,"Ġpoints":2112,"Ġsignific":2113,"lier":2114,"ana":2115,"://":2116,"reme":2117,"14":2118,"**":2119,"yn":2120,"ully":2121,"Ġfeat":2122,"Ġimm":2123,"RE":2124,"So":2125,"Ġeither":2126,"Ġexist":2127,"ĠHar":2128,"Ġdecision":2129,"Ġtarg":2130,"ĠAust":2131,"Ġ2013":2132,"aces":2133,"Ġsus":2134,"irl":2135,"That":2136,"Ġenc":2137,"Ġconv":2138,"Ġmass":2139,"Ġwa":2140,"mb":2141,"Ġrights":2142,"ĠSu":2143,"Ġdoc":2144,"IS":2145,"Ġcreate":2146,"ung":2147,"Ġhouse":2148,"asing":2149,"Ġfire":2150,"Ġchall":2151,"Ġstop":2152,"Ġfurther":2153,"Ġwrote":2154,"Ġban":2155,"Ġpick":2156,"sw":2157,"Ġfig":2158,"Ġstep":2159,"Ġfield":2160,"Ġrelations":2161,"Ġrepl":2162,"now":2163,"Ġbegin":2164,"ĠWith":2165,"Ġcompl":2166,"Ġservice":2167,"Ġthird":2168,"rodu":2169,"Ġfederal":2170,"ape":2171,"ively":2172,"ried":2173,"ĠWashington":2174,"pecially":2175,"Ġwhole":2176,"Ġseems":2177,"ran":2178,"pping":2179,"Ġissues":2180,"ently":2181,"Ġmeas":2182,"Ġcand":2183,"amer":2184,"Ġcompanies":2185,"Ġ:":2186,"Ġexec":2187,"Ġtra":2188,"Ġeverything":2189,"Ġlab":2190,"Ġsuper":2191,"ĠJan":2192,"pite":2193,"head":2194,"ibility":2195,"ĠGu":2196,"uation":2197,"Ġey":2198,"13":2199,"Ġinfl":2200,"AN":2201,"Ġ2012":2202,"oon":2203,"Ġwatch":2204,"ĠHowever":2205,"Ch":2206,"Ġdue":2207,"iday":2208,"Ġself":2209,"Ġstates":2210,"ilt":2211,"ivil":2212,"Ġcustom":2213,"ery":2214,"Ġroom":2215,"att":2216,"Ġsound":2217,"Ġreleased":2218,"Ġleaders":2219,"Ġrole":2220,"Ġfinal":2221,"Ġdam":2222,"Ġofficials":2223,"aul":2224,"obal":2225,"Ġdou":2226,"Ġstri":2227,"ĠApp":2228,"ĠGe":2229,"ĠInst":2230,"ww":2231,"Ġbegan":2232,"Ġdevelopment":2233,"Ġposition":2234,"Ġmatter":2235,"Ġopt":2236,"ender":2237,"Ġcharacter":2238,"eal":2239,"ĠPart":2240,"vironment":2241,"Ġoutside":2242,"Ġstudents":2243,"ĠDav":2244,"like":2245,"Ġener":2246,"ĠSouth":2247,"Ġ2017":2248,"Ġtreat":2249,"Ġstatement":2250,"Ġbreak":2251,"lim":2252,"sec":2253,"Ġprovide":2254,"Ġabove":2255,"Ġinit":2256,"ĠIntern":2257,"Ġhimself":2258,"Ġstat":2259,"Ġrepresent":2260,"Ã©":2261,"Ġhours":2262,"Ġitself":2263,"ades":2264,"Ġthemselves":2265,"Ġamount":2266,"lish":2267,"Ġaction":2268,"Ġcontinue":2269,"Ġ198":2270,"Ġspecific":2271,"Ġgun":2272,"Ġneg":2273,"Ġoffice":2274,"Ġgeneral":2275,"ĠAss":2276,"Ġaddress":2277,"Ġcountries":2278,"Ġbecame":2279,"Ġ25":2280,"ĠRes":2281,"ograph":2282,"arter":2283,"iod":2284,"Ġsimply":2285,"aced":2286,"Ġlarg":2287,"umb":2288,"reg":2289,"Ġsignificant":2290,"'ll":2291,"Ġwasn":2292,"ogle":2293,"ask":2294,"Ġinterview":2295,"Ġdifficult":2296,"Ġ100":2297,"ĠJust":2298,"Ġrad":2299,"ogn":2300,"Ġtrue":2301,"ĠEd":2302,"Ġground":2303,"acebook":2304,"....":2305,"Ġbar":2306,"oid":2307,"Ġevidence":2308,"Ġcop":2309,"Ġversion":2310,"Ġrunning":2311,"Ġmusic":2312,"Ġrespons":2313,"ili":2314,"BC":2315,"17":2316,"Ġadminist":2317,"Ġshows":2318,"Ġeveryone":2319,"Ġprofess":2320,"Ġdi":2321,"Ġgroups":2322,"Ġdrug":2323,"Ġneeds":2324,"Ġwoman":2325,"ournal":2326,"Ġagree":2327,"Ġball":2328,"lam":2329,"Ġbuilding":2330,"ream":2331,"eks":2332,"Ġtyp":2333,"light":2334,"Ġdom":2335,"Ġtem":2336,"iddle":2337,"angu":2338,"Ġlat":2339,"Ġinj":2340,"Ġdest":2341,"Ġcommon":2342,"Ġneeded":2343,"ĠChina":2344,"ĠAb":2345,"right":2346,"Ġrelease":2347,"Ġexc":2348,"Ġbelow":2349,"ift":2350,"ĠMed":2351,"AR":2352,"ĠGerman":2353,"Ġsaw":2354,"Ġpretty":2355,"Ġ)":2356,"Ġquite":2357,"Ġinclude":2358,"Ġindustry":2359,"Ġplayed":2360,"Ġdeep":2361,"Ġplaying":2362,"Ġcandid":2363,"ribut":2364,"18":2365,"body":2366,"ival":2367,"isc":2368,"Ġ50":2369,"Ġmot":2370,"Ġmag":2371,"Ġap":2372,"Ġcharg":2373,"ĠHis":2374,"Ġphys":2375,"Ġsense":2376,"Ġenergy":2377,"Ġwhite":2378,"ãģ":2379,"Ġalleg":2380,"Ġgen":2381,"atur":2382,"How":2383,"Ġfriends":2384,"Ġinstead":2385,"Ġvalue":2386,"ĠWest":2387,"Ġlate":2388,"Ġlegal":2389,"Ġespecially":2390,"where":2391,"Ġbillion":2392,"ĠAfter":2393,"Ġlost":2394,"yle":2395,"bo":2396,"Ġabs":2397,"Ġanim":2398,"Ġelection":2399,"Ġred":2400,"ĠMus":2401,"Ġhost":2402,"lev":2403,"osing":2404,"AS":2405,"ĠNews":2406,"oring":2407,"Ġhom":2408,"ager":2409,"time":2410,"Ġple":2411,"ccording":2412,"eed":2413,"Ġforward":2414,"Ġrecently":2415,"Ġobject":2416,"istic":2417,"ĠTwitter":2418,"Ġchanges":2419,"Ġweeks":2420,"Ġsuff":2421,"ique":2422,"Ġvote":2423,"Ġjud":2424,"omm":2425,"ĠNot":2426,"ript":2427,"Ġdeter":2428,"irt":2429,"epend":2430,"Ġtrack":2431,"arc":2432,"Ġsoon":2433,"Ġopportun":2434,"Ġsite":2435,"Ġeconomic":2436,"ĠWill":2437,"Ġlonger":2438,"ĠOct":2439,"lt":2440,"ĠWhite":2441,"Ġpain":2442,"Ġaccept":2443,"Ġep":2444,"Ġhope":2445,"Ġperiod":2446,"medi":2447,"ĠMy":2448,"ached":2449,"Ġshoot":2450,"Ġlo":2451,"hod":2452,"Ġmoment":2453,"Ġcheck":2454,"oe":2455,"Ġdecl":2456,"ĠDepartment":2457,"Ġrelig":2458,"oke":2459,"irm":2460,"oph":2461,"Ġblock":2462,"ij":2463,"Ġwrong":2464,"Ġpotential":2465,"Ġshare":2466,"Ġconsum":2467,"Ġpie":2468,"ĠCong":2469,"Ġtit":2470,"ole":2471,"ĠSept":2472,"Ġcred":2473,"Ġfocus":2474,"Ġ24":2475,"ners":2476,"Ġfunction":2477,"Ġpred":2478,"Ġhigher":2479,"Ġworks":2480,"ĠDr":2481,"Ġonline":2482,"ancial":2483,"Ġgoal":2484,"overed":2485,"25":2486,"lege":2487,"Ġcirc":2488,"Ġwalk":2489,"ĠMarch":2490,"onse":2491,"Ġconsider":2492,"duct":2493,"iding":2494,"cial":2495,"Ġstay":2496,"Ġwebs":2497,"Ġstru":2498,"ularly":2499,"key":2500,"Ġled":2501,"lear":2502,"Ġheld":2503,"Ġreve":2504,"Ġparent":2505,"Ġwords":2506,"Ġrev":2507,"ĠRepublican":2508,"ns":2509,"ĠThese":2510,"Ġresults":2511,"Ġeduc":2512,"ĠSyri":2513,"Ġcode":2514,"Ġage":2515,"Ġreview":2516,"icro":2517,"Ġrisk":2518,"Ġce":2519,"Ġcontract":2520,"Ġlaws":2521,"They":2522,"fect":2523,"Ġwind":2524,"Ġpersonal":2525,"Ġapplic":2526,"uary":2527,"ham":2528,"put":2529,"Ġaud":2530,"cil":2531,"aut":2532,"Ġsold":2533,"ĠJune":2534,"Ġminutes":2535,"ĠMe":2536,"itution":2537,"Ġanyone":2538,"Ġtotal":2539,"ĠMich":2540,"asons":2541,"Ġarticle":2542,"ilities":2543,"apan":2544,"urd":2545,"ĠAug":2546,"ients":2547,"Ġhy":2548,"Ġfavor":2549,"haps":2550,"ateg":2551,"Ad":2552,"Ġprim":2553,"Ġ{":2554,"Ġtarget":2555,"ĠPe":2556,"Ġnecess":2557,"anger":2558,"Ġpopular":2559,"Ġ2011":2560,"Ġansw":2561,"Ġexpress":2562,"na":2563,"ule":2564,"Ġscient":2565,"Ġvol":2566,"aging":2567,"che":2568,"Ġservices":2569,"Ġden":2570,"Ġearlier":2571,"fer":2572,"ES":2573,"alt":2574,"Ġexpected":2575,"____":2576,"Ġenvironment":2577,"Ġcreated":2578,"val":2579,"Ġupd":2580,"pril":2581,"ĠPar":2582,"Ġdead":2583,"Ġcomput":2584,"Ġsurpr":2585,"Ġtechnology":2586,"Ġrespect":2587,"reet":2588,"uel":2589,"Ġproblems":2590,"Ġbase":2591,"Ġeasy":2592,"Al":2593,"Ġport":2594,"Ġanti":2595,"ude":2596,"omb":2597,"ĠSte":2598,"Ġincrease":2599,"Ġrate":2600,"tee":2601,"Ġshot":2602,"Ġways":2603,"iple":2604,"ray":2605,"isl":2606,"Ġquestions":2607,"ends":2608,"atives":2609,"Ġpur":2610,"eter":2611,"Ġcomment":2612,"Ġimpact":2613,"action":2614,"Ġreceived":2615,"Ġcannot":2616,"bit":2617,"ĠJuly":2618,"Ġ<":2619,"ĠDo":2620,"Ġforce":2621,"ĠSm":2622,"Ġprivate":2623,"Ġannounced":2624,"aterial":2625,"onst":2626,"ĠMond":2627,"Ph":2628,"hern":2629,"Ġ+":2630,"aving":2631,"Ġ197":2632,"ĠGod":2633,"ĠEn":2634,"ĠFacebook":2635,"Ġpack":2636,"60":2637,"ills":2638,"Ġlangu":2639,"Ġinvolved":2640,"ĠCongress":2641,"==":2642,"hood":2643,"ples":2644,"Ġdiv":2645,"Ġmodel":2646,"Ġcivil":2647,"Ġrelationship":2648,"Ġsen":2649,"Ġexecut":2650,"Ġspeak":2651,"Ġexact":2652,"ĠAustral":2653,"uesday":2654,"To":2655,"itiz":2656,"Ġet":2657,"Ġstaff":2658,"lex":2659,"ourt":2660,"Ġtype":2661,"ires":2662,"Ġnearly":2663,"Ġcases":2664,"ĠFriday":2665,"Ġobs":2666,"ĠAct":2667,"Ġinside":2668,"ĠRed":2669,"Ġterror":2670,"ech":2671,"okes":2672,"ĠGoogle":2673,"Ġfans":2674,"ees":2675,"ĠCount":2676,"Ġleave":2677,"Ġcontent":2678,"lled":2679,"rem":2680,"Ġresponse":2681,"Ġoriginal":2682,"ky":2683,"Ġcoll":2684,"Ġinternational":2685,"Ġur":2686,"Ġcapt":2687,"Ġliving":2688,"Ġcal":2689,"ellig":2690,"Ġusers":2691,"Ġreports":2692,"At":2693,"Ġkilled":2694,"Ġarrest":2695,"ĠApril":2696,"Ġworth":2697,"Ġbecom":2698,"Ġcell":2699,"Ġclub":2700,"Ġsource":2701,"Ġbroad":2702,"Ġoil":2703,"atural":2704,"ips":2705,"cast":2706,"Ġnation":2707,"ĠMonday":2708,"ging":2709,"Ġaverage":2710,"ĠPer":2711,"Ġ2010":2712,"Ġworked":2713,"Ġglobal":2714,"oto":2715,"ĠTuesday":2716,"mon":2717,"Ġchance":2718,"Ġweap":2719,"ĠEm":2720,"ĠAmericans":2721,"Ġheart":2722,"ests":2723,"ĠPal":2724,"ites":2725,"bor":2726,"rel":2727,"Ġestab":2728,"Ġimmedi":2729,"Ġsoft":2730,"Ġtakes":2731,"ops":2732,"joy":2733,"ext":2734,"Ġpublished":2735,"Ġability":2736,"Ġdirector":2737,"Ġdel":2738,"ael":2739,"Ġroad":2740,"Ġrespond":2741,"Ġprice":2742,"Ġsubject":2743,"Ġworkers":2744,"ctor":2745,"Ġterms":2746,"hel":2747,"ological":2748,"ises":2749,"EN":2750,"Ġassoci":2751,"Ġcollect":2752,"ĠJapan":2753,"izing":2754,"Ġdefin":2755,"Ġmother":2756,"rought":2757,"osition":2758,"Ġlog":2759,"Ġemer":2760,"Ġfinancial":2761,"ĠWhile":2762,"ĠWed":2763,"Ġlack":2764,"Ġmid":2765,"Ġdecided":2766,"Ġgave":2767,"Ġ40":2768,"Ġtou":2769,"Ġstore":2770,"Ġsqu":2771,"ovember":2772,"Ġinflu":2773,"ĠRussia":2774,"Ġbuy":2775,"ĠSome":2776,"Ġphone":2777,"rain":2778,"Ġgirl":2779,"Ġrequire":2780,"Ġcapital":2781,"Ġfem":2782,"ĠNow":2783,"unt":2784,"OR":2785,"\".":2786,"Ġhappened":2787,"clus":2788,"ĠBy":2789,"Ġsituation":2790,"Ġforeign":2791,"ÂŃ":2792,"rown":2793,"Ġoffer":2794,"Ġcurrently":2795,"Ġwhose":2796,"Ġlives":2797,"based":2798,"Ġtal":2799,"Ġgoes":2800,"ursday":2801,"ĠOff":2802,"vertise":2803,"ĠSan":2804,"Ġmaterial":2805,"ĠJanuary":2806,"Ġteams":2807,"ĠCalif":2808,"eg":2809,"Ġaffect":2810,"One":2811,"Ġplans":2812,"Ġpict":2813,"oved":2814,"40":2815,"Ġmeeting":2816,"ĠAg":2817,"Ġmethod":2818,"ĠHill":2819,"Ġparticip":2820,"nesday":2821,"Ġarri":2822,"ĠFeb":2823,"Ġrecogn":2824,"Ġmember":2825,"Ġpage":2826,"ctions":2827,"Ġindic":2828,"ruction":2829,"ĠSund":2830,"Ġturned":2831,"Ġbank":2832,"fully":2833,"ought":2834,"Ġhuge":2835,"Ġnorm":2836,"Ġevents":2837,"Ġnetwork":2838,"ĠSeptember":2839,"ĠGeor":2840,"Ġsimple":2841,"Ġtool":2842,"ino":2843,"ĠTV":2844,"bl":2845,"Ġregard":2846,"Ġ@":2847,"load":2848,"oud":2849,"Ġareas":2850,"ety":2851,"order":2852,"ese":2853,"Ġcy":2854,"ĠIslam":2855,"Ġperformance":2856,"Ġill":2857,"ĠEl":2858,"Ġcouple":2859,"Ġround":2860,"Ġintrodu":2861,"\",":2862,"ĠGl":2863,"Ġapproach":2864,"Ġcareer":2865,"Ġquickly":2866,"Ġord":2867,"ĠNovember":2868,"aur":2869,"ĠCor":2870,"Ġemail":2871,"Ġhon":2872,"Ġimprove":2873,"apt":2874,"Ġmis":2875,"Ġfelt":2876,"Ġdeli":2877,"--------":2878,"aily":2879,"Ġadministration":2880,"Ġ21":2881,"Ġvia":2882,"ĠThursday":2883,"ĠWednesday":2884,"Ġpers":2885,"chie":2886,"Ġnumbers":2887,"Ġvictim":2888,"ĠAfric":2889,"ĠDavid":2890,"Ġrace":2891,"Ġfre":2892,"oor":2893,"ĠAng":2894,"Ġdig":2895,"Ġheard":2896,"avy":2897,"Ġfather":2898,"Ġthous":2899,"Ġengine":2900,"Sh":2901,"ructure":2902,"Ġpull":2903,"Ġbuilt":2904,"ani":2905,"Ġhands":2906,"Ġwebsite":2907,"iment":2908,"Ġeconomy":2909,"Ġboy":2910,"ened":2911,"ume":2912,"ights":2913,"lin":2914,"Ġwide":2915,"Ġcover":2916,"ĠPaul":2917,"Ġloss":2918,"down":2919,"âĢĿ.":2920,"ĠEuropean":2921,"cember":2922,"Ġproduction":2923,"atory":2924,"ĠCourt":2925,"Ġreveal":2926,"Ġhttp":2927,"Ġ22":2928,"uses":2929,"Ġtext":2930,"ĠOctober":2931,"Ġsecret":2932,"Ġtrade":2933,"Ġtravel":2934,"Ġspent":2935,"Ġenjoy":2936,"Ġste":2937,"Ġmatch":2938,"Ġpoll":2939,"Ġallowed":2940,"ĠSch":2941,"ĠAugust":2942,"Ġlegisl":2943,"Ġtown":2944,"face":2945,"ornia":2946,"Ġrepe":2947,"Ġboard":2948,"Ġbehav":2949,"Ġknew":2950,"orters":2951,"Ġwants":2952,"ences":2953,"iction":2954,"Ġincluded":2955,"Ġlower":2956,"With":2957,"ĠCanada":2958,"?âĢĿ":2959,"Ġneigh":2960,"200":2961,"Ġmovement":2962,"gest":2963,"anks":2964,"raz":2965,"Ġbi":2966,"Ġperfect":2967,"ession":2968,"Ġgets":2969,"Ġvisit":2970,"Ġtried":2971,"ĠSunday":2972,"ground":2973,"uk":2974,"rect":2975,"Ġattention":2976,"agement":2977,"ĠBritish":2978,"ishing":2979,"estern":2980,"Ġsepar":2981,"After":2982,"AL":2983,"Ġfear":2984,"Ġparticular":2985,"Ġcause":2986,"Ġforces":2987,"Ġvarious":2988,"ening":2989,"Ġreach":2990,"ceed":2991,"Ġgrowth":2992,"force":2993,"urning":2994,"ĠUK":2995,"ĠQu":2996,"Ġmention":2997,"ibly":2998,"Ġvo":2999,"ma":3000,"Ġlooks":3001,"Ġens":3002,"Ġprogress":3003,"aker":3004,"Ġbrought":3005,"arily":3006,"Ġbud":3007,"Ġpopulation":3008,"Ġmorning":3009,"cle":3010,"Ġfair":3011,"sequ":3012,"Ġprevious":3013,"Ġ23":3014,"field":3015,"ĠPost":3016,"undred":3017,"ĠRussian":3018,"hold":3019,"iam":3020,"Ġsize":3021,"ĠHer":3022,"Ġrules":3023,"Ġ}":3024,");":3025,"Ġveh":3026,"ze":3027,"ĠSw":3028,"Ġtraining":3029,"yond":3030,"Ġsong":3031,"][":3032,"ĠDecember":3033,"alled":3034,"Ġcontact":3035,"Ġfell":3036,"Ġdemand":3037,"cies":3038,"Ġhot":3039,"Ġlink":3040,"ĠKore":3041,"ĠCalifornia":3042,"Ġsearch":3043,"idered":3044,"Ġimage":3045,"Ġleader":3046,"ED":3047,"US":3048,"idents":3049,"ĠCont":3050,"'d":3051,"ecause":3052,"oo":3053,"set":3054,"ledge":3055,"come":3056,"Ġhor":3057,"While":3058,"Ġcitiz":3059,"Ġstrugg":3060,"Ġrac":3061,"Ġprep":3062,"Ġliber":3063,"ĠStreet":3064,"Ġlatest":3065,"OS":3066,"Ġess":3067,"ondon":3068,"Ġspeed":3069,"ification":3070,"fl":3071,"ĠBlack":3072,"Ġcoach":3073,"Ġstar":3074,"Ġfast":3075,"ĠPat":3076,"AC":3077,"elligence":3078,"Ġfeatures":3079,"sych":3080,"uments":3081,"ĠIS":3082,"inks":3083,"Ġtalking":3084,"aries":3085,"Ġindepend":3086,"raq":3087,"ĠParty":3088,"ĠTimes":3089,"eth":3090,"Ġupon":3091,"iant":3092,"Ġexam":3093,"bed":3094,"ĠCounty":3095,"omp":3096,"ĠPark":3097,"ille":3098,"ĠSenate":3099,"Ġdoll":3100,"99":3101,"aph":3102,"icles":3103,"arth":3104,"ges":3105,"Ġwond":3106,"Ġaddition":3107,"Ġinvestigation":3108,"vent":3109,"Ġmedical":3110,"Ġund":3111,"imately":3112,"IT":3113,"Ġachie":3114,"aturday":3115,"pir":3116,"Ġlevels":3117,"ope":3118,"erve":3119,"Ġreb":3120,"atform":3121,"Ġslow":3122,"Ġconsidered":3123,"Ġsn":3124,"Ġcritic":3125,"ĠIran":3126,"ĠCenter":3127,"ĠTex":3128,"het":3129,"unk":3130,"Ġ2008":3131,"Ġlanguage":3132,"Ġconduct":3133,"Tr":3134,"uf":3135,"ysis":3136,"Ġsort":3137,"24":3138,"ĠKing":3139,"Ġcard":3140,"Ġsens":3141,"Ġpen":3142,"ha":3143,"ps":3144,"wo":3145,"Ġconserv":3146,"Ġpaper":3147,"Ġsexual":3148,"eared":3149,"Ġâ":3150,"Ġdocument":3151,"uit":3152,"Ġdraw":3153,"igr":3154,"Ġseven":3155,"Ġhear":3156,"Ġparents":3157,"IC":3158,"asc":3159,"istan":3160,"Ġmach":3161,"imin":3162,"Ġprior":3163,"Ġincreasing":3164,"Ġsystems":3165,"idge":3166,"Ġlearn":3167,"ruary":3168,"ĠJew":3169,"ĠIndia":3170,"Ġspokes":3171,"Ġregul":3172,"Ġseek":3173,"Ġwritten":3174,"Ġeffort":3175,"Ġbox":3176,"Ġprevent":3177,"ources":3178,"ĠMuslim":3179,"Ġconc":3180,"Ġextreme":3181,"ĠIraq":3182,"ining":3183,"Ġ2009":3184,"Ġserious":3185,"Ġobv":3186,"ico":3187,"80":3188,"rast":3189,"OP":3190,"Ġcompletely":3191,"tr":3192,"Ġjobs":3193,"Ġjournal":3194,"She":3195,"room":3196,"Ġsurve":3197,"eff":3198,"ĠMark":3199,"ĠRom":3200,"Ġdoub":3201,"Ġrange":3202,"Ġscreen":3203,"Ġdespite":3204,"Ġson":3205,"reedom":3206,"Ġviolence":3207,"Ġeight":3208,"Ġinteresting":3209,"22":3210,"itch":3211,"Ġclaims":3212,"Ġinn":3213,"anced":3214,"erc":3215,"ĠLondon":3216,"Ġattacks":3217,"abor":3218,"Ġparticularly":3219,"rench":3220,"Ġopportunity":3221,"Ġextra":3222,"Ġguy":3223,"ibr":3224,"Ġaren":3225,"Ġbiggest":3226,"Ġmajority":3227,"Ġmessage":3228,"mp":3229,"ĠEast":3230,"Ġsociety":3231,"isions":3232,"uclear":3233,"ĠMore":3234,"ĠChar":3235,"Ġanswer":3236,"Ġscience":3237,"Ġpractice":3238,"Ġcarry":3239,"vertisement":3240,"ux":3241,"ĠDonald":3242,"Ġquarter":3243,"entially":3244,"Ġexactly":3245,"ĠSand":3246,"aming":3247,"Ġmodern":3248,"Ġrequired":3249,"ĠKe":3250,"Ġ...":3251,"Ġpaid":3252,"Ġdefense":3253,"illed":3254,"ĠNet":3255,"Ġhundred":3256,"ĠSaturday":3257,"Ġcross":3258,"lying":3259,"Ġremain":3260,"Ġtable":3261,"ari":3262,"Ġnatural":3263,"Ġlooked":3264,"inally":3265,"Ġsurv":3266,"AM":3267,"Ġrout":3268,"Ġexperien":3269,"utions":3270,"iers":3271,"Ġexcept":3272,"Ġcommunic":3273,"nces":3274,"Ġhistor":3275,"Ġofficers":3276,"ett":3277,"Ġmovie":3278,"ension":3279,"Ġdetails":3280,"Ġcertainly":3281,"Ġmiddle":3282,"aves":3283,"Ġ27":3284,"Ġgas":3285,"Ġsometimes":3286,"Ġlay":3287,"oses":3288,"Ġfinally":3289,"Ġstuff":3290,"Ġdro":3291,"Ġstories":3292,"Ġproducts":3293,"Ġclimate":3294,"Ġaw":3295,"icks":3296,"Ġquality":3297,"add":3298,"Ġimag":3299,"Ġconvers":3300,"Ġleading":3301,"ĠFebruary":3302,"Ġterm":3303,"ĠMcC":3304,"Ġchanged":3305,"arr":3306,"Ġdescribed":3307,"inese":3308,"ously":3309,"coin":3310,"Ġuser":3311,"Ġsummer":3312,"Ġpan":3313,"Ġult":3314,"ĠMor":3315,"ĠSpe":3316,"Ġcosts":3317,"ida":3318,"Ġshowed":3319,"akers":3320,"Ġgiving":3321,"Ġfit":3322,"ospital":3323,"pper":3324,"Ġones":3325,"Ġstarting":3326,"Ġdamage":3327,"ny":3328,"Ġpoor":3329,"Ġoccur":3330,"Ġremains":3331,"Ġprovided":3332,"Ġdemonst":3333,"hib":3334,"uing":3335,"Ġdanger":3336,"Ġblood":3337,"Ġchief":3338,"Ġnamed":3339,"Ġmob":3340,"Ġregion":3341,"Ġgrowing":3342,"yl":3343,"ĠChe":3344,"Ġmultiple":3345,"No":3346,"enge":3347,"Ġpath":3348,"Ġincreased":3349,"aught":3350,"Ġpurp":3351,"Ġthinking":3352,"Ġcomments":3353,"FL":3354,"Ġcontinued":3355,"Ġment":3356,"Ġwriting":3357,"ĠSoc":3358,"Ġready":3359,"Ġprison":3360,"inary":3361,"pre":3362,"ables":3363,"ĠEven":3364,"Ġmaintain":3365,"Ġassist":3366,"Ġdied":3367,"ago":3368,"Ġeducation":3369,"ĠLeague":3370,"Ġwouldn":3371,"Ġcamer":3372,"Ġfix":3373,"Ġfile":3374,"Ġ28":3375,"Ġparts":3376,"Ġvoters":3377,"Ġsafe":3378,"ĠDes":3379,"23":3380,"ĠInt":3381,"Ġmill":3382,"ĠRepublicans":3383,"Ġwrite":3384,"Ġ*":3385,"ĠDemocratic":3386,"Ġ26":3387,"ĠTur":3388,"Ġcele":3389,"fort":3390,"Ġefforts":3391,"Ġrequest":3392,"iminal":3393,"Ġhous":3394,"mitted":3395,"aly":3396,"ĠCoun":3397,"Ġimplement":3398,"Ġpurch":3399,"Ġperhaps":3400,"oper":3401,"Ġculture":3402,"Im":3403,"Ġavoid":3404,"Ġguys":3405,"Ġreading":3406,"Ġspot":3407,"zz":3408,"ban":3409,"arian":3410,"ĠFirst":3411,"Ġitem":3412,"ĠTH":3413,"Ġcalls":3414,"Ġeffects":3415,"Ġplatform":3416,"ĠBill":3417,"Ġspeech":3418,"Ġalthough":3419,"ĠTexas":3420,"ĠGener":3421,"Ġtowards":3422,"Ġstandard":3423,"Ġreality":3424,"de":3425,"ĠJames":3426,"Ġfootball":3427,"Ġalone":3428,"Ġusually":3429,"Ġkids":3430,"iles":3431,"Ġscene":3432,"Ġcouldn":3433,"rowd":3434,"Ġdirectly":3435,"Ġunf":3436,"Ġselect":3437,"Ġconsist":3438,"Ġbeyond":3439,"ĠCons":3440,"using":3441,"ĠNe":3442,"ford":3443,"Ġcomplex":3444,"AA":3445,"itute":3446,"Ġver":3447,"Ġsubst":3448,"icated":3449,"oul":3450,"Ġ(@":3451,"ara":3452,"Ġcenter":3453,"urt":3454,"ĠMichael":3455,"anch":3456,"Ġchalleng":3457,"BI":3458,"Ġclos":3459,"Re":3460,"urg":3461,"Ġwife":3462,"Ġincludes":3463,"ĠBo":3464,"Ġthroughout":3465,"Ġsafety":3466,"Ġimmediately":3467,"Ġconcept":3468,"egr":3469,"Ġsle":3470,"sp":3471,"itor":3472,"Ġstudent":3473,"Ġtro":3474,"Ġchoice":3475,"Ġresearc":3476,"Ġremember":3477,"ĠChinese":3478,"Ġrob":3479,"Ġcat":3480,"Ġadditional":3481,"omen":3482,"Ġdebate":3483,"aches":3484,"Ġcast":3485,"ĠMinister":3486,"Ġofficer":3487,"wise":3488,"All":3489,"hest":3490,"Ġepis":3491,"Ġblog":3492,"ression":3493,"ĠJack":3494,"ston":3495,"Ġrecomm":3496,"Ġil":3497,"ĠPlay":3498,"Ġgone":3499,"Ġtoward":3500,"Ġcounter":3501,"Ġten":3502,"Ġcorpor":3503,"Ġstage":3504,"Ġdesigned":3505,"Ġahead":3506,"Ġswe":3507,"Ġopin":3508,"Ġbrain":3509,"ilies":3510,"Ġbattle":3511,"Now":3512,"Ġagency":3513,"Ġthousands":3514,"ports":3515,"Ġfigure":3516,"Ġrelative":3517,"icient":3518,"Ġsell":3519,"Ġsoftware":3520,"irth":3521,"rupt":3522,"adem":3523,"Ġpiece":3524,"astic":3525,"oes":3526,"Ġmoved":3527,"imum":3528,"ĠIndian":3529,"Ġrock":3530,"Ġmeaning":3531,"atever":3532,"ĠMon":3533,"Ġsil":3534,"Ġletter":3535,"Ġreceive":3536,"Ġprec":3537,"airs":3538,"berg":3539,"Ġappears":3540,"Ġdog":3541,"Ġtwe":3542,"Ġlaunch":3543,"olute":3544,"Ġpressure":3545,"roy":3546,"agon":3547,"Ġproperty":3548,"ĠII":3549,"ampions":3550,"ĠApple":3551,"Ġorganization":3552,"Ġut":3553,"just":3554,"ĠâĢ¦":3555,"Ġclean":3556,"ĠRich":3557,"men":3558,"Ġhelped":3559,"Ġoption":3560,"Ġ60":3561,"Ġx":3562,"aughter":3563,"ĠGreen":3564,"Ġpassed":3565,"Ġalleged":3566,"ĠSer":3567,"Ġdisapp":3568,"Ġscore":3569,"ivity":3570,"Ġdark":3571,"ĠAssoci":3572,"Ġcris":3573,"more":3574,"ĠThen":3575,"OT":3576,"Ġreasons":3577,"Ġdevice":3578,"Ġsat":3579,"Ġpark":3580,"Ġnuclear":3581,"Ġign":3582,"Ġconditions":3583,"ĠSim":3584,"rief":3585,"new":3586,"?\"":3587,"Ġmaybe":3588,"Ġdrive":3589,"itation":3590,"Ġmoving":3591,"Ġencour":3592,"Ġdate":3593,"Ġnature":3594,"chan":3595,"Ġtouch":3596,"Ġsuspect":3597,"Ġdifference":3598,"ĠEnglish":3599,"ĠMart":3600,"Ġmyself":3601,"Ġ>":3602,"Ġfan":3603,"Ġtour":3604,"wood":3605,"Ġnom":3606,"Ġdeg":3607,"ĠServ":3608,"ĠDemocrats":3609,"Ġhappy":3610,"ocked":3611,"Ġbeginning":3612,"Ġarch":3613,"Ġcharacters":3614,"Ġcopy":3615,"Ġfailed":3616,"Ġaim":3617,"Ġbudget":3618,"Ġcompared":3619,"Ġtitle":3620,"ĠSuper":3621,"Ġleague":3622,"lease":3623,"Ġcommand":3624,"cient":3625,"27":3626,"ĠHere":3627,"amb":3628,"Ġcollege":3629,"Ġyes":3630,"Ġcomputer":3631,"Ġshown":3632,"Ġpowerful":3633,"Ġeyes":3634,"ource":3635,"Ġstra":3636,"Ġwall":3637,"Ġcandidate":3638,"ĠStar":3639,"Ġnecessary":3640,"Ġband":3641,"yan":3642,"ĠDay":3643,"Ġlimited":3644,"aint":3645,"AD":3646,"Ġsal":3647,"igration":3648,"45":3649,"ufact":3650,"Ġbooks":3651,"Ġestim":3652,"ĠFrench":3653,"ĠVal":3654,"Ġsche":3655,"enty":3656,"Ġbal":3657,"Ġcentury":3658,"ĠRober":3659,"My":3660,"Ġdisp":3661,"Ġcontribut":3662,"ĠOf":3663,"ĠSyria":3664,"Ġforced":3665,"Ġpositive":3666,"aud":3667,"Ġcitizens":3668,"Ġanalysis":3669,"Ġrefer":3670,"Ġtrust":3671,"Ġlargest":3672,"Ġcrowd":3673,"Ġaware":3674,"Ġspending":3675,"Ġpresidential":3676,"cul":3677,"Ġmeant":3678,"35":3679,"ĠTor":3680,"Ġthrow":3681,"Ġmix":3682,"Ġeventually":3683,"Ġschools":3684,"craft":3685,"Ġreligious":3686,"Ġconference":3687,"ĠMex":3688,"Ġexecutive":3689,"orney":3690,"Ġconfir":3691,"26":3692,"Ġcool":3693,"orks":3694,"Ġeasily":3695,"Ġilleg":3696,"Ġfeature":3697,"venue":3698,"Ġphysical":3699,"ĠBen":3700,"Ġautom":3701,"Ġfamilies":3702,"Ġ196":3703,"Is":3704,"Ġfeed":3705,"ares":3706,"Ġfollowed":3707,"ĠAir":3708,"ĠWind":3709,"Ġstreng":3710,"ĠDis":3711,"Ġfirm":3712,"Be":3713,"Ġbott":3714,"Ġpus":3715,"Ġyourself":3716,"Ġesc":3717,"Ġdraft":3718,"Ġhar":3719,"band":3720,"Ġactions":3721,"rated":3722,"Ġgives":3723,"Ġnote":3724,"board":3725,"Ġdetail":3726,"Ġappeared":3727,"AP":3728,"Ġgrad":3729,"bum":3730,"Ġallows":3731,"Ġoverall":3732,"iring":3733,"ero":3734,"Ġtreatment":3735,"ressed":3736,"Ġ29":3737,"By":3738,"Ġsusp":3739,"ken":3740,"Ġweapons":3741,"Ġpolitics":3742,"Ġincome":3743,"Ġunique":3744,"Ġcentral":3745,"ube":3746,"Ġsenior":3747,"Advertisement":3748,"Ġgoals":3749,"Ġanaly":3750,"Ġfrequ":3751,"Ġsigned":3752,"Ġuses":3753,"Ġdisplay":3754,"Ġang":3755,"Don":3756,"encies":3757,"EC":3758,"Ġideas":3759,"Ġsmart":3760,"uty":3761,"Ġcredit":3762,"ĠInternational":3763,"etro":3764,"Ġtruth":3765,"box":3766,"ĠBel":3767,"ĠGovern":3768,"Ġcrime":3769,"Ġnice":3770,"According":3771,"OM":3772,"Ġlif":3773,"Ġaltern":3774,"ĠSchool":3775,"Ġdecades":3776,"ĠBre":3777,"Ġpsych":3778,"Ġpromot":3779,"Ġbenefits":3780,"iable":3781,"Ġsales":3782,"Ġcrisis":3783,"Ġdeveloped":3784,"New":3785,"):":3786,"Ġdise":3787,"ĠJer":3788,"Ġmist":3789,"part":3790,"onents":3791,"resh":3792,"ĠÐ":3793,"Ġprojects":3794,"inn":3795,"itely":3796,"ĠCap":3797,"Ġdoor":3798,"Ġpredict":3799,"urance":3800,"Ġrelated":3801,"Ġcontinues":3802,"Ġapparent":3803,"ID":3804,"Ġintelligence":3805,"Ġdrop":3806,"Ġcustomers":3807,"rs":3808,"mar":3809,"Ġconflic":3810,"ĠUnion":3811,"Ġindividuals":3812,"Ġnoted":3813,"ĠAngel":3814,"Ġchallenge":3815,"28":3816,"ĠÂ£":3817,"Ġsto":3818,"ĠPolice":3819,"Ġrap":3820,"Ġfully":3821,"Ġlic":3822,"ĠAustralia":3823,"Ġobserv":3824,"Ġrule":3825,"Pro":3826,"Ġrates":3827,"Ġpreviously":3828,"Ġbeaut":3829,"Ġcharge":3830,"Ġmanager":3831,"Ġbrother":3832,"Ġadvant":3833,"ĠArab":3834,"iny":3835,"change":3836,"ĠEarth":3837,"Ġlarger":3838,"ET":3839,"Ġmeasure":3840,"29":3841,"Ġstraight":3842,"Ġlines":3843,"oti":3844,"riage":3845,"Ġcorrect":3846,"Ġsuccessful":3847,"Ġseemed":3848,"Ġprimary":3849,"ĠEU":3850,"21":3851,"nown":3852,"ĠChristian":3853,"orter":3854,"Ġreform":3855,"ĠSmith":3856,"Ġclearly":3857,"Ġspread":3858,"Ġincident":3859,"Ġhighly":3860,"Ġpeace":3861,"ĠTom":3862,"Ġresources":3863,"Ġexpand":3864,"33":3865,"attle":3866,"antly":3867,"Ġemb":3868,"Ġattract":3869,"Ġcriminal":3870,"ki":3871,"Ġprograms":3872,"ota":3873,"ĠAnt":3874,"Some":3875,"ĠGeorge":3876,"Ġweb":3877,"Ġspir":3878,"ategy":3879,"ĠGermany":3880,"iced":3881,"inated":3882,"ĠDef":3883,"ounds":3884,"net":3885,"ĠInternet":3886,"Ġminor":3887,"Ġprem":3888,"ĠFranc":3889,"iance":3890,"Ġtraff":3891,"Ġstudies":3892,"while":3893,"owers":3894,"ean":3895,"ĠCouncil":3896,"Ġarm":3897,"ĠFlor":3898,"Ġrare":3899,"Un":3900,"ĠComp":3901,"100":3902,"Ġfavorite":3903,"ĠCr":3904,"ĠBrown":3905,"ĠHigh":3906,"Ġgreater":3907,"Ġplaces":3908,"Ġkept":3909,"Ġsave":3910,"Ġshooting":3911,"que":3912,"Ġknowledge":3913,"ĠRec":3914,"icit":3915,"Ġreached":3916,"Ġcolor":3917,"Ġmanufact":3918,"onent":3919,"IA":3920,"oday":3921,"ville":3922,"ĠHam":3923,"Ġlaun":3924,"Ġactivity":3925,"icago":3926,"Ġfeet":3927,"secut":3928,"Ġsend":3929,"Ġsources":3930,"ocks":3931,"Ġfighting":3932,"olic":3933,"term":3934,"sey":3935,"ĠBer":3936,"iders":3937,"Ġregular":3938,"osh":3939,"Ġpun":3940,"Ġrise":3941,"ĠRob":3942,"Ġknows":3943,"Ġfine":3944,"ser":3945,"Ġspend":3946,"ingly":3947,"Ġowners":3948,"dom":3949,"ĠGold":3950,"Ar":3951,"ĠLa":3952,"levision":3953,"Ġcaused":3954,"Ġemot":3955,"vere":3956,"Ġenem":3957,"Ġvoice":3958,"Ġorganiz":3959,"Ġclaimed":3960,"Ġplant":3961,"org":3962,"Ġliter":3963,"Ġreflect":3964,"Ġoptions":3965,"ya":3966,"wide":3967,"mission":3968,"lick":3969,"Ġnormal":3970,"ĠEvery":3971,"miss":3972,"ĠGeneral":3973,"Ġcalling":3974,"ĠFrom":3975,"Ġstatus":3976,"Ġintegr":3977,"EO":3978,"70":3979,"Ġresearchers":3980,"alse":3981,"bon":3982,"ength":3983,"ĠMac":3984,"Ġfemale":3985,"aith":3986,"uana":3987,"Ġ2007":3988,"Ġended":3989,"usion":3990,"iled":3991,"ifying":3992,"ado":3993,"ĠEngland":3994,"ĠUp":3995,"Ġcities":3996,"Ġhaven":3997,"Ġshut":3998,"Ġwait":3999,"Ġvirt":4000,"Ġsupposed":4001,"ĠMag":4002,"Ġprices":4003,"itness":4004,"roll":4005,"Ġadding":4006,"Ġpros":4007,"Ġbasic":4008,"Sc":4009,"Ġalbum":4010,"Ġhappens":4011,"oles":4012,"Ġcharges":4013,"ING":4014,"mark":4015,"Ġraised":4016,"âĢĿ,":4017,"uman":4018,"inger":4019,"Ġslight":4020,"Ġemployees":4021,"iverse":4022,"Ġnames":4023,"Not":4024,"Ġgold":4025,"Ġabsolute":4026,"Ġtrou":4027,"Ġpolicies":4028,"Ġele":4029,"Ġfreedom":4030,"Ġjump":4031,"Ġacqu":4032,"mittee":4033,"Ġminister":4034,"Ġtraditional":4035,"Ġprint":4036,"ribution":4037,"Ġbeat":4038,"Ġimpl":4039,"Ġcreating":4040,"Ġseeing":4041,"Ġcommer":4042,".âĢĻ":4043,"Ġscen":4044,"Ġlik":4045,"roid":4046,"Ġhospital":4047,"Ġpatients":4048,"ica":4049,"rol":4050,"Ġconcerns":4051,"Ġstation":4052,"Ġauthorities":4053,"ĠScott":4054,"Ġmechan":4055,"Ġgrand":4056,"ijuana":4057,"Ġstyle":4058,"Ġbirth":4059,"see":4060,"Ġleaving":4061,"Ġbehavior":4062,"Ġfunding":4063,"Ġcry":4064,"Ġactual":4065,"ĠHillary":4066,"ĠFlorida":4067,"ĠAP":4068,"ram":4069,"Ġgreen":4070,"Ġoffered":4071,"EL":4072,"Ġrank":4073,"earch":4074,"ĠMost":4075,"Ġbeg":4076,"Ġposted":4077,"Ġwilling":4078,"Ġpropos":4079,"Ġadop":4080,"Ġir":4081,"itude":4082,"OU":4083,"Ġvac":4084,"Ġweekend":4085,"Here":4086,"Ġpush":4087,"Ġagreement":4088,"rian":4089,"ĠBay":4090,"ona":4091,"ĠMo":4092,"Ġeye":4093,"Ġrevealed":4094,"SA":4095,"Ġmer":4096,"Ġvalues":4097,"acing":4098,"Ġapplication":4099,"Ġbrief":4100,"90":4101,"ãĤ":4102,"ĠLet":4103,"Ġmostly":4104,"Ġadult":4105,"Ġparties":4106,"Ġdetermin":4107,"ĠLaw":4108,"Ġensure":4109,"ĠAccording":4110,"istry":4111,"pen":4112,"Ġbelieved":4113,"ĠWell":4114,"www":4115,"Ġweight":4116,"Ġstrategy":4117,"Ġpicture":4118,"Ġrecords":4119,"Ġeth":4120,"ĠSun":4121,"ĠReg":4122,"Ġstreet":4123,"cher":4124,"ĠStud":4125,"ĠChicago":4126,"Ġdire":4127,"Ġestabl":4128,"Ġwhatever":4129,"ection":4130,".'":4131,"ĠPeople":4132,"Ġqual":4133,"Ġmassive":4134,"Ġmount":4135,"Ġlearned":4136,"Ġchoose":4137,"Ġlawy":4138,"pri":4139,"Ġfeeling":4140,"Ġenforce":4141,"aby":4142,"Ġfat":4143,"Ġuns":4144,"ĠHealth":4145,"Ġdevices":4146,"500":4147,"Ex":4148,"igned":4149,"Ġasking":4150,"ĠAlex":4151,"Ġappl":4152,"Ġarrested":4153,"Ġwild":4154,"Ġbenefit":4155,"ĠTrans":4156,"ĠLou":4157,"Ġinstall":4158,"Ġinfluence":4159,"soft":4160,"Ġimages":4161,"Ġassault":4162,"ĠOh":4163,"Ġwat":4164,"Ġwonder":4165,"Cl":4166,"Ġwhom":4167,"Ġcritical":4168,"Ġcars":4169,"Ġenter":4170,"ĠPhil":4171,"Ġdebt":4172,"ĠSecret":4173,"Ġshowing":4174,"ĠFrance":4175,"ĠPort":4176,"Ġcelebr":4177,"ugg":4178,"Ġconfirmed":4179,"Ġmission":4180,"Ġtemper":4181,"ĠBush":4182,"gen":4183,"IL":4184,"Ġoperations":4185,"liament":4186,"estic":4187,"Ġproduced":4188,"Ġlose":4189,"ties":4190,"Ġproduce":4191,"point":4192,"Ġprovides":4193,"Ġnegoti":4194,"ĠMat":4195,"orial":4196,"Ġtend":4197,"no":4198,"ste":4199,"aked":4200,"Ġjudge":4201,"Ġborder":4202,"cont":4203,"uild":4204,"rav":4205,"ented":4206,"ĠMod":4207,"ront":4208,"Ġeffective":4209,"Ġdollars":4210,"ocr":4211,"However":4212,"Ġsection":4213,"Ġopposition":4214,"Ġdigital":4215,"Ġdrink":4216,"ags":4217,"Ġcore":4218,"Ġteac":4219,"Ġpattern":4220,"icial":4221,"mine":4222,"ae":4223,"Ġresidents":4224,"Ġcru":4225,"ription":4226,"Ġruns":4227,"Ġdistrict":4228,"Ġadvoc":4229,"Ġbrand":4230,"ĠBit":4231,"Ġindependent":4232,"cience":4233,"udd":4234,"Ġetc":4235,"CC":4236,"Ġvill":4237,"Ġdefend":4238,"ĠWall":4239,"ĠPress":4240,"ĠCommittee":4241,"ST":4242,"ords":4243,"ĠWhy":4244,"http":4245,"Ġinterested":4246,"ĠCup":4247,"Ġsolution":4248,"cell":4249,"Ġder":4250,"Ġtrial":4251,"ĠCommission":4252,"oly":4253,"Ġhero":4254,"Ġworse":4255,"rial":4256,"Ġresponsible":4257,"44":4258,"Ġagreed":4259,"icians":4260,"Ġchem":4261,"Ġhighest":4262,"Ġmap":4263,"ĠPalest":4264,"Ġdaily":4265,"ipe":4266,"Ġinvestment":4267,"win":4268,"Ġopening":4269,"Ġvs":4270,"Ġmillions":4271,"Ġoffers":4272,"Ġmemory":4273,"ĠOther":4274,"vest":4275,"ĠGet":4276,"ĠJohnson":4277,"Ġmur":4278,"Ġtick":4279,"Ġbur":4280,"Ġkick":4281,"Ġtheory":4282,"Ġtypes":4283,"ĠJustice":4284,"ĠFrancis":4285,"Ġreplace":4286,"ĠFound":4287,"Ġoccas":4288,"ĠSam":4289,"Ġchair":4290,"rig":4291,"ĠBecause":4292,"Ġgenerally":4293,"These":4294,"illing":4295,"Ġlearning":4296,"Ġtrain":4297,"iation":4298,"Ġexplained":4299,"ĠKorea":4300,"Ġtelevision":4301,"Ġprotest":4302,"Ġrestrict":4303,"Ġcoal":4304,"ĠPM":4305,"ĠOffice":4306,"ĠOur":4307,"azing":4308,"Ġmale":4309,"BA":4310,"Con":4311,"rad":4312,"Ġheavy":4313,"ĠWestern":4314,"Ġproposed":4315,"rate":4316,"ĠMike":4317,"ĠNFL":4318,"aks":4319,"Ġmiles":4320,"ĠMicro":4321,"ĠLiber":4322,"ĠAtt":4323,"Ġopinion":4324,"Ġbecomes":4325,"Ġcondition":4326,"Get":4327,"uries":4328,"Ġreject":4329,"ĠMal":4330,"Ġonto":4331,"Ġbasis":4332,"Ġdestroy":4333,"Ġadvantage":4334,"Ġassociated":4335,"Ġachieve":4336,"Ġload":4337,"Ġ80":4338,"ĠDel":4339,"bert":4340,"Ġhundreds":4341,"Ġdefe":4342,"Ġobtain":4343,"Ġpartners":4344,"oom":4345,"GB":4346,"icip":4347,"Ġunderstanding":4348,"Ġsleep":4349,"Ġborn":4350,"Ġsurround":4351,"ĠMil":4352,"75":4353,"upp":4354,"coming":4355,"Ġopened":4356,"odes":4357,"orthern":4358,"Ġdouble":4359,"Ġmarriage":4360,"Ġannounce":4361,"Ġthus":4362,"Ġlegislation":4363,"Ġice":4364,"Ġassum":4365,"Ġlimit":4366,"Ġaccused":4367,"Ġcamera":4368,"ĠSecurity":4369,"Ġeasier":4370,"ading":4371,"FC":4372,"Ġmanagement":4373,"outhern":4374,"lant":4375,"Ġbecoming":4376,"well":4377,"la":4378,"Ġcontrovers":4379,"ander":4380,"Ġspl":4381,"Ġillegal":4382,"Ġharm":4383,"Ġ31":4384,"Ġresist":4385,"36":4386,"ĠGreat":4387,"ĠBig":4388,"ĠMany":4389,"ĠWindows":4390,"38":4391,"Ġscientists":4392,"0000":4393,"ortunately":4394,"Ġnine":4395,"eline":4396,"Ġunlike":4397,"Ġwinning":4398,"ĠSanders":4399,"olf":4400,"Ġlocation":4401,"Ġwealth":4402,"Ġjoin":4403,"witch":4404,"ĠÃ":4405,"Ġ90":4406,"Ġbomb":4407,"Ġphoto":4408,"rey":4409,"Ġpurpose":4410,"known":4411,"ĠHall":4412,"ios":4413,"Ġframe":4414,"Ġshared":4415,"ĠIslamic":4416,"Ġship":4417,"Ġbelief":4418,"Ġneighbor":4419,"Ġinitial":4420,"Ġprofessional":4421,"Ġaudience":4422,"Ġactive":4423,"Ġ2006":4424,"level":4425,"32":4426,"Ġbottom":4427,"Ġbed":4428,"Ġspecies":4429,"Ġextremely":4430,"Ġdocuments":4431,"Ġmarijuana":4432,"ih":4433,"Ġserve":4434,"ĠAdd":4435,"Ġdepartment":4436,"ĠTer":4437,"Ġserved":4438,"Ġnegative":4439,"Ġvictims":4440,"BS":4441,"Ġdoubt":4442,"Mr":4443,"Ġdie":4444,"orrow":4445,"Ġ35":4446,"Ġstrik":4447,"za":4448,"PS":4449,"ĠYour":4450,"Ġrat":4451,"ĠLab":4452,"Ġexisting":4453,"ears":4454,"ĠCommun":4455,"ghan":4456,"Ġreduce":4457,"Ġmicro":4458,"ĠInstitute":4459,"Ġreturned":4460,"Ġamb":4461,"ĠInc":4462,"Ġnotice":4463,"Bl":4464,"Ġincred":4465,"irgin":4466,"Ġran":4467,"Ġmobile":4468,"atically":4469,"Ġelectric":4470,"tered":4471,"Ġwatching":4472,"ĠUk":4473,"ĠMad":4474,"Ġfalse":4475,"Ġexplain":4476,"ĠArt":4477,"Ġputting":4478,"Ġmachine":4479,"Ġargument":4480,"ario":4481,"ĠSl":4482,"Ġpurs":4483,"ĠCanadian":4484,"Ġsolid":4485,"lands":4486,"iful":4487,"zen":4488,"Ġvictory":4489,"Ġleadership":4490,"Ġcoverage":4491,"Ġfaith":4492,"Ġdefinitely":4493,"Ġunc":4494,"Ġinternet":4495,"ĠBank":4496,"met":4497,"istics":4498,"Ġcommittee":4499,"house":4500,"ĠCarol":4501,"Ġcomfort":4502,"Ġcommunities":4503,"Ġconservative":4504,"Ġnotes":4505,"Ġsun":4506,"acity":4507,"ada":4508,"Ġhearing":4509,"scrib":4510,"ĠAM":4511,"ĠDist":4512,"resp":4513,"iller":4514,"ography":4515,"ipp":4516,"ĠEv":4517,"ĠFBI":4518,"which":4519,"Ġinstance":4520,"Ġreact":4521,"itt":4522,"PA":4523,"Ġsites":4524,"Ġchurch":4525,"Ġlaunched":4526,"Ġradio":4527,"Ġseparate":4528,"Ġsupporters":4529,"ĠOver":4530,"gency":4531,"Ġviews":4532,"Ġtrend":4533,"Ġdangerous":4534,"Ġfresh":4535,"Ġdirection":4536,"EM":4537,"34":4538,"ipped":4539,"Ġvehicle":4540,"Ġbackground":4541,"Ġteach":4542,"Ġdrugs":4543,"Ġissued":4544,"Ġ;":4545,"works":4546,"iliar":4547,"ĠPri":4548,"........":4549,"asy":4550,"Ġappeal":4551,"omas":4552,"Ġcharged":4553,"Ġlabor":4554,"Ġmax":4555,"Ð¾":4556,"ĠFin":4557,"ĠChurch":4558,"inct":4559,"Ġnorth":4560,"________":4561,"ĠDirect":4562,"Ġdriver":4563,"Image":4564,"Ġstated":4565,"Ġcompetition":4566,"Ġdriving":4567,"bing":4568,"ãĥ":4569,"Ġhus":4570,"Ġtraffic":4571,"ribute":4572,"ĠLike":4573,"Ġworst":4574,"Ġepisode":4575,"Ġsuggested":4576,"anted":4577,"Ġfloor":4578,"ĠGame":4579,"====":4580,"NA":4581,"Ġdaughter":4582,"ĠSince":4583,"going":4584,"hem":4585,"vention":4586,"Ġcards":4587,"Ġtools":4588,"Ġcontain":4589,"Ġitems":4590,"Ġrestaur":4591,"Ġclosed":4592,"Ġcommercial":4593,"Ġhack":4594,"Ġrefere":4595,"Ġexerc":4596,"Ġdecade":4597,"Ġ70":4598,"ady":4599,"ference":4600,"Ġsett":4601,"Ġsmaller":4602,"Ġstructure":4603,"Ġded":4604,"Ġspoke":4605,"Ġtelling":4606,"Ġdiscovered":4607,"ampionship":4608,"ĠLos":4609,"andom":4610,"Ġplays":4611,"Ġcash":4612,"ĠFox":4613,"Ġnor":4614,"Ġanimals":4615,"semb":4616,"Ġrepeated":4617,"Ġcompar":4618,"Americ":4619,"Ġentirely":4620,"ait":4621,"Ġtask":4622,"oman":4623,"Ġfarm":4624,"ĠIsraeli":4625,"Ġfinding":4626,"ĠWil":4627,"Ġdisease":4628,"ctors":4629,"kins":4630,"CH":4631,"ulf":4632,"ibrary":4633,"NN":4634,"ĠQue":4635,"ulated":4636,"but":4637,"Ġcandidates":4638,"Ġsupported":4639,"ĠBritain":4640,"Ġexperiment":4641,"Ġtransfer":4642,"37":4643,"55":4644,"overy":4645,"Ġnovel":4646,"night":4647,"do":4648,"Ġcateg":4649,"Ġtesting":4650,"Ġconsequ":4651,"Ġgay":4652,"Ġtransport":4653,"Ġaspect":4654,"48":4655,"ici":4656,"Ġolder":4657,"Ġcontext":4658,"ĠAc":4659,"Ġconcerned":4660,"ava":4661,"Ġsurface":4662,"!âĢĿ":4663,"Ġwel":4664,"iling":4665,"how":4666,"Ġge":4667,"andon":4668,"Ġrequires":4669,"azon":4670,"âĢĺ":4671,"Ġactivities":4672,"equ":4673,"ĠChris":4674,"OL":4675,"ĠUN":4676,"Ġlargely":4677,"Ġplease":4678,"Ġblue":4679,"Ġstrength":4680,"ĠJones":4681,"ĠRobert":4682,"Ġallowing":4683,"rick":4684,"annel":4685,"Ġdecisions":4686,"Ġbelieves":4687,"phone":4688,"spe":4689,"ossible":4690,"Ġmurder":4691,"Ġannual":4692,"Ġtruly":4693,"izes":4694,"oyal":4695,"Ġaccur":4696,"ĠTre":4697,"Ġgeneration":4698,"Ġcaught":4699,"Ġconstruction":4700,"rim":4701,"ĠSup":4702,"Ġstock":4703,"Ġinsurance":4704,"Ġhighlight":4705,"icy":4706,"igrants":4707,"Ġafford":4708,"lor":4709,"Ġjustice":4710,"Ġattend":4711,"Ġfuel":4712,"Ġstrateg":4713,"Ġraise":4714,"Ġconcern":4715,"Ġbusinesses":4716,"Ġpresence":4717,"ancy":4718,"Ġwitness":4719,"Ġphil":4720,"SP":4721,"ĠAre":4722,"Ġholding":4723,"osure":4724,"arant":4725,"inter":4726,"ĠSil":4727,"ĠPC":4728,"olly":4729,"ĠGree":4730,"ception":4731,"ĠMer":4732,"âĢ¢":4733,"cknow":4734,"itable":4735,"pective":4736,"tery":4737,"ey":4738,"Ġsan":4739,"Ġplaced":4740,"Ġcells":4741,"anging":4742,"bour":4743,"ĠAfghan":4744,"ius":4745,"Ġguess":4746,"bre":4747,"ĠUkrain":4748,"Ġestablish":4749,"ĠAssociation":4750,"Ġmentioned":4751,"ĠMiss":4752,"ocracy":4753,"ĠGOP":4754,"Ġrough":4755,"Le":4756,"Ġtim":4757,"itz":4758,"Ġtells":4759,"ĠKen":4760,"Ġplanning":4761,"Ġjoined":4762,"ĠVer":4763,"Ġwaiting":4764,"Ġiniti":4765,"vant":4766,"ĠAfrican":4767,"Ġspokesman":4768,"Ġhasn":4769,"39":4770,"icon":4771,"Ġlength":4772,"ĠJeff":4773,"ĠJim":4774,"More":4775,"ĠAngeles":4776,"Ġoccup":4777,"Ġcancer":4778,"ĠTy":4779,"Ġrefuge":4780,"Ġscale":4781,"Ġobvious":4782,"Ġcatch":4783,"Ġ2018":4784,"cks":4785,"Ġmissing":4786,"nel":4787,"Ġconflict":4788,"ula":4789,"Ġeat":4790,"Ġremoved":4791,"Ġinterests":4792,"Ġproviding":4793,"lig":4794,"Ġinjury":4795,"DA":4796,"Ġenforcement":4797,"ĠAfrica":4798,"onto":4799,"ĠPre":4800,"Ġdownload":4801,"isation":4802,"Ġkid":4803,"Ġsports":4804,"Ġdeliver":4805,"Ġconversation":4806,"Ġsouth":4807,"ĠInstead":4808,"anda":4809,"Ġuseful":4810,"ĠLouis":4811,"Ġrecommend":4812,"Ġhousing":4813,"Ġoffensive":4814,"Ġstopped":4815,"Ġcook":4816,"Ġskills":4817,"47":4818,"ronic":4819,"!!":4820,"Ġsetting":4821,"what":4822,"Ġestablished":4823,"Ġbanks":4824,"Ġoperation":4825,"ĠMexico":4826,"Ġmodels":4827,"oted":4828,"Ġsequ":4829,"owl":4830,"oms":4831,"Ġdiscussion":4832,"ĠPak":4833,"Ġnewsp":4834,"umn":4835,"ros":4836,"Ġstick":4837,"Ġhomes":4838,"Ġfocused":4839,"Ġupdate":4840,"ĠJewish":4841,"season":4842,"Pl":4843,"ĠFore":4844,"Ġspirit":4845,"Our":4846,"Ġabuse":4847,"Ġintroduced":4848,"##":4849,"real":4850,"rd":4851,"Ġfourth":4852,"Ġunit":4853,"Ġfiles":4854,"ĠFrank":4855,"ĠPalestin":4856,"ulate":4857,"Ġtransl":4858,"Ġassess":4859,"ĠConst":4860,"Ġearth":4861,"Ġmeasures":4862,"ĠMP":4863,"formation":4864,"Ġarrived":4865,"Ġfant":4866,"Ġgraph":4867,"ĠCEO":4868,"Ġgirls":4869,"Ġ2005":4870,"ications":4871,"mail":4872,"ĠRock":4873,"Ġconclud":4874,"Ġmanaged":4875,"azine":4876,"ĠJud":4877,"Ġacknow":4878,"wing":4879,"Ġidentified":4880,"ĠMicrosoft":4881,"Ġfigures":4882,"ĠLeg":4883,"ĠProf":4884,"ĠSal":4885,"Ġprefer":4886,"ĠTim":4887,"RA":4888,"kin":4889,"itutional":4890,"ĠMet":4891,"iter":4892,"Ġsteps":4893,"Ġbul":4894,"Ġkeeping":4895,"Ġappropri":4896,"Ġotherwise":4897,"place":4898,"Ġexclus":4899,"ĠVirgin":4900,"Ġtough":4901,"Ġpartner":4902,"Ġsurvey":4903,"Ġcommitted":4904,"ĠGroup":4905,"rency":4906,"Ġfunds":4907,"Ġhair":4908,"Ġexchange":4909,"Ġveter":4910,"ĠJapanese":4911,"Ġtrip":4912,"49":4913,"Ġtherefore":4914,"outs":4915,"agn":4916,"Ġrelatively":4917,"ĠNor":4918,"ication":4919,"Ġidentity":4920,"ocal":4921,"ka":4922,"apped":4923,"ĠStep":4924,"ups":4925,"Ġslightly":4926,"Ġdetect":4927,"Des":4928,"Ġprotection":4929,"Ġowner":4930,"Ġfinished":4931,"Ġ2000":4932,"amm":4933,"89":4934,"Ġhusband":4935,"igan":4936,"Ġphotos":4937,"Ġdefensive":4938,"ĠYes":4939,"ĠSupreme":4940,"Ġtweet":4941,"ĠRichard":4942,"Ġclick":4943,"ĠInter":4944,"Ġcircum":4945,"Ġconnection":4946,"Ġfeels":4947,"Ġcollection":4948,"prof":4949,"Ġkilling":4950,"ĠKh":4951,"ils":4952,"icide":4953,"Ġgender":4954,"vis":4955,"ĠSur":4956,"ĠRyan":4957,"enses":4958,"46":4959,"Ġgain":4960,"ĠAndroid":4961,"Ġelements":4962,"=\"":4963,"ĠMont":4964,"Ġdepend":4965,"verse":4966,"makers":4967,"ga":4968,"uct":4969,"Ġmere":4970,"isf":4971,"ĠTHE":4972,"Ġweak":4973,"Ġcorner":4974,"Ġscientific":4975,"dden":4976,"Go":4977,"with":4978,"Ġsupply":4979,"Ġdat":4980,"Ġsuggests":4981,"ĠMartin":4982,"Ġamazing":4983,"ĠIr":4984,"Ġaggress":4985,"ĠGovernment":4986,"eah":4987,"Ġcrew":4988,"Ġfailure":4989,"Ġstrike":4990,"Ã¡":4991,"Ġseconds":4992,"Ġguard":4993,"ighter":4994,"pm":4995,"Ġremind":4996,"ĠJose":4997,"hens":4998,"Ġspect":4999,"Ġsust":5000,"Ġnone":5001,"rees":5002,"Ġbigger":5003,"Ġfle":5004,"ĠTeam":5005,"Ġroll":5006,"Ġrevolution":5007,"Ġsides":5008,"ancing":5009,"Ġcommission":5010,"ĠAlthough":5011,"Ġhate":5012,"mas":5013,"ĠArmy":5014,"Ġhappening":5015,"onym":5016,"Why":5017,"ĠGood":5018,"Ġtalks":5019,"ĠJoe":5020,"lo":5021,"Ġimmigration":5022,"Ġthanks":5023,"TC":5024,"ĠWeb":5025,"Ġorganizations":5026,"gar":5027,"ĠOut":5028,"Ġdecide":5029,"ucky":5030,"Ġmental":5031,"Ġplanned":5032,"Ġcarried":5033,"gers":5034,"uters":5035,"uke":5036,"ym":5037,"Ġspeaking":5038,"Ġtaxes":5039,"stream":5040,"ĠPet":5041,"imal":5042,"uate":5043,"Trump":5044,"odies":5045,"adium":5046,"Ġaward":5047,"Ġwish":5048,"ĠSub":5049,"Ġappoint":5050,"agues":5051,"Ġwindow":5052,"ĠBern":5053,"Ġsudden":5054,"idering":5055,"Ġfamiliar":5056,"ĠFire":5057,"Photo":5058,"Ġbeer":5059,"Ġstarts":5060,"Ġ32":5061,"gn":5062,"iams":5063,"eless":5064,"Ġtack":5065,"Ġpet":5066,"ania":5067,"Ġmarkets":5068,"hedul":5069,"ĠTheir":5070,"awn":5071,"ano":5072,"ĠResearch":5073,"run":5074,"arsh":5075,"Ġfiled":5076,"Ġdomestic":5077,"olit":5078,"ola":5079,"Ġstruct":5080,"Ġregist":5081,"Ġstanding":5082,"ĠSecretary":5083,"Ġmulti":5084,"Last":5085,"65":5086,"Ġhelping":5087,"ĠAtlant":5088,"Ġ45":5089,"ynam":5090,"ĠDec":5091,"Ġenvironmental":5092,"range":5093,"Ġvotes":5094,"Ġinteract":5095,"Ġvariety":5096,"Ġaccounts":5097,"gypt":5098,"Ġque":5099,"****":5100,"Ġplanet":5101,"hi":5102,"Ġpit":5103,"erous":5104,"itect":5105,"Ġscript":5106,"ĠCollege":5107,"Ġphilos":5108,"Ġacadem":5109,"iot":5110,"HL":5111,"Ġstandards":5112,"acks":5113,"Ġimpossible":5114,"Ġarmy":5115,"Ġunion":5116,"!\"":5117,"Ġskin":5118,"ĠMary":5119,"fe":5120,"()":5121,"ĠAlso":5122,"Ġprofessor":5123,"Ġappre":5124,"ĠThomas":5125,"illa":5126,"Ġserver":5127,"Ġdegree":5128,"Ġpair":5129,"stein":5130,"01":5131,"Ġpossibly":5132,"Ġcold":5133,"ĠBur":5134,"ĠSyrian":5135,"Ġhonest":5136,"Ġalternative":5137,"Ġdropped":5138,"Ġvul":5139,"aren":5140,"Ġapparently":5141,"ruit":5142,"ĠCarolina":5143,"Ġturns":5144,"oston":5145,"ĠUs":5146,"rastructure":5147,"aven":5148,"Ġterrit":5149,"Ġreligion":5150,"Ġsch":5151,"ansion":5152,"Ġsolar":5153,"ocol":5154,"31":5155,"Ġrich":5156,"Ġincreasingly":5157,"Ġhumans":5158,"Ġneighborhood":5159,"Ġlosing":5160,"icted":5161,"ores":5162,"Ġsettle":5163,"aded":5164,"Ġworry":5165,"Ġultimately":5166,"Ġcolle":5167,"arks":5168,"Ġpaying":5169,"Ġtests":5170,"Ġchanging":5171,"Ġlived":5172,"gu":5173,"ader":5174,"Ġbalance":5175,"ĠMos":5176,"Ġoperating":5177,"ĠPrime":5178,"iser":5179,"ĠFoundation":5180,"ayer":5181,"].":5182,"ĠDen":5183,"ĠTwo":5184,"Ġath":5185,"Ġfellow":5186,"Ġagencies":5187,"Ġtwice":5188,"Ġdevelopers":5189,"ĠLast":5190,"Ġcloser":5191,"Ġauthority":5192,"Ġprinc":5193,"ipment":5194,"look":5195,"ĠImages":5196,"Ġabsolutely":5197,"Ġflight":5198,"roud":5199,"Ġapply":5200,"Ġanimal":5201,"From":5202,"Ġdeveloping":5203,"Ġunivers":5204,"Ġgar":5205,"Ġcorporate":5206,"Read":5207,"Ġpossibility":5208,"Ġexpensive":5209,"ĠService":5210,"Ġmut":5211,"ashed":5212,"Ġcovered":5213,"Ġregarding":5214,"Ġcuts":5215,"Ġhealthy":5216,"Of":5217,"Ġpil":5218,"Ġfundament":5219,"Ġinnov":5220,"atures":5221,"Ġsounds":5222,"Ġadjust":5223,"Ġyards":5224,"Ġvast":5225,"ĠTime":5226,"Ġexperts":5227,"cious":5228,"Ġseeking":5229,"Ġimagine":5230,"ĠCamp":5231,"Ġschedul":5232,"ologies":5233,"Ġapart":5234,"ĠCentral":5235,"ĠUnder":5236,"Ġsoldiers":5237,"Ġwriter":5238,"Ð°":5239,"ias":5240,"Ġsea":5241,"ĠToronto":5242,"Ġdeploy":5243,"anche":5244,"Ġapplications":5245,"isted":5246,"obby":5247,"Ġresponsibility":5248,"ĠLat":5249,"Ġbeautiful":5250,"Ġunits":5251,"apers":5252,"Ġtast":5253,"ĠUSA":5254,"Ġarms":5255,"aine":5256,"âĢĶâĢĶ":5257,"Ġsitting":5258,"Ġfol":5259,"och":5260,"ĠJon":5261,"Ġheat":5262,"Ġelections":5263,"ĠPeter":5264,"coh":5265,"Even":5266,"uster":5267,"Ġunless":5268,"Ðµ":5269,"Ġ2004":5270,"ĠPlan":5271,"enced":5272,"Ġcapacity":5273,"Ġearn":5274,"ĠBitcoin":5275,"IM":5276,"ĠFrancisco":5277,"Ġsurprise":5278,"ĠAri":5279,"den":5280,"Ġvision":5281,"osen":5282,"ĠPublic":5283,"ortion":5284,"uration":5285,"Ġuniversity":5286,"under":5287,"ĠST":5288,"Ġclim":5289,"state":5290,"Ġfamous":5291,"Ġinternal":5292,"ressive":5293,"related":5294,"ĠMiddle":5295,"Ġattorney":5296,"ĠDistrict":5297,"alls":5298,"ĠJo":5299,"oving":5300,"Ġconvention":5301,"uzz":5302,"ĠPut":5303,"Ġtight":5304,"Ġconsult":5305,"Ġteen":5306,"Ġrid":5307,"Ġhelps":5308,"idden":5309,"Ġtrail":5310,"Ġerror":5311,"Ġpresented":5312,"Ġforms":5313,"Ġinstit":5314,"ĠMur":5315,"Ġfif":5316,"person":5317,"lets":5318,"ours":5319,"Ġoccurred":5320,"Ġstars":5321,"IV":5322,"Ġdetermine":5323,"Ġflow":5324,"Ġintended":5325,"Ġguarant":5326,"ini":5327,"Ġodd":5328,"useum":5329,"Ġsymb":5330,"Just":5331,"Ġfired":5332,"ĠAmazon":5333,"Ġton":5334,"OW":5335,"rible":5336,"Ġvehicles":5337,"Ġsport":5338,"Ġexpert":5339,"ĠThose":5340,"Ġbroken":5341,"Up":5342,"porary":5343,"ĠJes":5344,"Ġboost":5345,"Ġestimated":5346,"Let":5347,"Ġrapid":5348,"ĠEgypt":5349,"hand":5350,"Ġdomin":5351,"Ġspecifically":5352,"terday":5353,"Ġgovernments":5354,"ĠCath":5355,"ĠSol":5356,"Ab":5357,"Ġstreets":5358,"ĠAN":5359,"Ġreserv":5360,"eder":5361,"Ġtroops":5362,"pire":5363,"IP":5364,"Ġhyp":5365,"ĠRub":5366,"Ġprepared":5367,"Ġpotentially":5368,"Ġconclus":5369,"LE":5370,"ĠJournal":5371,"Ġscr":5372,"Ġbringing":5373,"ĠFederal":5374,"phas":5375,"DP":5376,"Ġequal":5377,"Ġlocated":5378,"Ġprove":5379,"Ġproposal":5380,"Ġnar":5381,"Ġfactors":5382,"ION":5383,"endment":5384,"Ġweapon":5385,"Ġequipment":5386,"gl":5387,"road":5388,"ĠOnce":5389,"Ġcouncil":5390,"ĠChief":5391,"anish":5392,"Ġsector":5393,"orage":5394,"Ġshall":5395,"Ġplenty":5396,"ĠBoston":5397,"Ġstress":5398,"Ġpieces":5399,"Ġvir":5400,"ĠCru":5401,"Ġselling":5402,"Ġfaster":5403,"vey":5404,"oty":5405,"Ġclot":5406,"Ġrandom":5407,"Ġinfrastructure":5408,"Ġvoted":5409,"ashion":5410,"Ġjail":5411,"ĠParis":5412,"Ġvulner":5413,"ĠRiver":5414,"Do":5415,"ĠMass":5416,"mm":5417,"Ġclin":5418,"ĠLee":5419,"Ġheav":5420,"Ġtourn":5421,"ĠMedic":5422,"Ġbrow":5423,"Ġbaby":5424,"Every":5425,"inent":5426,"ĠProt":5427,"ĠWilliams":5428,"ĠVirginia":5429,"TH":5430,"ĠSocial":5431,"Ġcombat":5432,"Ġconducted":5433,"Ġdram":5434,"Ġchallenges":5435,"ht":5436,"Ġprosecut":5437,"Ġoffering":5438,"ĠRem":5439,"Ġremove":5440,"ĠMel":5441,"noon":5442,"Ġrefused":5443,"edia":5444,"ĠSant":5445,"Ġelected":5446,"Ġsecure":5447,"isher":5448,"ĠCur":5449,"cel":5450,"Ġpositions":5451,"yr":5452,"rie":5453,"Ġexpressed":5454,"First":5455,"ĠGal":5456,"Ġremained":5457,"ENT":5458,"Ġtrig":5459,"----------------":5460,"Ġruling":5461,"ĠPlease":5462,"ĠAustralian":5463,"Ġbreat":5464,"Ġpointed":5465,"Ġcriticism":5466,"Ġmethods":5467,"ĠIN":5468,"Ġretail":5469,"Ġdin":5470,"that":5471,"onom":5472,"ĠGuard":5473,"olved":5474,"war":5475,"Ġseasons":5476,"Ġreduced":5477,"Ġera":5478,"Ġprime":5479,"ureau":5480,"Ġcultural":5481,"Ġbroke":5482,"ĠSing":5483,"ĠRo":5484,"Ġvoting":5485,"ĠSpr":5486,"PD":5487,"ĠAny":5488,"Ġtele":5489,"lyn":5490,"Ġsignificantly":5491,"ĠIsland":5492,"ipping":5493,"Ġpercentage":5494,"Ġregime":5495,"Ġchemical":5496,"Ġappearance":5497,"etic":5498,"cean":5499,"64":5500,"Ġshape":5501,"Ġsigns":5502,"ĠConserv":5503,"class":5504,"Ġinvolve":5505,"Ġoriginally":5506,"Ġaffected":5507,",'":5508,"Ġthank":5509,"Ġcarbon":5510,"Ġfacing":5511,"ĠDuring":5512,"Sp":5513,"Ġfinish":5514,"ocking":5515,"ĠOpen":5516,"Ġhttps":5517,"Ġminimum":5518,"Ġyouth":5519,"pired":5520,"sen":5521,"ighters":5522,"Ġindeed":5523,"Ġstret":5524,"Ġmaster":5525,"Ġremaining":5526,"Ġherself":5527,"Ġweren":5528,"ĠWho":5529,"standing":5530,"05":5531,"rog":5532,"Ġhun":5533,"ĠFe":5534,"ordin":5535,"Ġmarg":5536,"Ġobviously":5537,"Ġdetermined":5538,"ĠColor":5539,"Ġvideos":5540,"Ġsubs":5541,"ĠSaud":5542,"lymp":5543,"Ġgrew":5544,"anged":5545,"Ġsale":5546,"Ġthr":5547,"ĠPhoto":5548,"arp":5549,"Ġgreatest":5550,"Ġhurt":5551,"hab":5552,"Ġbought":5553,"ĠBoth":5554,"IG":5555,"Ġexcited":5556,"Since":5557,"Ġ500":5558,"Ġdream":5559,"Ġrent":5560,"Ġrecorded":5561,"\":":5562,"top":5563,"Ġaccident":5564,"Ġturning":5565,"Ġcas":5566,"Ġwearing":5567,"95":5568,"ownt":5569,"Ġsupporting":5570,"aling":5571,"Ġexplos":5572,"rier":5573,"ĠSteve":5574,"reens":5575,"raud":5576,"ĠForce":5577,"Ġpoliticians":5578,"ĠPower":5579,"Ġ//":5580,"Ġleads":5581,"Ġsurprising":5582,"Ġcontrast":5583,"Ġargued":5584,"Ġrevenue":5585,"Ġemergency":5586,"Ġappreci":5587,"Ġtact":5588,"Ġconsidering":5589,"Ġmotiv":5590,"eds":5591,"Ġwood":5592,"Ġproced":5593,"essions":5594,"Ġminute":5595,"Ġbasically":5596,"Ġprospect":5597,"Ġidentify":5598,"Ġdifferences":5599,"Ġaid":5600,"Ġswitch":5601,"Ġplants":5602,"Ġhandle":5603,"odd":5604,"Ġagent":5605,"Ġstruggle":5606,"gment":5607,"Ġvisual":5608,"life":5609,"Ġmode":5610,"Ġ1990":5611,"bur":5612,"Ġaircraft":5613,"Ġafternoon":5614,"apping":5615,"Ġseriously":5616,"apter":5617,"Ġpurchase":5618,"Ġbound":5619,"ĠPac":5620,"Ġtur":5621,"Ġshift":5622,"Ġglass":5623,"Ġcompleted":5624,"TV":5625,"Another":5626,"Ġevening":5627,"ĠRad":5628,"Ġopportunities":5629,"osite":5630,"Ġconcent":5631,"Ġlisten":5632,"ĠShow":5633,"Ġenemy":5634,"Ġconsumers":5635,"asp":5636,"SS":5637,"Ġdistance":5638,"ĠCharl":5639,"Ġplus":5640,"Ġpulled":5641,"unction":5642,"Ġbelong":5643,"ĠBook":5644,"ternal":5645,"Ġapps":5646,"Ġmort":5647,"ĠHaw":5648,"CL":5649,"Ġcalcul":5650,"Ġast":5651,"His":5652,"ĠDaily":5653,"ĠFree":5654,"Ġexperienced":5655,"Ġvalid":5656,"ruption":5657,"ĠJackson":5658,"oral":5659,",[":5660,"Ġends":5661,"hy":5662,"42":5663,"Ġdiss":5664,"Ġelement":5665,"Ġwidely":5666,"aled":5667,"Ġdepart":5668,"Ġpanel":5669,"ogue":5670,"Ġlots":5671,"Ġpassing":5672,"Ġfilms":5673,"pet":5674,"col":5675,"adow":5676,"Ġseat":5677,"nell":5678,"ĠHol":5679,"Ġcombined":5680,"Pe":5681,"hered":5682,"Ġcopyright":5683,"cohol":5684,"Ġopposed":5685,"Ġprivacy":5686,"ĠSpace":5687,"Ġspring":5688,"ket":5689,"Ġtalked":5690,"uts":5691,"Ġtun":5692,"Ġid":5693,"Ġadvance":5694,"Ġproceed":5695,"Ġdismiss":5696,"ĠProject":5697,"Ġsuit":5698,"Am":5699,"abilities":5700,"Ġtreated":5701,"Ġhopes":5702,"Ġ195":5703,"ivered":5704,"ĠBet":5705,"estival":5706,"ucks":5707,"Well":5708,"Ġburn":5709,"Ġattempts":5710,"idel":5711,"ĠRoad":5712,"ensions":5713,"oking":5714,"Ġcollabor":5715,"Ġdefault":5716,"Ġwrites":5717,"App":5718,"ĠRel":5719,"ĠOlymp":5720,"Ġfrust":5721,"Ġfactor":5722,"Ġtradition":5723,"Ġpowers":5724,"ache":5725,"elly":5726,"Ġstorm":5727,"Ġtrouble":5728,"rawn":5729,"Ind":5730,"Ġliberal":5731,"sts":5732,"Ġpages":5733,"aints":5734,"Ġreaction":5735,"zer":5736,"uous":5737,"razy":5738,"Ġquiet":5739,"Ġconstruct":5740,"Ġflat":5741,"obe":5742,"ompl":5743,"Ġ2003":5744,"Ġzone":5745,"Ġpackage":5746,"aniel":5747,"esters":5748,"De":5749,"Ġapproved":5750,"Ġconfidence":5751,"Ġmal":5752,"ĠBBC":5753,"Ġdiscl":5754,"lines":5755,"rant":5756,"Ġgrab":5757,"ller":5758,"ffee":5759,"Ġhol":5760,"ĠToday":5761,"ita":5762,"Ġquant":5763,"respond":5764,"plom":5765,"Ġreporters":5766,"Ġweather":5767,"ĠMatt":5768,"care":5769,"Ġexplo":5770,"Ġmatters":5771,"ĠTra":5772,"Ġentertain":5773,"edd":5774,"Ġcart":5775,"Ġupgr":5776,"ĠNov":5777,"Ġdenied":5778,"ĠLin":5779,"Ġtypically":5780,"ĠSqu":5781,"ributed":5782,"Ġsac":5783,"Ġinstitutions":5784,"Ġ2001":5785,"Ġdisappoint":5786,"mosp":5787,"ĠPakistan":5788,"Ġunable":5789,"Ġsets":5790,"mond":5791,"Ġcoast":5792,"Ġrenew":5793,"Ġ36":5794,"ĠDirector":5795,"ĠMem":5796,"Ġsplit":5797,"Ġreference":5798,"ato":5799,"Ġstands":5800,"77":5801,"Ġperspective":5802,"Ġconfident":5803,"ĠHuman":5804,"Ġinstruct":5805,"Ġtransition":5806,"UT":5807,"Ġgiant":5808,"Ġmovies":5809,"Ġcapable":5810,"Ġsatisf":5811,"Ġelimin":5812,"],":5813,"43":5814,"Ġflag":5815,"Ġcloud":5816,"can":5817,"ĠOhio":5818,"ĠYet":5819,"Ġoptim":5820,"Ġpictures":5821,"Ġnumerous":5822,"Ġbroadcast":5823,"oken":5824,"Ġsem":5825,"Ġcreation":5826,"Cont":5827,"Ġpitch":5828,"free":5829,"ĠAfghanistan":5830,"Ġprompt":5831,"Ġcrimes":5832,"aped":5833,"Ġreportedly":5834,"Ġreporting":5835,"host":5836,"unte":5837,"rid":5838,"Ġbodies":5839,"ilit":5840,"Ġtechnical":5841,"Ġresponded":5842,"ĠScience":5843,"ĠWal":5844,"ĠSystem":5845,"xual":5846,"ilty":5847,"Ġdelay":5848,"ĠMa":5849,"Ġarchitect":5850,"Ġproud":5851,"isters":5852,"Ġfly":5853,"Ġroute":5854,"Ġexplains":5855,"Ġcraft":5856,"astern":5857,"Ġsevere":5858,"ĠNAS":5859,"Ġmand":5860,"evin":5861,"usiness":5862,"Ġleaves":5863,"Ġfaces":5864,"ĠWilliam":5865,"Ġdeclined":5866,"ĠTurkey":5867,"MA":5868,"Ġdeclared":5869,"ĠAndrew":5870,"ĠMedia":5871,"ĠiPh":5872,"Ġcaption":5873,"ĠPenn":5874,"writ":5875,"Ġexperiences":5876,"pass":5877,"Ġshouldn":5878,"Ġordered":5879,"Ġforget":5880,"Ġconnected":5881,"abin":5882,"Ġviolent":5883,"Ġongoing":5884,"Ġnewspaper":5885,"ounded":5886,"Ġfindings":5887,"Se":5888,"erry":5889,"abled":5890,"oves":5891,"Ġsuffered":5892,"Ġadmitted":5893,"OD":5894,"Ġadvice":5895,"Ġcircumst":5896,"ĠRon":5897,"Ġinjured":5898,"Ġcooper":5899,"ĠFollow":5900,"Rep":5901,"Ġgather":5902,"Ġsubstant":5903,"Ġ=>":5904,"nergy":5905,"Ġapprox":5906,"ishes":5907,"ĠAv":5908,"resents":5909,"ĠLabour":5910,"Ġlegit":5911,"ĠSov":5912,"Over":5913,"Ġpublicly":5914,"Ġexercise":5915,"PR":5916,"Ġgra":5917,"88":5918,"ampion":5919,"Ġpool":5920,"ĠPhot":5921,"Ġadvert":5922,"Ġbull":5923,"LS":5924,"essor":5925,"Ġemphas":5926,"Ġdelivered":5927,"Ġactivists":5928,"Ġmessages":5929,"tion":5930,"Ġpicked":5931,"ulations":5932,"ĠGrand":5933,"uations":5934,"Ġcann":5935,"called":5936,"Ġguns":5937,"arl":5938,"razil":5939,"Ġreaders":5940,"Ġprin":5941,"Ġlabel":5942,"ĠSher":5943,"ĠTechn":5944,"Ġupdates":5945,"Ġedge":5946,"Ġloved":5947,"Ġstatements":5948,"dule":5949,",âĢĻ":5950,"aza":5951,"Ġargue":5952,"ĠRev":5953,"ette":5954,"ĠSeattle":5955,"ĠDou":5956,"Other":5957,"Ġauth":5958,"66":5959,"Ġeditor":5960,"ĠID":5961,"Ġagents":5962,"During":5963,"reland":5964,"Ġquarterback":5965,"Ġperman":5966,"employ":5967,"41":5968,"Ġdrivers":5969,"Ġsession":5970,"Ġappropriate":5971,"Ġexcell":5972,"Ġwalking":5973,"ionally":5974,"ĠJul":5975,"rum":5976,"Ġaccompl":5977,"angers":5978,"Ġpatient":5979,"ĠChristmas":5980,"ĠBack":5981,"ĠHy":5982,"Ġbond":5983,"Ġbuildings":5984,"Ġrealize":5985,"ĠMuslims":5986,"Ġcentre":5987,"Ġemails":5988,"Ġlawyer":5989,"Ġ1980":5990,"Ġthoughts":5991,"Ġphilosoph":5992,"ellow":5993,"Ġourselves":5994,"ĠWood":5995,"Res":5996,"Ġeval":5997,"cons":5998,"Ġobjects":5999,"Ġpractices":6000,"Ġsad":6001,"enda":6002,"Ð¸":6003,"acter":6004,"Ã¤":6005,"cos":6006,"Ġmarried":6007,"Ġconfirm":6008,"ĠSee":6009,"Ġterrorist":6010,"Ġforg":6011,"Ġvan":6012,"Ġwear":6013,"Ġtalent":6014,"enture":6015,"Ġexpansion":6016,"ÃŃ":6017,"agers":6018,"ĠGen":6019,"Ġsubsequ":6020,"Ġarmed":6021,"Tube":6022,"TS":6023,"ĠIll":6024,"Ġfilled":6025,"Ġtech":6026,"ouston":6027,"Qu":6028,"Ġmissed":6029,"Ġske":6030,"Ĥ¬":6031,"Ġshop":6032,"uls":6033,"Ġrot":6034,"II":6035,"ĠScot":6036,"ĠBat":6037,"Ġcrack":6038,"Ġcauses":6039,"Ġdebut":6040,"Ġclient":6041,"Ġsecretary":6042,"esome":6043,"Ġinjuries":6044,"ourney":6045,"ĠLife":6046,"ĠSign":6047,"Ġfranch":6048,"Ġmaterials":6049,"ĠRomney":6050,"uy":6051,"Ġeffectively":6052,"Ġmotor":6053,"long":6054,"Ġexamples":6055,"xx":6056,"ĠBoard":6057,"Ġdynam":6058,"asure":6059,"word":6060,"Ġallegations":6061,"Many":6062,"ĠRod":6063,"orders":6064,"TA":6065,"Ġrain":6066,"ooth":6067,"Ġartist":6068,"ĠSum":6069,"orse":6070,"Ġdial":6071,"Ġthinks":6072,"Ġplayoff":6073,"ala":6074,"ĠMichigan":6075,"ĠGM":6076,"ĠWork":6077,"ĠDiv":6078,"Ġdecre":6079,"Although":6080,"iat":6081,"Ġrail":6082,"Ġflo":6083,"def":6084,"water":6085,"Ġfacts":6086,"mates":6087,"Oh":6088,"Ġcontains":6089,"PU":6090,"ansas":6091,"ĠKim":6092,"ĠRead":6093,"Ġathlet":6094,"Ġincor":6095,"orry":6096,"Ġinitially":6097,"Ġjoint":6098,"date":6099,"ĠVict":6100,"Ġincreases":6101,"Ġmyster":6102,"illy":6103,"arn":6104,"Ġnecessarily":6105,"Ġtransform":6106,"ador":6107,"Ġradical":6108,"icing":6109,"Ġessentially":6110,"Ġaccepted":6111,"omin":6112,"Ġdatab":6113,"ĠStan":6114,"Ġdesire":6115,"gia":6116,"Ġgovernor":6117,"ĠBlue":6118,"ĠUkraine":6119,"ĠFer":6120,"ĠSaudi":6121,"ĠWeek":6122,"Spe":6123,"Ġperformed":6124,"Ġfaced":6125,"Ġconsequences":6126,"Ġtrib":6127,"Ġyesterday":6128,"ĠSecond":6129,"ĠStr":6130,"Ġnations":6131,"ĠSwed":6132,"Add":6133,"Follow":6134,"Ġsam":6135,"ĠMount":6136,"Ġfish":6137,"Ġpra":6138,"arters":6139,"born":6140,"Ġwarned":6141,"rich":6142,"itors":6143,"Ġannouncement":6144,"sembly":6145,"Ġadvanced":6146,"rip":6147,"Ġlisted":6148,"illance":6149,"Ġaf":6150,"Ġbare":6151,"Ġhell":6152,"Ġabandon":6153,"Ġpure":6154,"ERS":6155,"law":6156,"ÑĤ":6157,"twitter":6158,"Ġguilty":6159,"Ġsuc":6160,"Ġstood":6161,"edy":6162,"Ġphen":6163,"Ġnearby":6164,"Ġmoral":6165,"Ġexplan":6166,"ĠHen":6167,"Ġscheduled":6168,"Ġchart":6169,"Ġing":6170,"Ġeverybody":6171,"ĠBarack":6172,"Ġthreats":6173,"athan":6174,"Ġdiplom":6175,"ĠDev":6176,"Yes":6177,"enger":6178,"Can":6179,"Ġfort":6180,"iest":6181,"kay":6182,"Ġsurprised":6183,"Ġdemocracy":6184,"American":6185,"ĠCNN":6186,"Ġrepresents":6187,"Ġvari":6188,"Ġride":6189,"Ġmoves":6190,"otic":6191,"Most":6192,"Ġbehavi":6193,"irty":6194,"ĠWhe":6195,"Ġdoctor":6196,"Ġfollows":6197,"Ġconfig":6198,"Ġtree":6199,"Ġdistribution":6200,"Ġshots":6201,"Ġadds":6202,"Ġmagazine":6203,"Ġlinked":6204,"ĠIreland":6205,"ĠAff":6206,"ocratic":6207,"ĠVol":6208,"Ġrow":6209,"Ġcurrency":6210,"Ġrein":6211,"Ġoutput":6212,"Ġremark":6213,"ĠColumb":6214,"Ġrestaurant":6215,"Ġoffense":6216,"ĠDan":6217,"ĠTO":6218,"Ġatmosp":6219,"Ġbike":6220,"ĠÎ":6221,"Ġinvestors":6222,"ĠLake":6223,"Ġbegins":6224,"Ġfraud":6225,"Ġspons":6226,"Ġpushed":6227,"ĠLib":6228,"Ġimproved":6229,"Ġsongs":6230,"Ġmir":6231,"ĠDevelop":6232,"Ġresolution":6233,"Ġplane":6234,"Ġmanufacture":6235,"Ġalt":6236,"Ġcreative":6237,"Ġenh":6238,"Ġisland":6239,"Ġdiscussed":6240,"whel":6241,"alty":6242,"Ġlibrary":6243,"Ġwarm":6244,"Ġapplied":6245,"ican":6246,"Ġneither":6247,"Ġnative":6248,"Ġlawsuit":6249,"ĠRE":6250,"Then":6251,"ideo":6252,"fortunately":6253,"Ġsav":6254,"Ġwithd":6255,"Ġreceiving":6256,"Ġcombination":6257,"Ġtotally":6258,"ĠSky":6259,"Ġbrings":6260,"Ġresident":6261,"Ġresc":6262,"Ġparliament":6263,"85":6264,"stood":6265,"Ġarticles":6266,"ĠOnly":6267,"Ġflood":6268,"ĠAsia":6269,"Ġbright":6270,"ĠRights":6271,"Ġfill":6272,"iques":6273,"Ġconsistent":6274,"Ġcolleagues":6275,"ena":6276,"ĠElect":6277,"Ġentered":6278,"usal":6279,"amin":6280,"irds":6281,"Ġhistorical":6282,"Ġexistence":6283,"Ġkit":6284,"Ġrising":6285,"Ġsought":6286,"Ġheads":6287,"Ġbot":6288,"press":6289,"ĠMs":6290,"Ġ2002":6291,"Ġsubscrib":6292,"icious":6293,"Ġboss":6294,"ĠPrem":6295,"Ġroughly":6296,"Ġlock":6297,"Ġcontest":6298,"mes":6299,"Ġinput":6300,"ĠBrook":6301,"Ġunlikely":6302,"Ġentry":6303,"gent":6304,"ĠWalk":6305,"Ġconsumer":6306,"Ġcorrespond":6307,"Ġrally":6308,"arden":6309,"ĠBrazil":6310,"ĠAnother":6311,"ĠIts":6312,"Ġ300":6313,"Ġfairly":6314,"Ġtargets":6315,"Ġstorage":6316,"Ġclasses":6317,"onna":6318,"Ġsquare":6319,"Ġlie":6320,"ĠiPhone":6321,"Ġexpression":6322,"Ġalcohol":6323,"Ġscored":6324,"Ġwarning":6325,"ĠAut":6326,"Ġsucceed":6327,"ml":6328,"ician":6329,"Ġanywhere":6330,"Ġyounger":6331,"Ġ33":6332,"Ob":6333,"ĠISIS":6334,"duc":6335,"Ġimportance":6336,"ĠFar":6337,"game":6338,"Ġhousehold":6339,"issions":6340,"zona":6341,"acle":6342,"Ġheavily":6343,"oked":6344,"Ġstores":6345,"Ġsnow":6346,"Ġtemperature":6347,"Ġmanage":6348,"86":6349,"Ġevolution":6350,"Ġbuying":6351,"Ġdeaths":6352,"Man":6353,"Ġfacility":6354,"Ġnav":6355,"hetic":6356,"ĠNBA":6357,"Ġfunctions":6358,"Ġregulations":6359,"Ġnetworks":6360,"ĠCub":6361,"Ġsomewhat":6362,"ĠClub":6363,"ĠAT":6364,"ĠBob":6365,"Ã³":6366,"Ġfashion":6367,"ollywood":6368,"Ġfavour":6369,"Ġmarketing":6370,"ĠGames":6371,"Ġsymbol":6372,"ĠRam":6373,"Ġdefined":6374,"dis":6375,"Ġboys":6376,"Ġbug":6377,"ĠSports":6378,"ĠEric":6379,"ĠEach":6380,"Ġreturns":6381,"iki":6382,"Ġhardware":6383,"Ġopposite":6384,"Ġindustrial":6385,"09":6386,"andal":6387,"Ġempt":6388,"Ġlinks":6389,"pan":6390,"Ġbutton":6391,"Ġtow":6392,"Ġchain":6393,"Ġbag":6394,"Ġadults":6395,"Ġrelevant":6396,"Ġshif":6397,"otal":6398,"ĠEr":6399,"ĠAnn":6400,"06":6401,"Ġprohib":6402,"cho":6403,"Ġlaugh":6404,"Ġstring":6405,"agan":6406,"Ġplot":6407,"Ġcampus":6408,"Ġdownt":6409,"olve":6410,"Ġallegedly":6411,"Ġmetal":6412,"Ġsym":6413,"Ġhat":6414,"erences":6415,"Ġclassic":6416,"Ġessential":6417,"ĠKorean":6418,"See":6419,"ĠColorado":6420,"Ġsick":6421,"Ġbreaking":6422,"ĠMaybe":6423,"Ġprotests":6424,"ocket":6425,"ĠHel":6426,"Ġharder":6427,"power":6428,"Ġreplaced":6429,"Ġopponent":6430,"Ġdoctors":6431,"Ġsyn":6432,"Ġ37":6433,"Ġmechanism":6434,"va":6435,"ĠJews":6436,"chen":6437,"opy":6438,"Ġrum":6439,"pret":6440,"ittle":6441,"Ġvice":6442,"Ġsees":6443,"Ġhoping":6444,"abb":6445,"Ġacts":6446,"ĠHouston":6447,"Ġcere":6448,"Ġpromise":6449,"ĠCIA":6450,"Ġwaste":6451,"Pol":6452,"Ġschol":6453,"ĠDC":6454,"Ġholds":6455,"Ġillust":6456,"Ġversions":6457,"Ġtournament":6458,"Ġclosely":6459,"DS":6460,"Ġvolunte":6461,"ĠHist":6462,"Ġblow":6463,"Ġskill":6464,"friend":6465,"Ġdetailed":6466,"Ġbon":6467,"ĠYouTube":6468,"ellect":6469,"Ġartists":6470,"oma":6471,"Donald":6472,"west":6473,"Ġhur":6474,"Ġcustomer":6475,"inem":6476,"atell":6477,"ometimes":6478,"Ġmoments":6479,"Ġintention":6480,"Ġtrick":6481,"kel":6482,"ĠCard":6483,"ensus":6484,"Ġadm":6485,"Ġ49":6486,"ĠYear":6487,"Ã¼":6488,"Ġisol":6489,"ulous":6490,"Ġtom":6491,"Ġwins":6492,"Ġdivision":6493,"Ġparticipants":6494,"Ġsuffering":6495,"Ġzero":6496,"Ġdecline":6497,"Ġacknowled":6498,"ĠSoviet":6499,"ua":6500,"Ġimmigrants":6501,"Ġmine":6502,"utch":6503,"ĠGar":6504,"esc":6505,"ordan":6506,"greg":6507,"tering":6508,"hips":6509,"',":6510,"ĠBoy":6511,"ĠLong":6512,"Ġcrazy":6513,"Com":6514,"Ġtermin":6515,"Ġcheap":6516,"ologist":6517,"IR":6518,"ĠValley":6519,"ĠWatch":6520,"En":6521,"Ġgrown":6522,"efully":6523,"po":6524,"Ġextent":6525,"Ġcircumstances":6526,"Ġfewer":6527,"Ġmotion":6528,"Ġwave":6529,"Ġlies":6530,"Ġrelationships":6531,"Ġsharing":6532,"Ġunus":6533,"Ġancient":6534,"Ã¶":6535,"IF":6536,"Ġimmediate":6537,"name":6538,"ĠDie":6539,"Ġdescribe":6540,"Ġkinds":6541,"chers":6542,"Ġbatt":6543,"ĠCle":6544,"iger":6545,"Ġfeatured":6546,"ĠImage":6547,"str":6548,"Ġguide":6549,"Ġefficient":6550,"Ġemotional":6551,"anes":6552,"Ġcycle":6553,"foot":6554,"Ġearned":6555,"Ġauthors":6556,"ĠEnergy":6557,"ĠGra":6558,"ĠEll":6559,"Ġsquad":6560,"ĠSupp":6561,"Ġstrange":6562,"ayers":6563,"Ġfundamental":6564,"certain":6565,"ĠOld":6566,"xy":6567,"ockey":6568,"print":6569,"style":6570,"Ġexcellent":6571,"Ġmeat":6572,"etroit":6573,"ora":6574,"ĠJava":6575,"izz":6576,"Ġcompetitive":6577,"ĠDi":6578,"ORE":6579,"Ġmanner":6580,"bar":6581,"Ġcarrying":6582,"Ġcontroversial":6583,"ĠPalestinian":6584,"Ġfrequently":6585,"ĠCatholic":6586,"Per":6587,"Ġ48":6588,"Ġwire":6589,"Ġpushing":6590,"Ġembr":6591,"awa":6592,"Ġhotel":6593,"Ġacting":6594,"iami":6595,"rive":6596,"ĠEconom":6597,"Ġegg":6598,"hus":6599,"ĠPS":6600,"Ġowned":6601,"Ġpregn":6602,"OC":6603,"Ġalongside":6604,"ĠNY":6605,"FP":6606,"08":6607,"Ġsister":6608,"Ġattempted":6609,"Ġpip":6610,"Ġfemin":6611,"Ġtiny":6612,"amily":6613,"Ġcolumn":6614,"02":6615,"ĠMot":6616,"alian":6617,"Ġ38":6618,"Ġurban":6619,"ĠPutin":6620,"Ġcommitment":6621,"Ġdesk":6622,"ii":6623,"uated":6624,"Ġcert":6625,"Ġdedicated":6626,"ĠTop":6627,"Ġregional":6628,"Ġschedule":6629,"Ġwalked":6630,"ĠWay":6631,"Ġring":6632,"Ġupcoming":6633,"Ġreferred":6634,"Ġ75":6635,"Ġformed":6636,"ceived":6637,"Ġcoffee":6638,"Ġstruck":6639,"post":6640,"vin":6641,"Ġintent":6642,"nic":6643,"Ġupdated":6644,"Ġcomfortable":6645,"Ġliqu":6646,"Ġagenda":6647,"Ġdepth":6648,"ugh":6649,"Ġsubsid":6650,"Ġtargeted":6651,"Ġrealized":6652,"Ġmainstream":6653,"Ġwatched":6654,"Ġsigning":6655,"ĠCruz":6656,"bel":6657,"iveness":6658,"Ġopponents":6659,"burg":6660,"Ġvirtual":6661,"uable":6662,"Ġrepeatedly":6663,"ĠWild":6664,"rome":6665,"Ġsky":6666,"you":6667,"Ġmedic":6668,"ĠVan":6669,"May":6670,"ĠAgain":6671,"ĠCy":6672,"ati":6673,"ĠDefense":6674,"Two":6675,"ko":6676,"ums":6677,"ographic":6678,"Ġinspired":6679,"Despite":6680,"04":6681,"ĠWars":6682,"Ġcausing":6683,"Ġchairman":6684,"ĠArizona":6685,"ta":6686,"aylor":6687,"67":6688,"Ġsuicide":6689,"Ġmouth":6690,"ĠCharles":6691,"Ġnewslet":6692,"Ġorders":6693,"Ġfolks":6694,"ĠDavis":6695,"ĠRight":6696,"ĠHome":6697,"Ġsurveillance":6698,"Ġsurrounding":6699,"Ġinstru":6700,"Ġflu":6701,"Like":6702,"ĠIP":6703,"Ġsentence":6704,"ĠTit":6705,"obb":6706,"Ġteachers":6707,"Ġhall":6708,"Ġprotected":6709,"ĠDown":6710,"ĠJr":6711,"nam":6712,"boy":6713,"Ġstudio":6714,"Ġprecise":6715,"Ġjourney":6716,"People":6717,"Ġwal":6718,"ĠLord":6719,"Ġlatter":6720,"Ġapproval":6721,"Ġknowing":6722,"Ġrequirements":6723,"ĠOF":6724,"weight":6725,"Ġreput":6726,"igg":6727,"Ġoverwhel":6728,"Ġcommunication":6729,"Ġ34":6730,"azi":6731,"acc":6732,"ĠSar":6733,"Ġposts":6734,"Ġassets":6735,"ĠJesus":6736,"mun":6737,"Ġgod":6738,"dro":6739,"Ġnoticed":6740,"Ġuniverse":6741,"Ġserving":6742,"Ġchannel":6743,"ĠYoung":6744,"Ġexplore":6745,"Ġobserved":6746,"rence":6747,"Ġaside":6748,"Ġwage":6749,"Ġexciting":6750,"Ġusual":6751,"luding":6752,"Ġpromised":6753,"Ġbattery":6754,"iments":6755,"Ġliterally":6756,"ĠMen":6757,"Ġsand":6758,"gor":6759,"Ġfasc":6760,"ĠTal":6761,"phy":6762,"Ġsending":6763,"CA":6764,"Ġvolume":6765,"ĠArch":6766,"ĠPan":6767,"ixt":6768,"adel":6769,"iro":6770,"ĠKevin":6771,"umber":6772,"Ġcrash":6773,"Ġtested":6774,"iciency":6775,"ulture":6776,"ether":6777,"Ġnarr":6778,"Ġphenomen":6779,"Ġstream":6780,"Ġking":6781,"Ġ1970":6782,"Ġproperties":6783,"ipl":6784,"Ġdealing":6785,"ĠBrad":6786,"ĠCD":6787,"Ġheight":6788,"Ġtort":6789,"Ġforth":6790,"Ġpled":6791,"Ġremote":6792,"Ġcongress":6793,"07":6794,"Ġfixed":6795,"allas":6796,"Ġwake":6797,"Ġwest":6798,"Ġnarrow":6799,"aze":6800,"Ġdefeat":6801,"Ġsimpl":6802,"Ġblame":6803,"Ġtheme":6804,"Ġprote":6805,"Ġalive":6806,"ĠBest":6807,"acking":6808,"Ġbasket":6809,"alle":6810,"Ġdestroyed":6811,"ĠPy":6812,"utral":6813,"sole":6814,"Int":6815,"Ġwid":6816,"Ġreward":6817,"rations":6818,"Ġdeeply":6819,"ĠWomen":6820,"Ġprotesters":6821,"Ġimpressive":6822,"ĠPolit":6823,"Ġdu":6824,"rison":6825,"arry":6826,"Ġpassion":6827,"Or":6828,"Ġeating":6829,"ĠMax":6830,"Ġwelcome":6831,"ĠLu":6832,"Ġselection":6833,"Ġanyway":6834,"Ġformat":6835,"Ġexhib":6836,"NC":6837,"Ġrisks":6838,"woman":6839,"Ġdiscover":6840,"fire":6841,"ĠWat":6842,"Ġfranchise":6843,"Ġeast":6844,"ãĢ":6845,"Ġslowly":6846,"ĠIns":6847,"ĠChild":6848,"59":6849,"Ġlocations":6850,"Ġfuck":6851,"Ġmistake":6852,"Ġsuddenly":6853,"Ġoblig":6854,"rors":6855,"Ġsample":6856,"Ġterritory":6857,"Fr":6858,"ĠPR":6859,"ensity":6860,"Ġdry":6861,"verty":6862,"apse":6863,"Ġwinter":6864,"Ġdiet":6865,"abis":6866,"Ġputs":6867,"Ġsweet":6868,"sex":6869,"Ġmatches":6870,"Ġrape":6871,"ĠCast":6872,"ĠMic":6873,"Ġinvolving":6874,"ï¿":6875,"onymous":6876,"Ġchose":6877,"Ġjournalists":6878,"itarian":6879,"Ġextended":6880,"stone":6881,"gery":6882,"Ġproof":6883,"Ġrequests":6884,"Ġproperly":6885,"Ġconver":6886,"Ġtypical":6887,"Ġstim":6888,"Ġpoverty":6889,"Ġrecognize":6890,"Ġconfront":6891,"Ġsho":6892,"Ġunknown":6893,"Ġmerely":6894,"obile":6895,"Ġapproximately":6896,"oration":6897,"anges":6898,"Ġvillage":6899,"Ġdisag":6900,"Ġattacked":6901,"Ġpal":6902,"Ġmaximum":6903,"Ġnorthern":6904,"ĠFort":6905,"Ġmoder":6906,"ĠEnter":6907,"Ġhits":6908,"Ġallies":6909,"ocation":6910,"Ġrefugees":6911,"Ġsustain":6912,"ĠStephen":6913,"ĠLand":6914,"Ġpromote":6915,"arity":6916,"ĠFil":6917,"57":6918,"Ġshel":6919,"Ġselected":6920,"ĠAgency":6921,"ĠCamer":6922,"Ġterrorism":6923,"Ġunemploy":6924,"Ġdeals":6925,"John":6926,"Rel":6927,"ogan":6928,"redit":6929,"Ġabortion":6930,"Ġtopic":6931,"Ġsupports":6932,"ĪĴ":6933,"Ġteacher":6934,"CS":6935,"Ġresistance":6936,"raid":6937,"aug":6938,"asks":6939,"Ġgang":6940,"Ġgap":6941,"ĠMiller":6942,"Ġdress":6943,"Ġarguments":6944,"ĠHollywood":6945,"lv":6946,"Ġadapt":6947,"lies":6948,"âĢĻ.":6949,"Ġassume":6950,"ĠAdminist":6951,"Ġlicense":6952,"Ġconstant":6953,"inson":6954,"han":6955,"owa":6956,"ï¿½":6957,"Ġfacilities":6958,"Ġpunish":6959,"Ġunderstood":6960,"Te":6961,"Ġworried":6962,"aser":6963,"Ġcontrolled":6964,"Ġhonor":6965,"GBT":6966,"LA":6967,"Ġobtained":6968,"Ġnomine":6969,"ĠNight":6970,"Ġlikes":6971,"Ġcritics":6972,"owered":6973,"68":6974,"aire":6975,"list":6976,"ĠWilson":6977,"asts":6978,"Ġpersonally":6979,"avor":6980,"sters":6981,"unning":6982,"Ġexposed":6983,"Ġcommunications":6984,"Ġsomehow":6985,"Ġlimits":6986,"Ġrub":6987,"pool":6988,"Ġdiagn":6989,"Ġscheme":6990,"ems":6991,"ĠFour":6992,"Ġbunch":6993,"Ġsole":6994,"VER":6995,"aun":6996,"ingu":6997,"enders":6998,"Ġtransp":6999,"ĠMiami":7000,"ĠDetroit":7001,"ĠItaly":7002,"nesota":7003,"Ġharass":7004,"Ġevil":7005,"Ġpolls":7006,"Ġped":7007,"ĠSociety":7008,"Ġretire":7009,"lls":7010,"celer":7011,"Ġfalling":7012,"cers":7013,"ĠJersey":7014,"Ġchampion":7015,"Ġstrongly":7016,"igation":7017,"Ġanx":7018,"Ġsomewhere":7019,"Ġencourage":7020,"axy":7021,"ĠClass":7022,"ĠCat":7023,"cow":7024,"Ġtruck":7025,"Ġempty":7026,"Ġfees":7027,"orted":7028,"iana":7029,"Ġphase":7030,"ĠNetwork":7031,"ĠDaniel":7032,"Ġequival":7033,"Ġprofit":7034,"Ġbear":7035,"Ñģ":7036,"ĠCarl":7037,"Ġdirected":7038,"Ġmeetings":7039,"rimination":7040,"Ġdrag":7041,"Ġvacc":7042,"ĠKn":7043,"oric":7044,"Ġclaiming":7045,"osis":7046,"ĠView":7047,"ĠFord":7048,"Ġdeck":7049,"Ġcomparison":7050,"Ġdefinition":7051,"ĠReal":7052,"Ġgotten":7053,"ĠDam":7054,"ura":7055,"Ġdecent":7056,"ĠCompany":7057,"iner":7058,"ĠSpanish":7059,"ao":7060,"Ġdatabase":7061,"oster":7062,"ĠLove":7063,"Ġescape":7064,"ĠCam":7065,"Ġwinner":7066,"Ġflex":7067,"Ġcomprom":7068,"ĠNHL":7069,"cript":7070,"gender":7071,"Ġsight":7072,"ĠAsian":7073,"Ġpurposes":7074,"Ġstronger":7075,"uilding":7076,"Ġgoods":7077,"Ġemissions":7078,"69":7079,"fast":7080,"Ġinqu":7081,"ĠOk":7082,"Ġcutting":7083,"ĠOS":7084,"ĠInf":7085,"Ġideal":7086,"Ġregions":7087,"ĠSea":7088,"Ġpic":7089,"Ġincl":7090,"Ġcondem":7091,"igure":7092,"pes":7093,"Ġparam":7094,"ĠGall":7095,"Ġamounts":7096,"ĠNASA":7097,"Ġsouthern":7098,"Ġcolon":7099,"Ġbench":7100,"pected":7101,"ĠIrish":7102,"oming":7103,"zens":7104,"ĠAttorney":7105,"ĠStand":7106,"Ġ\\":7107,"Ġfinds":7108,"ĠMS":7109,"lock":7110,"Ġdesper":7111,"Ġemployee":7112,"Ġintellect":7113,"Ġrejected":7114,"ĠLabor":7115,"Ġdogs":7116,"ĠJordan":7117,"ras":7118,"Ġdeleg":7119,"ĠGeorgia":7120,"sea":7121,"Ġofficially":7122,"UR":7123,"ĠGi":7124,"eping":7125,"Ġbid":7126,"Ġelectricity":7127,"intend":7128,"EW":7129,"Ġdeveloper":7130,"ĠThank":7131,"ÑĢ":7132,"Ġadmit":7133,"Ð½":7134,"Ġfighters":7135,"Ġ39":7136,"Ġfifth":7137,"03":7138,"ĠLew":7139,"Ġdrawn":7140,"ĠDespite":7141,"Ġchosen":7142,"ĠDun":7143,"Ġrig":7144,"Ġicon":7145,"ads":7146,"icken":7147,"ciples":7148,"Ġtechnologies":7149,"Ġreasonable":7150,"Ġconstantly":7151,"Any":7152,"%)":7153,"wan":7154,"Ġfields":7155,"Ġstretch":7156,"Ġsomebody":7157,"Ġtrading":7158,"Ġaspects":7159,"alo":7160,"78":7161,"rary":7162,"ĠDNA":7163,"Ġspin":7164,"Ġextensive":7165,"Ġanswers":7166,"Ġawesome":7167,"apes":7168,"ĠEnd":7169,"ĠBru":7170,"Ġoutcome":7171,"Ġties":7172,"Ġtank":7173,"ĠDar":7174,"irms":7175,"ĠTurk":7176,"ĠThough":7177,"Ġfold":7178,"Ġconstit":7179,"Ġchoices":7180,".\"[":7181,"Ġtrees":7182,"ĠLight":7183,"Ġpayments":7184,"ĠSk":7185,"Ġretain":7186,"ĠHun":7187,"ĠNations":7188,"Ġperfectly":7189,"Ġdistinct":7190,"Ġdriven":7191,"Ġcaptured":7192,"Ġthreatened":7193,"ĠUt":7194,"Ġending":7195,"Ġprimarily":7196,"Ġparking":7197,"Ġfeedback":7198,"Ġanymore":7199,"mod":7200,"Ġactor":7201,"Ġhouses":7202,"Ġcourts":7203,"Sec":7204,"ĠAdam":7205,"Ġruled":7206,"Ġnobody":7207,"iform":7208,"Ġcoalition":7209,"Ġflying":7210,"lder":7211,"emen":7212,"Ġmixed":7213,"ĠAcadem":7214,"Ġregularly":7215,"Ġprofile":7216,"ĠBowl":7217,"owed":7218,"CE":7219,"Ġthread":7220,"Ġrival":7221,"Ġestimates":7222,"Ġcomponents":7223,"ĠConstitution":7224,"Police":7225,"MP":7226,"Ġsignal":7227,"anchester":7228,"Ġcontem":7229,"Ġbaseball":7230,"ĠBell":7231,"Ġmayor":7232,"Ġsoul":7233,"Ġsolutions":7234,"Ġble":7235,"Ġpod":7236,"ĠBrian":7237,"Ġresulting":7238,"Ġengage":7239,"inity":7240,"isan":7241,"Once":7242,"Ġboot":7243,"ĠMoore":7244,"mo":7245,"Ġencoun":7246,"</":7247,"âĸ":7248,"regon":7249,"asters":7250,"mont":7251,"Ġsituations":7252,"Ġenemies":7253,"iscal":7254,"Ġconcluded":7255,"Ġ42":7256,"Ġnarrative":7257,"ĠVictor":7258,"Ġseats":7259,"Ġstead":7260,"Ġcontrols":7261,"ĠJoseph":7262,"imp":7263,"inations":7264,"Ġmurd":7265,"Ġconven":7266,"Ġelsewhere":7267,"Ġbrew":7268,"Ġweird":7269,"Ġkeeps":7270,"Ġpayment":7271,"ĠId":7272,"ĠConf":7273,"Ġfounder":7274,"there":7275,"ĠWater":7276,"Also":7277,"Ġprovince":7278,"Ġapartment":7279,"itar":7280,"ĠOrgan":7281,"Ġpenalty":7282,"onic":7283,"ship":7284,"sm":7285,"ĠBas":7286,"Ġexists":7287,"ĠScotland":7288,"agram":7289,"300":7290,"Ġbills":7291,"Ġ($":7292,"acked":7293,"Ġenthus":7294,"Ġmagic":7295,"Ġmanip":7296,"Ġworldwide":7297,"Ġcrucial":7298,"Ġdemands":7299,"Ġemployment":7300,"Ġinfect":7301,"Ġaccurate":7302,"Ġclients":7303,"Ġletters":7304,"Ġregistered":7305,"vy":7306,"Ġangry":7307,"Dr":7308,"icer":7309,"ĠTw":7310,"ĠDark":7311,"Ġunp":7312,"Ġincredible":7313,"Ġcategory":7314,"ĠChampionship":7315,"ĠServices":7316,"Ġdollar":7317,"ĠDisney":7318,"Ġtied":7319,"inding":7320,"Ġgenerate":7321,"Ġaggressive":7322,"Ġcontributed":7323,"zy":7324,"Ġnut":7325,"Ġpaint":7326,"Ġatmosphere":7327,"56":7328,"cr":7329,"Ġincredibly":7330,"ĠWhere":7331,"Ġdozen":7332,"ilarly":7333,"earing":7334,"Ġhabit":7335,"Ġpilot":7336,"Ġconspir":7337,"Ġreporter":7338,"Ġinformed":7339,"Ġgaming":7340,"otten":7341,"Ġrus":7342,"mal":7343,"Ġproved":7344,"Ġtechniques":7345,"Ed":7346,"Ġimper":7347,"Ġcompens":7348,"MS":7349,"ĠDallas":7350,">>":7351,"Ġroutine":7352,"rypt":7353,"Ġsatell":7354,"ĠAuthor":7355,"Ġkil":7356,"ĠSenator":7357,"ĠMinnesota":7358,"Ġwriters":7359,"ĠCare":7360,"Ġconclusion":7361,"ĠThanks":7362,"Ġreturning":7363,"Ġraising":7364,"Ġcounty":7365,"Ġterrible":7366,"ĠSouthern":7367,"Ġcontinuing":7368,"lers":7369,"Today":7370,"ĠWin":7371,"Ġupper":7372,"iscons":7373,"Ġgro":7374,"ali":7375,"ĠRog":7376,"Ġstuck":7377,"Ġnewly":7378,"hent":7379,"ĠOs":7380,"isconsin":7381,"Ġrecovery":7382,"Ġrepresented":7383,"Ġtall":7384,"Ġinnoc":7385,"Ġprogramming":7386,"ĠCivil":7387,"Ġassistant":7388,"Because":7389,"Ġexcess":7390,"Ġdrinking":7391,"Ġloan":7392,"era":7393,"ML":7394,"essed":7395,"Ġchances":7396,"199":7397,"ĠâĢĻ":7398,"Ġconsumption":7399,"Ġexplanation":7400,"Ġcomplaint":7401,"rep":7402,"rete":7403,"bal":7404,"Ġshares":7405,"ĠAL":7406,"Ġcapture":7407,"gorith":7408,"anny":7409,"text":7410,"%.":7411,"Ġmyth":7412,"ĠAR":7413,"ĠSteven":7414,"Ġblocks":7415,"ĠSpain":7416,"actions":7417,"Ġticket":7418,"Ġestate":7419,"ni":7420,"ba":7421,"Col":7422,"ĠLinux":7423,"Ġoperate":7424,"Off":7425,"ker":7426,"Ġindex":7427,"Ġorigin":7428,"Ġroster":7429,"sell":7430,"ĠContin":7431,"Ġbom":7432,"rating":7433,"Ġcomplicated":7434,"ked":7435,"rage":7436,"Ġ55":7437,"Ġconscious":7438,"ĠZeal":7439,"Ġgranted":7440,"ĠHot":7441,"rates":7442,"))":7443,"Ġorganized":7444,"Ġprivile":7445,"Ġacademic":7446,"Ġsympt":7447,"aed":7448,"Ġinterpret":7449,"ez":7450,"Ġplastic":7451,"Ġsolve":7452,"Ġsurvive":7453,"ifications":7454,"aron":7455,"ĠBull":7456,"Ġautomatically":7457,"Ġmachines":7458,"Ġassistance":7459,"ĠEduc":7460,"ĠItalian":7461,"ĠProgram":7462,"ĠTurn":7463,"ĠFre":7464,"Ġattended":7465,"adelph":7466,"Ġlawmakers":7467,"Inst":7468,"Ġfake":7469,"ĠOper":7470,"ĠSC":7471,"Ġextract":7472,"uan":7473,"Ġtherap":7474,"Ġbitcoin":7475,"idency":7476,"ĠEp":7477,"Ġ1999":7478,"Ġcup":7479,"Ġsuccessfully":7480,"ĠRoman":7481,"ĠTaylor":7482,"ĠBusiness":7483,"ĠColl":7484,"Ġaimed":7485,"abama":7486,"star":7487,"thew":7488,"otes":7489,"chain":7490,"uine":7491,"Ġiron":7492,"Ġdowntown":7493,"Ġpermanent":7494,"Ġpace":7495,"Ġanticip":7496,"Ġmarked":7497,"Ġroot":7498,"Ġdict":7499,"Ġtitles":7500,"ĠNBC":7501,"Ġinstalled":7502,"UN":7503,"ĠAnth":7504,"ĠCall":7505,"Ġenable":7506,"Ġworker":7507,"Ġaudio":7508,"Ġscenes":7509,"ima":7510,"Ġaccomp":7511,"ifer":7512,"ĠKelly":7513,"Ġengaged":7514,"Ġtaste":7515,"Ġafraid":7516,"ĠSpecial":7517,"ĠForeign":7518,"adelphia":7519,"Ġadvis":7520,"Ġcollected":7521,"Ġmonit":7522,"ĠTem":7523,"Ġlawyers":7524,"Ġrating":7525,"EA":7526,"ria":7527,"Ġ150":7528,"Ġpasses":7529,"Ġdegrees":7530,"itals":7531,"ĠAh":7532,"Ġtaught":7533,"Ġregardless":7534,"etary":7535,"Ġveteran":7536,"Ġmedium":7537,"Ġads":7538,"Ġduty":7539,"Ġexposure":7540,"ĠDead":7541,"Ġwestern":7542,"Ġextrem":7543,"Ġ65":7544,"Ġapolog":7545,"Ġhel":7546,"upid":7547,"Ġgenerated":7548,"Ġvaluable":7549,"Ġinspir":7550,"esy":7551,"ĠMu":7552,"athy":7553,"icate":7554,"Ġ64":7555,"ĠLGBT":7556,"Ġrecording":7557,"ĠIowa":7558,"ĠPacific":7559,"Ġneuro":7560,"Ġchampionship":7561,"Ġgall":7562,"aturally":7563,"ibilities":7564,"Ġbusy":7565,"Ġpin":7566,"Ġbes":7567,"Ġhidden":7568,"Ġwarming":7569,"Ġvulnerable":7570,"Ġru":7571,"Ġcrypt":7572,"reams":7573,"Ġsufficient":7574,"active":7575,"ĠCross":7576,"Ġphr":7577,"Ġportion":7578,"Ġprominent":7579,"ĠBalt":7580,"ĠCome":7581,"ĠLook":7582,"Ġelite":7583,"Ġpersonnel":7584,"Ġuncertain":7585,"Ġcable":7586,"rific":7587,"ĠParliament":7588,"Ġcomic":7589,"everal":7590,"Ġdescribes":7591,"ĠInvest":7592,"ĠRay":7593,"Ġvisited":7594,"Ġreputation":7595,"Ġnegotiations":7596,"this":7597,"Ġentit":7598,"orne":7599,"urb":7600,"ĠTest":7601,"ĠTony":7602,"ĠFood":7603,"da":7604,"Ġcompre":7605,"Ġracial":7606,"Ġunusual":7607,"Ġmel":7608,"Ġresulted":7609,"ĠEastern":7610,"Ġvisible":7611,"Ġmainly":7612,"ĠMoscow":7613,"Ġprocesses":7614,"Ġcompete":7615,"58":7616,"raph":7617,"ilton":7618,"ĠStill":7619,"Ġdefence":7620,"Ġemerged":7621,"Ġspr":7622,"Ġeverywhere":7623,"ĠTake":7624,"Ġenjoyed":7625,"Ġdepending":7626,"Co":7627,"weet":7628,"Ġchat":7629,"front":7630,"ĠAvenue":7631,"Ð¾Ð":7632,"Ġteaching":7633,"ĠIT":7634,"Ġsanctions":7635,"ye":7636,"Ġfunny":7637,"Ġdisaster":7638,"mann":7639,"Ġcoordin":7640,"from":7641,"ĠNation":7642,"Ġphones":7643,"Ġtracks":7644,"fall":7645,"month":7646,"Ġintense":7647,"ĠNick":7648,"ATE":7649,"Getty":7650,"ĠNorthern":7651,"Ġshit":7652,"Ġoverse":7653,"ĠFoot":7654,"LC":7655,"Ġthin":7656,"ĠSaf":7657,"Ġtaxp":7658,"Ġpatterns":7659,"Ġbrut":7660,"cles":7661,"Ġequivalent":7662,"Ġtroub":7663,"Ġgrant":7664,"Ġrarely":7665,"ĠZealand":7666,"Rec":7667,"Ġdiscipl":7668,"Ġadopted":7669,"Ġprinciples":7670,"HS":7671,"Ġhadn":7672,"eland":7673,"ĠLo":7674,"Ġcontracts":7675,"Ġpossession":7676,"Ġsurgery":7677,"world":7678,"orough":7679,"Mean":7680,"Pr":7681,"inder":7682,"ĠAli":7683,"Ġcited":7684,"Ġelev":7685,"antic":7686,"Ġminority":7687,"Ġfought":7688,"log":7689,"quarters":7690,"tes":7691,"ĠBefore":7692,"Ġfirms":7693,"Ġinev":7694,"Ġcameras":7695,"ĠMars":7696,"Ġ400":7697,"idelines":7698,"viously":7699,"Ġrecip":7700,"Ġbrowser":7701,"Ġexplicit":7702,"scape":7703,"Ġpropag":7704,"ĠGreek":7705,"ĠCoast":7706,"ashes":7707,"she":7708,"Ġshortly":7709,"ĠOregon":7710,"ĠJosh":7711,"54":7712,"BO":7713,"rently":7714,"ĠKurd":7715,"Ġexpectations":7716,"olt":7717,"istent":7718,"Ġven":7719,"ifies":7720,"ĠPolicy":7721,"ĠOl":7722,"Ġthick":7723,"Ġpounds":7724,"Ġblind":7725,"ĠRick":7726,"Ġenorm":7727,"prise":7728,"Ġepisodes":7729,"igen":7730,"bro":7731,"making":7732,"Ġrecru":7733,"ĠVeg":7734,"Ġsup":7735,"Ġengineering":7736,"ules":7737,"ĠGlobal":7738,"Mar":7739,"Ġscenario":7740,"Ġveget":7741,"Ġfinance":7742,"Ġstrict":7743,"Ġairport":7744,"Ġmail":7745,"Ġpermission":7746,"obs":7747,"Ġdim":7748,"Ġcorruption":7749,"abs":7750,"Ġthousand":7751,"ĠWisconsin":7752,"gun":7753,"umin":7754,"Ġfault":7755,"Ġlights":7756,"Ġcomponent":7757,"Ġtag":7758,"ĠGer":7759,"Ġloud":7760,"ĠHom":7761,"Ġbridge":7762,"inking":7763,"ĠManchester":7764,"ĠSeries":7765,"Ġaffili":7766,"Ġphotograph":7767,"Ġwing":7768,"ĠViet":7769,"âĢĻ,":7770,"ĠNavy":7771,"uce":7772,"ĠSn":7773,"Ġalgorith":7774,"ĠOak":7775,"Ġfeelings":7776,"ogether":7777,"Ġimplementation":7778,"Ġextension":7779,"Ġhistoric":7780,"amber":7781,"ĠLive":7782,"Ġestablishment":7783,"cling":7784,"Ġpump":7785,"iler":7786,"ĠHas":7787,"ĠMid":7788,"Ġparticipate":7789,"Ġedition":7790,"Ġunw":7791,"Ġstations":7792,"Ġtor":7793,"ĠKent":7794,"ĠAmendment":7795,"Us":7796,"rell":7797,"car":7798,"Ġgenuine":7799,"olis":7800,"ĠHit":7801,"umer":7802,"79":7803,"Ġfounded":7804,"Ġagric":7805,"rous":7806,"ja":7807,"Ġlaid":7808,"cus":7809,"ĠHenry":7810,"Ġjournalist":7811,"Ġacceler":7812,"Ġcrop":7813,"Ġshock":7814,"Ġclubs":7815,"Ġpriority":7816,"ĠPay":7817,"Ġcomputers":7818,"Ġgained":7819,"Ġlosses":7820,"Ġadvertising":7821,"Ġho":7822,"aska":7823,"Ġplug":7824,"========":7825,"Ġ44":7826,"Ġcounsel":7827,"Ġmanufacturing":7828,"ĠKir":7829,"ounced":7830,"53":7831,"Ġscoring":7832,"Ġstable":7833,"Ġcreates":7834,"ref":7835,"Ġstrikes":7836,"Ġphilosophy":7837,"Ġyield":7838,"Ġmagn":7839,"Ġdozens":7840,"Ġfootage":7841,"ĠGreg":7842,"à¸":7843,"Ġuncom":7844,"Ġtoler":7845,"who":7846,"Ġprinciple":7847,"Ġfee":7848,"Ġridic":7849,"ĠAlabama":7850,"ĠDevelopment":7851,"âĶ":7852,"Ġbehalf":7853,"ĠJac":7854,"ĠHT":7855,"izon":7856,"ogen":7857,"athered":7858,"aus":7859,"arlier":7860,"eman":7861,"ĠPhiladelphia":7862,"Ġgift":7863,"oured":7864,"Ġbeliefs":7865,"uer":7866,"ĠThree":7867,"profit":7868,"ĠRand":7869,"51":7870,"74":7871,"Before":7872,"Ġ%":7873,"Ġdrawing":7874,"Ġcontaining":7875,"osexual":7876,"ĠAsh":7877,"ystem":7878,"Ġ1998":7879,"ĠPremier":7880,"Ġplate":7881,"Ġrely":7882,"Ġtackle":7883,"ĠThus":7884,"jo":7885,"ĠMajor":7886,"ĠVis":7887,"Ġfoundation":7888,"elect":7889,"enth":7890,"rators":7891,"Ġformal":7892,"asion":7893,"ĠAtlanta":7894,"Ġheaded":7895,"ĠFred":7896,"Ġbanned":7897,"ulating":7898,"aning":7899,"Ġwonderful":7900,"Ġflaw":7901,"Meanwhile":7902,"Ġobst":7903,"opher":7904,"ĠESP":7905,"ĠReview":7906,"iel":7907,"ĠDivision":7908,"Ġneutral":7909,"Ġbasketball":7910,"pread":7911,"lan":7912,"found":7913,"Ġsaved":7914,"Ġwheel":7915,"Ġstadium":7916,"Ġrelief":7917,"ĠAD":7918,"imore":7919,"Ġdeliber":7920,"Ġexception":7921,"Ġtox":7922,"ĠFC":7923,"Ġstruggling":7924,"Ġproducer":7925,"Ġsharp":7926,"portion":7927,"ĠFund":7928,"Ġinterface":7929,"Ġborrow":7930,"Ġroles":7931,"oen":7932,"Ġ1960":7933,"Ġliked":7934,"Ġprofession":7935,"ĠVR":7936,"Ġhole":7937,"Ġinterviews":7938,"Ġfinger":7939,"Ġlegend":7940,"ĠAdministration":7941,"Ġriver":7942,"Ġfarmers":7943,"Ġstab":7944,"azz":7945,"ĠSP":7946,"ĠRoyal":7947,"Ġdoors":7948,"ĠMoh":7949,"Ġships":7950,"Ġdinner":7951,"etime":7952,"Ġspark":7953,"Ġbacked":7954,"Ġachieved":7955,"iy":7956,"lete":7957,"ilipp":7958,"ĠArm":7959,"Ġuniform":7960,"ĠAS":7961,"ĠReuters":7962,"52":7963,"bell":7964,"Ġnominee":7965,"Ġrecognized":7966,"burgh":7967,"Ġ43":7968,"ĠAcademy":7969,"Ġhired":7970,"Ġreduction":7971,"Ġentering":7972,"idespread":7973,"Ġ41":7974,"ĠMir":7975,"rative":7976,"Ġ47":7977,"uper":7978,"Ġlanguages":7979,"Ġgonna":7980,"ĠDid":7981,"Ġcannabis":7982,"ca":7983,"Ġindicate":7984,"Ġwithdraw":7985,"Ġju":7986,"Ne":7987,"Ġbarely":7988,"ĠDiego":7989,"Ġproven":7990,"Ġincent":7991,"Ġsynt":7992,"ĠConference":7993,"core":7994,"ĠJason":7995,"ĠMcG":7996,"teen":7997,"ĠRet":7998,"ĠReport":7999,"ls":8000,"ependent":8001,"Ġtechnique":8002,"ĠKey":8003,"400":8004,"Ġrose":8005,"Those":8006,"Me":8007,"ami":8008,"Ġcyber":8009,"Ġupset":8010,"ĠPerhaps":8011,"Ġwalls":8012,"ĠNob":8013,"Ġchallenging":8014,"ĠRose":8015,"Ġconvin":8016,"ĠKingdom":8017,"ĠSnow":8018,"Ġstructures":8019,"Ġneighb":8020,"Ġaver":8021,"Ġdestruction":8022,"Post":8023,"Ġbath":8024,"ĠMayor":8025,"Ġsuggesting":8026,"PM":8027,"Ġmovements":8028,"ĠFed":8029,"etts":8030,"Ġhitting":8031,"ĠData":8032,"riers":8033,"mate":8034,"ĠPoint":8035,"page":8036,"Ġutil":8037,"ĠTurkish":8038,"ĠHarry":8039,"ĠRos":8040,"ologists":8041,"Ġforever":8042,"away":8043,"Ġdiscrimination":8044,"Ġrapidly":8045,"sylv":8046,"then":8047,"Ġdelivery":8048,"Ġhang":8049,"erved":8050,"Ġintellectual":8051,"usive":8052,"Ġgrass":8053,"iti":8054,"Ġproducing":8055,"olen":8056,"EE":8057,"ĠAbout":8058,"RS":8059,"ĠOtt":8060,"cription":8061,"87":8062,"ĠSir":8063,"ĠFair":8064,"ĠField":8065,"appy":8066,"yard":8067,"Ġeuro":8068,"Ġcha":8069,"aching":8070,"PG":8071,"Ġcontained":8072,"Ġconvicted":8073,"Ġunex":8074,"ĠCentre":8075,"Ġnotion":8076,"Ġprocessing":8077,"Ġdescription":8078,"ĠPen":8079,"Ġarrange":8080,"Who":8081,"interest":8082,"Ġreviews":8083,"Ġnormally":8084,"ĠChristians":8085,"ĠEducation":8086,"Ġocean":8087,"Ġhide":8088,"Ġrestrictions":8089,"Ġexclusive":8090,"Ġelectronic":8091,"isp":8092,"Dav":8093,"Ġrecognition":8094,"abinet":8095,"udes":8096,"Ġviewers":8097,"Star":8098,"HA":8099,"ĠJudge":8100,"UL":8101,"Ġwelf":8102,"Ġren":8103,"Ġloyal":8104,"Ġfiscal":8105,"Ġperpet":8106,"Ġasks":8107,"Ġbra":8108,"Ġrobot":8109,"President":8110,"Ġprogressive":8111,"aying":8112,"Ġbail":8113,"amsung":8114,"ĠHard":8115,"lad":8116,"ĠNC":8117,"ĠLind":8118,"ĠRef":8119,"ĠPack":8120,"Ġwelfare":8121,"rik":8122,"Ġbegun":8123,"Ġ46":8124,"engers":8125,"Ġcorporations":8126,"Ġcarefully":8127,"Ġcontribute":8128,"Ġburd":8129,"Ġillness":8130,"Ġflash":8131,"ĠNote":8132,"Ġindicated":8133,"lessly":8134,"ATO":8135,"Ġcollapse":8136,"Ġprepare":8137,"Ġretired":8138,"sylvania":8139,"Ġwidespread":8140,"ĠSat":8141,"ouver":8142,"Ġexternal":8143,"ĠMarket":8144,"ĠCirc":8145,"ĠLatin":8146,"uties":8147,"ĠBry":8148,"Ġcampaigns":8149,"Ġlistening":8150,"ĠRadio":8151,"Ġreaching":8152,"sels":8153,"owing":8154,"ĠCO":8155,"ĠHay":8156,"Ġelig":8157,"Ġinvolvement":8158,"Ġsensitive":8159,"ĠMcCain":8160,"Ġsmooth":8161,"Ġwebsites":8162,"Ġsmoke":8163,"arrass":8164,"Ġequally":8165,"Ġfriendly":8166,"omething":8167,"umes":8168,"igrant":8169,"Ġ2019":8170,"Ġfab":8171,"Ġrepresentative":8172,"Ġconstitutional":8173,"Ġalien":8174,"Look":8175,"ĠNext":8176,"Sub":8177,"Ġunclear":8178,"ĠPit":8179,"ĠOnt":8180,"uma":8181,"ĠDig":8182,"Ġsettlement":8183,"ĠNic":8184,"Ġdeputy":8185,"bec":8186,"rine":8187,"ĠMah":8188,"ĠEs":8189,"Ġfrag":8190,"ĠFurther":8191,"Ġhardly":8192,"72":8193,"rator":8194,"rical":8195,"ikes":8196,"elf":8197,"Script":8198,"ĠTown":8199,"Ġfeaturing":8200,"Ġinvent":8201,"imm":8202,"Ġthrown":8203,"ĠLittle":8204,"Ġinitiative":8205,"ĠHor":8206,"Ġtail":8207,"ĠIII":8208,"ĠUFC":8209,"Ġoverwhelming":8210,"Will":8211,"Ġconnections":8212,"ÂĴ":8213,"Ġinvited":8214,"Ġconvinced":8215,"Ġstupid":8216,"Ġminds":8217,"ĠConservative":8218,"ĠBernie":8219,"Ġmo":8220,"Ġhook":8221,"Ġarray":8222,"ĠLuc":8223,"Ġpractical":8224,"Ġreducing":8225,"nedy":8226,"ĠABC":8227,"Ġvary":8228,"leveland":8229,"usted":8230,"enny":8231,"++":8232,"ho":8233,"Ġvital":8234,"ĠArabia":8235,"Ġmenu":8236,"Ġinvestigate":8237,"PC":8238,"Ġbehaviour":8239,"heast":8240,"Back":8241,"Ġwars":8242,"rient":8243,"achus":8244,"ihad":8245,"Ġdeeper":8246,"ancouver":8247,"een":8248,"Ġscores":8249,"Ġrecover":8250,"ĠTenn":8251,"Mc":8252,"Ġdiscovery":8253,"rolled":8254,"76":8255,"Ġdevast":8256,"ĠOK":8257,"Ġracist":8258,"RI":8259,"ĠGov":8260,"ĠKat":8261,"ĠBeach":8262,"ĠAnton":8263,"Ġexceed":8264,"Ġfailing":8265,"pload":8266,"Ġtrained":8267,"Ġluck":8268,"Ġwages":8269,"ĠBattle":8270,"ĠPent":8271,"Ġbranch":8272,"Ġtickets":8273,"bn":8274,"ĠNSA":8275,"ecut":8276,"::":8277,"Ġstrategic":8278,"Ġcitizen":8279,"pat":8280,"Ġfiction":8281,"Ġrespectively":8282,"Ġstatistics":8283,"https":8284,"Ġjoining":8285,"Ġwine":8286,"Ġlists":8287,"Ġcomplaints":8288,"inois":8289,"Ġterrorists":8290,"ĠPatrick":8291,"Ġremem":8292,"unior":8293,"Ġassociation":8294,"ĠMinistry":8295,"ione":8296,"ĠNever":8297,"ester":8298,"ĠSquare":8299,"iversary":8300,"anna":8301,"Ġjury":8302,"ĠJay":8303,"Ġsteal":8304,"type":8305,"Ġanybody":8306,"Ġlicens":8307,"alling":8308,"Ġscreens":8309,"Ġtip":8310,"Ġcollective":8311,"ĠESPN":8312,"Ġdefine":8313,"cific":8314,"ĠMusic":8315,"Ġfears":8316,"ĠMuseum":8317,"Ġcasual":8318,"Ġaccus":8319,"Ġfantasy":8320,"Ġovert":8321,"ĠLy":8322,"Ġ->":8323,"Ġneighbour":8324,"Ġincorpor":8325,"Ġscandal":8326,"Ref":8327,"ĠKansas":8328,"thon":8329,"Ġtouchdown":8330,"Ġgear":8331,"Ġsoph":8332,"Ġtestim":8333,"Ġheading":8334,"Ġtone":8335,"ĠAnthony":8336,"Ġprosec":8337,"mary":8338,"Ġhandful":8339,"Ġimplemented":8340,"ĠCore":8341,"Ġcos":8342,"dem":8343,"ifest":8344,"repre":8345,"ĠFull":8346,"Ġframework":8347,"ĠSS":8348,"Ġ1996":8349,"Ġpoly":8350,"fr":8351,"%,":8352,"Ġdemocratic":8353,"Ġpeak":8354,"Ġimprovements":8355,"Ġownership":8356,"Ġroads":8357,"ĠON":8358,"Ġwww":8359,"ĠIce":8360,"aka":8361,"ĠMedical":8362,"ĠXbox":8363,"mad":8364,"Ġanger":8365,"Ġattempting":8366,"Ġgathered":8367,"RC":8368,"ĠQueen":8369,"Ġliquid":8370,"Ġscholars":8371,"ouch":8372,"ĠRen":8373,"ĠMatthew":8374,"ĠPennsylvania":8375,"worth":8376,"itionally":8377,"Ġdisagree":8378,"Ġcontroversy":8379,"reprene":8380,"Ass":8381,"Ġreprodu":8382,"Ġregulation":8383,"ĠBrother":8384,"achusetts":8385,"aret":8386,"Under":8387,"Ġ00":8388,"Ġpublication":8389,"Ġcivilians":8390,"Ġindependence":8391,"ĠRus":8392,"Ġhypot":8393,"Ġtheat":8394,"................":8395,"Ġgenetic":8396,"ĠCameron":8397,"Ġultimate":8398,"Ġplatforms":8399,"Ġlegs":8400,"ĠInformation":8401,"Ġethnic":8402,"ĠWalker":8403,".-":8404,"Ġattached":8405,"Ġattacking":8406,"Ġdynamic":8407,"Ġcomprehens":8408,"icking":8409,"ĠGuardian":8410,"ĠChair":8411,"Ġmining":8412,"Ġholiday":8413,"Ġsugar":8414,"Ġnoise":8415,"________________":8416,"GO":8417,"ĠCook":8418,"Ġ1997":8419,"Ġversus":8420,"phones":8421,"Ġunemployment":8422,"ĠTri":8423,"Ġmilk":8424,"ĠStone":8425,"ĠAPI":8426,"Ġremarks":8427,"Ġtemporary":8428,"Ġvisitors":8429,"Ġlegitimate":8430,"Ġauthent":8431,"Ġrecommended":8432,"Ġawareness":8433,"Ġsymptoms":8434,"ĠCheck":8435,"Ġlayer":8436,"Ġreven":8437,"ĠAllen":8438,"Che":8439,"Ġcro":8440,"ĠProfessor":8441,"ĠAND":8442,"Ġexpanded":8443,"oding":8444,"oval":8445,"Ġestimate":8446,"ĠAction":8447,"Ġconce":8448,"ĠRoy":8449,"Ġtweeted":8450,"Ġinject":8451,"Ġtransgender":8452,"Ġneck":8453,"Ġreferring":8454,"ĠCommunity":8455,"Ġeastern":8456,"ĠHD":8457,"\")":8458,"Ġregister":8459,"hour":8460,"Ġgrounds":8461,"ĠGolden":8462,"Ġentertainment":8463,"ĠGaza":8464,"Ġlobby":8465,"iry":8466,"Ġsuffer":8467,"ĠAle":8468,"ĠAustin":8469,"osit":8470,"Ġextend":8471,"Ġcoaches":8472,"ictions":8473,"Ġcaptain":8474,"agg":8475,"ĠAcc":8476,"Ġrural":8477,"Ġbrothers":8478,"ĠSuch":8479,"Ġsin":8480,"Ġdispl":8481,"ixed":8482,"Ġsuspected":8483,"ommod":8484,"Ġignore":8485,"ourse":8486,"ĠPot":8487,"Ġlogic":8488,"Ġspaces":8489,"Ġenormous":8490,"Ġimprovement":8491,"Ġceleb":8492,"Ġingred":8493,"Ġdiscussions":8494,"Ġserves":8495,"Ġactivist":8496,"Ġranked":8497,"intendo":8498,"Ġconspiracy":8499,"Ġmedicine":8500,"case":8501,"73":8502,"lah":8503,"Ġopinions":8504,"Ġsorry":8505,"ĠSeason":8506,"Ġstake":8507,"ĠPhilipp":8508,"'.":8509,"Ġinvestigating":8510,"ĠAnderson":8511,"ĠGreece":8512,"ĠMake":8513,"isting":8514,"Ġaffairs":8515,"ĠiOS":8516,"ĠBrew":8517,"Ġadvocates":8518,"Ġmonitor":8519,"angel":8520,"eries":8521,"Ġsubjects":8522,"Ġbrill":8523,"Ġpurchased":8524,"including":8525,"Ġraw":8526,"ĠAlbert":8527,"Ġsamples":8528,"Ġinvolves":8529,"Ġrational":8530,"Ġtasks":8531,"ĠBaltimore":8532,"Ġresource":8533,"Ġoffices":8534,"Ġstayed":8535,"Ġviewed":8536,"ĠRoss":8537,"Ġfallen":8538,"serv":8539,"ĠVegas":8540,"ped":8541,"Ġhorse":8542,"unes":8543,"About":8544,"Ġouts":8545,"Ġdiversity":8546,"Ġintervention":8547,"Ġgam":8548,"Ġjur":8549,"Ġembarrass":8550,"ĠStadium":8551,"ĠSanta":8552,"Ġseemingly":8553,"Ġgains":8554,"ultural":8555,"Ġsalary":8556,"Ġactors":8557,"Ġcovers":8558,"ĠâĤ¬":8559,"Ġreferend":8560,"Sen":8561,"ĠUlt":8562,"ective":8563,"Ġloans":8564,"Ġconsistently":8565,"vard":8566,"ĠRa":8567,"bi":8568,"mat":8569,"Ġsubstantial":8570,"Ġrook":8571,"Ġ?":8572,"Ġchapter":8573,"eters":8574,"Ġspiritual":8575,"ĠRevolution":8576,"Ġnerv":8577,"ĠColumbia":8578,"ĠStat":8579,"Ġdramatic":8580,"gener":8581,"FF":8582,"Ġfoss":8583,"Ġaddressed":8584,"ordon":8585,"Ġresign":8586,"ĠSpring":8587,"Ġmos":8588,"ĠLewis":8589,"ila":8590,"stract":8591,"Ġfulf":8592,"News":8593,"Ġsoil":8594,"ĠIranian":8595,"Ġwarrant":8596,"Ġbacter":8597,"Ġhumanity":8598,"Ġamid":8599,"Ġtomorrow":8600,"arms":8601,"Ġje":8602,"Ġthrowing":8603,"ĠIntelligence":8604,"Ġclothes":8605,"acon":8606,"geon":8607,"iverpool":8608,"xit":8609,"Ġdepression":8610,"Ġmountain":8611,"ĠHistory":8612,"Ġpresum":8613,"plate":8614,"ĠBudd":8615,"Ġsuspended":8616,"iences":8617,"Ġcoc":8618,"63":8619,"Ġinvestigators":8620,"Sm":8621,"Ġsettings":8622,"Ġabsence":8623,"claim":8624,"cover":8625,"Ġprofits":8626,"Ġdisrupt":8627,"ĠCH":8628,"Ġpapers":8629,"ĠFamily":8630,"Ġhanded":8631,"ĠControl":8632,"Ġbureau":8633,"Ġcogn":8634,"ĠFreedom":8635,"Ġmissile":8636,"abeth":8637,"Ġgal":8638,"rets":8639,"Ġmaps":8640,"Ġastron":8641,"Ġboat":8642,"Ġfruit":8643,"Ġattitude":8644,"Ġchecks":8645,"Ġtransportation":8646,"ĠCleveland":8647,"ĠHo":8648,"ĠMassachusetts":8649,"Ġovers":8650,"Ġ52":8651,"Ġcareful":8652,"ĠKennedy":8653,"Ġcolors":8654,"ivals":8655,"Ġlowest":8656,"Ġraces":8657,"otype":8658,"Ġdance":8659,"Ġpref":8660,"Â°":8661,"ĠVancouver":8662,"Ġfactory":8663,"ĠFootball":8664,"Ġsurf":8665,"Ġpreced":8666,"Ġproviders":8667,"Ġcovering":8668,"!)":8669,"Ġinflation":8670,"Ġrhet":8671,"Ġbars":8672,"plete":8673,"Ġdepends":8674,"Where":8675,"Ġvirus":8676,"Ġvirtually":8677,"Ġstone":8678,"ĠBa":8679,"Ġvoter":8680,"ammed":8681,"ĠIllinois":8682,"ounce":8683,"dit":8684,"ĠBall":8685,"ĠLas":8686,"wered":8687,"rec":8688,"Related":8689,"Ġconversations":8690,"Ġpetition":8691,"\".[":8692,"Russ":8693,"Ġnoting":8694,"Ġspeaks":8695,"ĠCre":8696,"uction":8697,"Ġsteel":8698,"Ġhorror":8699,"Ġporn":8700,"ĠEngine":8701,"Ġaccommod":8702,"ported":8703,"maker":8704,"Both":8705,"ipal":8706,"Ġguest":8707,"ĠAp":8708,"ĠHospital":8709,"Ġshoulder":8710,"ĠWhich":8711,"dri":8712,"Ġpersonality":8713,"62":8714,"Ġtea":8715,"iability":8716,"ogs":8717,"oz":8718,"ji":8719,"ĠCBS":8720,"ĠBron":8721,"Ġforest":8722,"Ġreader":8723,"Ġsubsequent":8724,"Ġcust":8725,"Ġincidents":8726,"Ġresponses":8727,"61":8728,"hot":8729,"Ġmarks":8730,"uted":8731,"Ġcontributions":8732,"GE":8733,"VE":8734,"keep":8735,"Ste":8736,"ĠMean":8737,"inf":8738,"ira":8739,"Ġappreciate":8740,"Ġrevel":8741,"Ġprotocol":8742,"Ġreads":8743,"ĠMexican":8744,"uits":8745,"ĠBang":8746,"Ġclosing":8747,"ĠUnfortunately":8748,"Ġphotograp":8749,"Ġham":8750,"Ġencouraged":8751,"Ġpremium":8752,"amac":8753,"Ġballot":8754,"âĶĢ":8755,"Ġjoke":8756,"Ġdrew":8757,"Ġcomedy":8758,"Part":8759,"ĠHell":8760,"scale":8761,"Ġtries":8762,"ĠEnvironment":8763,"icity":8764,"Ġshout":8765,"des":8766,"Ġpromises":8767,"ĠWW":8768,"Ġtemperatures":8769,"Note":8770,"low":8771,"Ġlucky":8772,"ĠiP":8773,"Ġswing":8774,"itting":8775,"ĠTro":8776,"Ġbrown":8777,"Ġlocked":8778,"Ġentr":8779,"ĠLA":8780,"ĠIraqi":8781,"Ġmistakes":8782,"Her":8783,"ĠGun":8784,"ĠScient":8785,"ĠShare":8786,"Ġhint":8787,"quest":8788,"Ġranks":8789,"senal":8790,"ĠKong":8791,"Ġfantastic":8792,"Ġguarantee":8793,"Ġparalle":8794,"ĠGetty":8795,"Ġkm":8796,"Ġhandling":8797,"ĠIndeed":8798,"ropri":8799,"Ġconsole":8800,"inch":8801,"itage":8802,"ĠBroad":8803,"ocument":8804,"ĠHead":8805,"iley":8806,"Ġmusical":8807,"Ġprotecting":8808,"helsea":8809,"Ġbuff":8810,"ĠBad":8811,"ppers":8812,"Please":8813,"esh":8814,"zed":8815,"Art":8816,"Ġefficiency":8817,"ĠMoon":8818,"Ġunions":8819,"Ġspoken":8820,"Ġimproving":8821,"aping":8822,"Ġjudges":8823,"Ġthrew":8824,"Ġguitar":8825,"Ø§":8826,"Ġyellow":8827,"Ġlands":8828,"pled":8829,"Ġportray":8830,"ĠExt":8831,"ĠCost":8832,"Ġdiverse":8833,"ĠUse":8834,"ĠConnect":8835,"Ġspokesperson":8836,"olph":8837,"Ġprotein":8838,"hesis":8839,"annels":8840,"unicip":8841,"Ġrom":8842,"Ġabandoned":8843,"Ġdistributed":8844,"EST":8845,"ĠStart":8846,"Ġhomeless":8847,"uh":8848,"yer":8849,"ĠDoes":8850,"Ġinnovation":8851,"Ġ1995":8852,"ĠNev":8853,"Ġmoon":8854,"FA":8855,"Ġpermit":8856,"Ġblast":8857,"Ġacknowledged":8858,"ĠSamsung":8859,"aver":8860,"ĠWithout":8861,"ais":8862,"ĠHarris":8863,"ĠSony":8864,"bridge":8865,"Ġreplacement":8866,"Ġlying":8867,"Ġtrem":8868,"Ġrender":8869,"Ġlets":8870,"Ġstolen":8871,"ĠHoward":8872,"Ġliterature":8873,"backs":8874,"PP":8875,"Ġsilver":8876,"Ġbreaks":8877,"Ġdump":8878,"Ġcopies":8879,"Ġnomination":8880,"ĠTechnology":8881,"800":8882,"ĠCapt":8883,"yo":8884,"Ġscan":8885,"aval":8886,"Ġclock":8887,"Ġignored":8888,"amacare":8889,"eding":8890,"Ġreferendum":8891,"ĠEag":8892,"Ġordinary":8893,"Ġfestival":8894,"BM":8895,"Ġnaturally":8896,"ĠMarsh":8897,"Ġcommonly":8898,"Ġdivided":8899,"Ġ51":8900,"argo":8901,"Ġpassengers":8902,"Ġmad":8903,"Cons":8904,"ĠDet":8905,"Ġdrama":8906,"ĠAst":8907,"ieties":8908,"Ġmidfield":8909,"Ġrear":8910,"Your":8911,"enez":8912,"Ġbarrel":8913,"Ġbub":8914,"Ġdemonstrated":8915,"Ġtape":8916,"Ġfalls":8917,"Source":8918,"Ġsty":8919,"Ġperforming":8920,"Ġgrav":8921,"arre":8922,"Ġreplied":8923,"Ġinner":8924,"fol":8925,"Ġtransactions":8926,"ĠAtlantic":8927,"Ġves":8928,"ormal":8929,"Ġrif":8930,"Ġ1994":8931,"acket":8932,"ĠLim":8933,"Ġtwenty":8934,"Ġcounts":8935,"aeda":8936,"comes":8937,"Ġlegacy":8938,"iece":8939,"Ġmarch":8940,"dated":8941,"shire":8942,"Ġproposals":8943,"archy":8944,"Ġscope":8945,"inction":8946,"ĠNATO":8947,"erted":8948,"Ġmeasured":8949,"Ġexit":8950,"only":8951,"Ġreceiver":8952,"lahoma":8953,"Ġwrest":8954,"ijing":8955,"Ġsymp":8956,"98":8957,"Ġjoy":8958,"icket":8959,"ĠâĢĿ":8960,"ctic":8961,"ĠCorpor":8962,"assador":8963,"ĠDeath":8964,"Ġstages":8965,"Ġgrid":8966,"Ġstudied":8967,"flix":8968,"high":8969,"ĠTour":8970,"ĠPlus":8971,"Ġacquired":8972,"Ġconcrete":8973,"Ġfunded":8974,"ĠLyn":8975,"2016":8976,"ĠIndiana":8977,"ĠBon":8978,"ĠPatri":8979,"Ġcompe":8980,"Ġconservatives":8981,"Ġpatch":8982,"Ġfro":8983,"oded":8984,"Ġdad":8985,"Ġdistract":8986,"fund":8987,"Ġskept":8988,"conf":8989,"Ġrocket":8990,"Ġdeficit":8991,"Ġhelpful":8992,"heim":8993,"Ġtie":8994,"Ġmonitoring":8995,"Ġinstrument":8996,"Ġrepresenting":8997,"Ġinsisted":8998,"ĠPrince":8999,"iate":9000,"Ġarrive":9001,"Ġheadquarters":9002,"Ġupgrade":9003,"ĠSet":9004,"Ġcenters":9005,"Ġsenator":9006,"Ġ(âĢľ":9007,"ĠBuff":9008,"Ġappointed":9009,"ĠOrig":9010,"ĠUtah":9011,"ecutive":9012,"Ġcriticized":9013,"Ġ2020":9014,"Ġratio":9015,"Ġswim":9016,"ĠPass":9017,"Ġhoped":9018,"organ":9019,"ĠHind":9020,"Ġpresidency":9021,"iano":9022,"Ġmuseum":9023,"Ġinequ":9024,"Ġles":9025,"Ġwarn":9026,"Ġauto":9027,"ĠTrib":9028,"ĠPortland":9029,"Ġcapabilities":9030,"ela":9031,"Ġclassified":9032,"ĠPo":9033,"ington":9034,"ĠAward":9035,"esty":9036,"####":9037,"Ġmathem":9038,"rimin":9039,"RL":9040,"Ġplain":9041,"ĠSus":9042,"Ġbeauty":9043,"ĠSweden":9044,"ĠAbb":9045,"Ġtrave":9046,"Ġprogramme":9047,"Ġhyper":9048,"Ġshopping":9049,"Ġpopulations":9050,"aware":9051,"ĠPop":9052,"Ġrescue":9053,"ĠCA":9054,"Ġsupplies":9055,"Ġblocked":9056,"ĠDave":9057,"cut":9058,"alia":9059,"ĠDenver":9060,"Ġpartnership":9061,"ĠNOT":9062,"ĠFront":9063,"crib":9064,"Ġwaters":9065,"ĠBible":9066,"Ġax":9067,"Ġexch":9068,"Ġabroad":9069,"orge":9070,"Ġreliable":9071,"erg":9072,"Ġsurvival":9073,"plus":9074,"ĠAssociated":9075,"Ġcance":9076,"made":9077,"Ġmole":9078,"ĠOntario":9079,"Ġletting":9080,"Ġtrigger":9081,"Ġintroduction":9082,"ĠHur":9083,"Ġentreprene":9084,"Ġwhenever":9085,"âĢĲ":9086,"mony":9087,"Ġdust":9088,"Ġuniversities":9089,"HT":9090,"Ġdismissed":9091,"Ġtracking":9092,"Ġdomain":9093,"ultane":9094,"Facebook":9095,"ntil":9096,"ught":9097,"Ġtransit":9098,"omes":9099,"through":9100,"Ke":9101,"ĠSometimes":9102,"ĠBureau":9103,"ĠLow":9104,"ĠProv":9105,"Ġappearances":9106,"Ġaccomplish":9107,"hop":9108,"aga":9109,"Ġramp":9110,"theless":9111,"Â·":9112,"pton":9113,"Ġlandscape":9114,"Ġclar":9115,"ĠDO":9116,"ĠOlympic":9117,"Ġurged":9118,"Ġconventional":9119,"Ġec":9120,"Ġentitled":9121,"ĠâĪĴ":9122,"ĠDeb":9123,"ĠCooper":9124,"Ġwider":9125,"ĠMarx":9126,"usalem":9127,"Ġassessment":9128,"ĠAC":9129,"Ġhung":9130,"Yet":9131,"Ġusage":9132,"ĠNintendo":9133,"encing":9134,"Ġpopularity":9135,"2014":9136,"Ġvisiting":9137,"Ġrepresentatives":9138,"Comp":9139,"Ġrecall":9140,"OK":9141,"Ġpolitically":9142,"Ġdocumentary":9143,"dney":9144,"EP":9145,"Ġveterans":9146,"Ġpredicted":9147,"Ġracism":9148,"don":9149,"ĠDutch":9150,"ĠMaster":9151,"Ġequality":9152,"Ġbanking":9153,"agic":9154,"Ġdrove":9155,"Ġdub":9156,"Ġfiring":9157,"irts":9158,"ĠJustin":9159,"Ġbread":9160,"Ġpig":9161,"ois":9162,"izabeth":9163,"Ġtestimony":9164,"Ġtargeting":9165,"Ġsatellite":9166,"ĠGirl":9167,"Ġmembership":9168,"king":9169,"Ġrequested":9170,"ĠEdward":9171,"ĠCow":9172,"Still":9173,"ĠFall":9174,"Ġsoccer":9175,"acco":9176,"AND":9177,"ĠMarvel":9178,"Ġhockey":9179,"they":9180,"oenix":9181,"ĠCode":9182,"Ġthorough":9183,"Ġassert":9184,"pa":9185,"olves":9186,"rooms":9187,"Ġtips":9188,"Ġartific":9189,"Ġspokeswoman":9190,"ĠAud":9191,"Ġpersons":9192,"Ġtactics":9193,"door":9194,"rite":9195,"Are":9196,"Ġdisorder":9197,"inating":9198,"Ġcompare":9199,"ĠProp":9200,"Ġcontrad":9201,"Ġrush":9202,"Ġbonus":9203,"orous":9204,"ĠWik":9205,"ĠMagic":9206,"Ġpursue":9207,"har":9208,"ĠBase":9209,"held":9210,"Ġshadow":9211,"Ġabsor":9212,"Ġassign":9213,"ĠHarvard":9214,"Ġscientist":9215,"Ġsubmit":9216,"jud":9217,"ennis":9218,"Ġhydro":9219,"Ġbutt":9220,"Ġcongressional":9221,"ordinary":9222,"Ġobjective":9223,"Ġdates":9224,"ĠLine":9225,"Ġfighter":9226,"ĠJam":9227,"Ġacid":9228,"Ġreleases":9229,"71":9230,"Ġintroduce":9231,"Ġsequence":9232,"Ġquote":9233,"ika":9234,"was":9235,"Ġforecast":9236,"ĠAge":9237,"Ġproducers":9238,"Ġcul":9239,"SL":9240,"isons":9241,"atar":9242,"ounding":9243,"break":9244,"Äĥ":9245,"Ġsaving":9246,"ĠRoberts":9247,"Ġbrilliant":9248,"Ġtab":9249,"ĠGalaxy":9250,"600":9251,"ĠList":9252,"ĠMill":9253,"Ġanxiety":9254,"zing":9255,"Ġbreath":9256,"ĠBridge":9257,"Ġviolation":9258,"olds":9259,"Ġwedd":9260,"enter":9261,"ĠForm":9262,"ĠLiverpool":9263,"ĠHave":9264,"ĠYOU":9265,"ĠEmpire":9266,"ederation":9267,"ĠKar":9268,"Ġchildhood":9269,"ĠHon":9270,"rapped":9271,"Ġ~":9272,"inals":9273,"ahu":9274,"Ġexperiments":9275,"html":9276,"Ġchannels":9277,"Ġdemanding":9278,"mind":9279,"Ġemployed":9280,"Ġfocusing":9281,"Ġtonight":9282,"ouri":9283,"trans":9284,"child":9285,"ĠTed":9286,"Ġstability":9287,"Ġapproached":9288,"Ġmonthly":9289,"Ġinvestigations":9290,"84":9291,"berry":9292,"bow":9293,"Ġpipeline":9294,"ded":9295,"ĠExpl":9296,"Ġphenomenon":9297,"Ġrestaurants":9298,"erts":9299,"Ġaer":9300,"Though":9301,"Ġsalt":9302,"Ġwealthy":9303,"NS":9304,"Ġcig":9305,"ĠBra":9306,"Ġargues":9307,"isk":9308,"emed":9309,"atern":9310,"Ġprovision":9311,"2015":9312,"Ġweigh":9313,"ĠStory":9314,"ĠHop":9315,"Ġunexpected":9316,"ĠAdv":9317,"Ġroof":9318,"Ġharassment":9319,"ĠAmong":9320,"Ġforcing":9321,"Ġdesigns":9322,"Ġpreparing":9323,"Dem":9324,"Ġgenerations":9325,"afe":9326,"Ġabilities":9327,"Ġservers":9328,"Ġconsent":9329,"Ġhosp":9330,"Ġcelebrate":9331,"David":9332,"ĠVill":9333,"ĠAlexander":9334,"Ġmit":9335,"Ġlunch":9336,"icism":9337,"omed":9338,"Ġfool":9339,"Ġunpre":9340,"tenance":9341,"Ġwaves":9342,"ĠMach":9343,"ĠClick":9344,"Ġdeny":9345,"Ġokay":9346,"Ġquestioned":9347,"ĠJerusalem":9348,"ĠGulf":9349,"Ġphrase":9350,"js":9351,"Ġprepar":9352,"->":9353,"Ġsurely":9354,"itter":9355,"Ġarguing":9356,"Ġmini":9357,"ĠPD":9358,"VD":9359,"ĠHa":9360,"orious":9361,"elson":9362,"Ġmac":9363,"Ġspots":9364,"Ġarbit":9365,"Ġmortg":9366,"ĠGovernor":9367,"ĠUr":9368,"Ġsmoking":9369,"Ġfing":9370,"Ġmaintained":9371,"Ġreforms":9372,"Ġbab":9373,"Ġuniversal":9374,"minute":9375,"Ġawarded":9376,"Ġgent":9377,"Ġalarm":9378,"mans":9379,"ested":9380,"ĠObamacare":9381,"Ġ53":9382,"Ġinnocent":9383,"ĠLiberal":9384,"Ġsavings":9385,"Ġweekly":9386,"Hz":9387,"ĠDesign":9388,"Sim":9389,"Ġ_":9390,"Ġkeys":9391,"Ġchest":9392,"sa":9393,"ĠAk":9394,"Ġsecondary":9395,"Ġhealthcare":9396,"Ġintim":9397,"âĢĶâĢĶâĢĶâĢĶ":9398,"walk":9399,"Ġanniversary":9400,"Ġactively":9401,"Ġrooms":9402,"izer":9403,"Ġprisoners":9404,"Ġsettled":9405,"ĠScottish":9406,"Ġquoted":9407,"Ġcivilian":9408,"Ġarchitecture":9409,"onder":9410,"Ġbroader":9411,"Ġaffordable":9412,"Ġloose":9413,"Ġassass":9414,"ĠAI":9415,"ĠWH":9416,"Ġstored":9417,"Ġtitled":9418,"Ġsubmitted":9419,"Ġ1992":9420,"Ġreveals":9421,"Ġdifferently":9422,"Ġfur":9423,"Ġoverseas":9424,"aa":9425,"ĠRuby":9426,"lee":9427,"Ġbias":9428,"ributes":9429,"essee":9430,"Ġdelic":9431,"Ġsear":9432,"Ġwindows":9433,"Ġretirement":9434,"Ġpropaganda":9435,"irlf":9436,"orship":9437,"Ġflags":9438,"Ġpersu":9439,"Ġlegislative":9440,"UST":9441,"81":9442,"Ġsevent":9443,"Ġages":9444,"Ġ99":9445,"ĠRun":9446,"Ġshield":9447,"ĠOklahoma":9448,"asty":9449,"eals":9450,"Ġrounds":9451,"Step":9452,"Ġplayoffs":9453,"Reuters":9454,"Ġsorts":9455,"Ġshame":9456,"Ġpointing":9457,"Ġfate":9458,"Ġexha":9459,"Ġcooperation":9460,"mers":9461,"irlfriend":9462,"Ġshr":9463,"vernment":9464,"Ġ95":9465,"ĠBeijing":9466,"ĠSav":9467,"Ġdifficulty":9468,"ĠTech":9469,"ĠCro":9470,"Ġpron":9471,"Ġsilence":9472,"Ġlanding":9473,"ĠWas":9474,"Ġreverse":9475,"Ty":9476,"El":9477,"after":9478,"ĠBloom":9479,"Ġgraduate":9480,"apolis":9481,"fare":9482,"Ġkilomet":9483,"Ġpossess":9484,"itol":9485,"Ġencounter":9486,"Ġtens":9487,"ĠBeck":9488,"Ġcircle":9489,"ĠLeader":9490,"Ġdeadly":9491,"ĠPerson":9492,"Ġthreatening":9493,"Ġconsensus":9494,"Ġborders":9495,"ĠWarren":9496,"Ġceremony":9497,"83":9498,"Ġstruggled":9499,"ĠPA":9500,"Ġoutrage":9501,"Ġdemonstrate":9502,"Ġhal":9503,"lined":9504,"Ġcalm":9505,"ĠBruce":9506,"Ġvoices":9507,"***":9508,"Ġsmartphone":9509,"ĠYemen":9510,"Ġstreaming":9511,"Ġpuzz":9512,"Ġexecution":9513,"Ġprecisely":9514,"ĠFal":9515,"Ġimportantly":9516,"Ġprosecutors":9517,"Ġstem":9518,"\">":9519,"ĠLeft":9520,"Ġassumed":9521,"Ġstriking":9522,"Ġnewsletter":9523,"Ġsimultane":9524,"Ġautonom":9525,"ĠHamilton":9526,"ĠGraham":9527,"Ġrookie":9528,"Ġemerging":9529,"??":9530,"Ġstaying":9531,"Ġsemi":9532,"Ġadventure":9533,"Ġalter":9534,"Ġodds":9535,"annon":9536,"div":9537,"ĠCredit":9538,"asury":9539,"acts":9540,"yes":9541,"oret":9542,"oln":9543,"Ġtrillion":9544,"party":9545,"Watch":9546,"ĠPrice":9547,"ĠBerlin":9548,"asant":9549,"omy":9550,"ĠGT":9551,"Ġanalyst":9552,"isa":9553,"Ġarr":9554,"ĠWolf":9555,"cest":9556,"ĠCommon":9557,"Ġdeserve":9558,"ompson":9559,"Ġconsideration":9560,"race":9561,"ĠHong":9562,"ĠâĢ¢":9563,"ceptions":9564,"Ġcomprehensive":9565,"Ġtremend":9566,"Ġsmile":9567,"agh":9568,"Story":9569,"Ġhighlights":9570,"ĠPalestinians":9571,"Ġerrors":9572,"sl":9573,"Ġcategories":9574,"Ġexecutives":9575,"Ġna":9576,"ĠOp":9577,"Ġaccessible":9578,"Ġwhereas":9579,"scribe":9580,"rows":9581,"etch":9582,"uten":9583,"ova":9584,"Ġdying":9585,"Ġnic":9586,"FO":9587,"holders":9588,"stal":9589,"ĠMaryland":9590,"Ġprocedure":9591,"eremy":9592,"ĠMORE":9593,"hatt":9594,"iev":9595,"ethe":9596,"Christ":9597,"Ġgreatly":9598,"rection":9599,"Ġstepped":9600,"itual":9601,"Ġimplications":9602,"igious":9603,"Ġburning":9604,"Ġjudgment":9605,"Ġmanaging":9606,"Ġinstructions":9607,"SC":9608,"const":9609,"bury":9610,"Ġratings":9611,"Ġpicks":9612,"ocolate":9613,"Ġinspect":9614,"Ġinches":9615,"Google":9616,"Ġbirds":9617,"ĠArk":9618,"Mus":9619,"ĠVietnam":9620,"ĠAffairs":9621,"GA":9622,"Ġclothing":9623,"ĠIndust":9624,"Ġwanting":9625,"Ġsuperior":9626,"ĠCarter":9627,"Ġclinical":9628,"Ġbin":9629,"issue":9630,"ĠBatman":9631,"ĠMain":9632,"Ġstrategies":9633,"Ġtransaction":9634,"Ġfrequency":9635,"Ġknee":9636,"********":9637,"portation":9638,"Ð»":9639,"Ġmargin":9640,"cedented":9641,"Ġ1993":9642,"Ġtorture":9643,"Ġcustody":9644,"Ms":9645,"Ġrelax":9646,"ĠLeon":9647,"Ġphysically":9648,"Ġchicken":9649,"itary":9650,"Ġenthusi":9651,"ĠSilver":9652,"bered":9653,"ishop":9654,"Ġtrials":9655,"Ġrepeat":9656,"Ġgif":9657,"Ġriding":9658,"Ġassigned":9659,"ĠPres":9660,"Pre":9661,"Ġsmell":9662,"Ġmeaningful":9663,"ĠMrs":9664,"ito":9665,"Ġnin":9666,"eps":9667,"ĠDer":9668,"ĠVice":9669,"Ġdrives":9670,"Ġremarkable":9671,"ĠMeanwhile":9672,"ĠChelsea":9673,"Ġwounded":9674,"Ġdivor":9675,"Ġcontribution":9676,"ĠAndre":9677,"adi":9678,"ĠTes":9679,"rif":9680,"ĠVideo":9681,"Ġinterf":9682,"Ġblank":9683,"ĠTele":9684,"raig":9685,"ailed":9686,"Ġcompeting":9687,"ĠFestival":9688,"Ġdispute":9689,"Ġpassage":9690,"Ġcoinc":9691,"Ġdistingu":9692,"ĠBelg":9693,"ĠAssembly":9694,"Ġcream":9695,"Ġcontacted":9696,"igate":9697,"ĠEqu":9698,"Ġathletes":9699,"Ġmissions":9700,"ĠLibya":9701,"Ġformation":9702,"Ġindicates":9703,"Ġpromoting":9704,"aki":9705,"ĠSab":9706,"author":9707,"ĠStore":9708,"ĠCapital":9709,"Ġguidelines":9710,"Ġhosted":9711,"Ġparticipation":9712,"Ġhip":9713,"Ġrevers":9714,"enezuel":9715,"sect":9716,"Ġ1950":9717,"Ġdonations":9718,"Ġdialogue":9719,"oice":9720,"Ġans":9721,"Ġpromising":9722,"ĠSarah":9723,"ĠLt":9724,"ĠTen":9725,"Ġendorse":9726,"ĠLi":9727,"Ġgate":9728,"ĠLink":9729,"Ġrecipe":9730,"Ġ120":9731,"riors":9732,"Ġstudying":9733,"Ġmanagers":9734,"Ġease":9735,"ĠEmail":9736,"bits":9737,"Ġseed":9738,"Ġopens":9739,"uz":9740,"Ġcapitalism":9741,"ĠJonathan":9742,"ĠSom":9743,"aria":9744,"Ġdefending":9745,"iac":9746,"Ġministry":9747,"ĠBud":9748,"Ġfossil":9749,"ĠSix":9750,"Ġmice":9751,"âĪ":9752,"Ġpoison":9753,"ĠExper":9754,"Ġcrimin":9755,"ĠSydney":9756,"Ġpharm":9757,"week":9758,"Ġstere":9759,"Ġ54":9760,"alysis":9761,"Ġspell":9762,"ĠMess":9763,"Ġtherapy":9764,"sub":9765,"Ġsuspects":9766,"Ġpresentation":9767,"ierce":9768,"Ġmemo":9769,"Ġeligible":9770,"itudes":9771,"ĠChildren":9772,"Ġspectrum":9773,"ĠCrime":9774,"Ġcharity":9775,"Ġperceived":9776,"Ġstops":9777,"even":9778,"Ġdiscount":9779,"Ġdating":9780,"Ġfacilit":9781,"Ġmuscle":9782,"Ġlux":9783,"ĠBal":9784,"akh":9785,"Ġkitchen":9786,"ĠEth":9787,"ĠStation":9788,"ĠNetflix":9789,"erent":9790,"ĠInstagram":9791,"Ġvariable":9792,"Ġinvestments":9793,"Ġcow":9794,"AF":9795,"open":9796,"Ġdamaged":9797,"Ġgross":9798,"Ġlegally":9799,"Ġpicking":9800,"Ġmood":9801,"Ġgathering":9802,"Ġrecre":9803,"Ġtons":9804,"Ġcenturies":9805,"aved":9806,"Ġmemories":9807,"ĠMLS":9808,"Ġenhance":9809,"igenous":9810,"ĠThrough":9811,"orable":9812,"iffs":9813,"ĠManagement":9814,"Ġsubstance":9815,"Ġburden":9816,"Ġgrade":9817,"Ġtheories":9818,"ĠPict":9819,"vertisements":9820,"Ġtut":9821,"EX":9822,"Ġregulatory":9823,"player":9824,"ses":9825,"olar":9826,"vision":9827,"Ġexpanding":9828,"Ġbowl":9829,"van":9830,"aration":9831,"Ġtired":9832,"Ġopenly":9833,"Ġfoods":9834,"ĠBrexit":9835,"roph":9836,"ĠHart":9837,"ĠLam":9838,"ĠMurray":9839,"Ġpocket":9840,"View":9841,"eria":9842,"Ġtables":9843,"Ġbacking":9844,"ocial":9845,"ĠTok":9846,"ĠPhotos":9847,"ateral":9848,"Ġorganic":9849,"Ġunderlying":9850,"Ġdominant":9851,"Ġeducational":9852,"Ġbattles":9853,"lla":9854,"Ġdish":9855,"acher":9856,"Ġcreatures":9857,"Ġhopefully":9858,"ĠAz":9859,"herent":9860,"gered":9861,"Ġrhetoric":9862,"ĠGil":9863,"Ġimpression":9864,"Ġdefeated":9865,"ĠClark":9866,"82":9867,"ental":9868,"ĠMorgan":9869,"Ġcounterpart":9870,"Ġdrone":9871,"assy":9872,"umble":9873,"ĠComey":9874,"Ġtopics":9875,"Ġprocedures":9876,"Ġtweets":9877,"Ġcoaching":9878,"Ġbeach":9879,"Ġmanifest":9880,"Ġunfair":9881,"Ġaddresses":9882,"Ġdiscussing":9883,"Ġindustries":9884,"Ġ250":9885,"Ġtap":9886,"ĠHold":9887,"ĠOakland":9888,"Rem":9889,"Act":9890,"ĠPlayer":9891,"Ġfollowers":9892,"Ġlad":9893,"watch":9894,"achel":9895,"Ġ56":9896,"Ġshell":9897,"Ġbottle":9898,"ĠSon":9899,"ĠRepresent":9900,"Ġdies":9901,"odox":9902,"ĠUber":9903,"Ġpunishment":9904,"Def":9905,"Ġfundra":9906,"Ġscrut":9907,"Ġhire":9908,"Ã±":9909,"Ġsed":9910,"ĠElizabeth":9911,"Ġrecruit":9912,"ĠTrade":9913,"Ġtiming":9914,"opyright":9915,"Ġovercome":9916,"ĠKick":9917,"Ġacknowledge":9918,"ĠGO":9919,"ĠTennessee":9920,"market":9921,"ĠAssad":9922,"Ġvig":9923,"Ġremoval":9924,"Ġ).":9925,"Ġrequirement":9926,"Ġeager":9927,"section":9928,"Ġmath":9929,"ĠIron":9930,"Ġcrus":9931,"missions":9932,"ĠVik":9933,"Ġsignals":9934,"Out":9935,"ĠBoe":9936,"Ġdiam":9937,"dy":9938,"ĠPentagon":9939,"ĠCS":9940,"Ġarrival":9941,"Reg":9942,"Ġaged":9943,"ï¼":9944,"Ġsignature":9945,"ĠCreat":9946,"atively":9947,"CO":9948,"Ġengineers":9949,"osa":9950,"ĠPriv":9951,"ĠSean":9952,"ĠBox":9953,"Ġfabric":9954,"Ġracing":9955,"Ġapproaches":9956,"Ġsentenced":9957,"ĠFriend":9958,"ĠML":9959,"Ġexplaining":9960,"Ġ(\"":9961,"Mod":9962,"Ġlapt":9963,"Ġdiseases":9964,"Ġbeating":9965,"Ġfled":9966,"Ġbillions":9967,"hard":9968,"Ġadviser":9969,"Ġgraphics":9970,"Ġsurviv":9971,"ĠWales":9972,"Ġecho":9973,"amous":9974,"Mich":9975,"ĠPsych":9976,"emic":9977,"Ġobsc":9978,"Ġcompat":9979,"Ġsetup":9980,"rior":9981,"base":9982,"96":9983,"agger":9984,"rac":9985,"Ġrequiring":9986,"ĠGary":9987,"ĠZe":9988,"ĠGDP":9989,"Ge":9990,"alties":9991,"rix":9992,"ylum":9993,"âĶĢâĶĢ":9994,"Ġhospitals":9995,"Ġrend":9996,"Ġsovere":9997,"wa":9998,"iture":9999,"angle":10000,"ĠHarper":10001,"ds":10002,"Ġshipping":10003,"Ġoutlets":10004,"Ġamendment":10005,"ĠEvent":10006,"Ġundert":10007,"ĠHawai":10008,"utter":10009,"Earlier":10010,"ĠRoll":10011,"Ġsections":10012,"Ġconvince":10013,"Ã¢":10014,"Ġpreferred":10015,"AY":10016,"ÙĦ":10017,"Ġvend":10018,"Ġinsult":10019,"Ġsearching":10020,"Ġfunctional":10021,"Ġrebels":10022,"will":10023,"Ġtrends":10024,"Ġroy":10025,"Ġstance":10026,"ĠHoll":10027,"Ġpulling":10028,"Ġbold":10029,"Ġinstant":10030,"ĠPage":10031,"Ġanswered":10032,"Ġeveryday":10033,"Cal":10034,"Ġbadly":10035,"izza":10036,"aders":10037,"ĠMetro":10038,"incoln":10039,"Fl":10040,"ipedia":10041,"Ġcler":10042,"ĠMcK":10043,"netic":10044,"ĠReserve":10045,"ĠExecutive":10046,"Ġeggs":10047,"Ġgenes":10048,"Ġfrequent":10049,"olving":10050,"Ġbeings":10051,"ĠYeah":10052,"tsburgh":10053,"VP":10054,"Ġinteraction":10055,"Ġescal":10056,"Ġ1991":10057,"Ġgig":10058,"ĠYan":10059,"Ġcompensation":10060,"Ġciting":10061,"Ġroots":10062,"Ġspeaker":10063,"has":10064,"ĠUsing":10065,"ĠSure":10066,"ĠGordon":10067,"ĠTherefore":10068,"Ġshoes":10069,"Ġsixth":10070,"cosystem":10071,"NBC":10072,"Ã§":10073,"ĠRather":10074,"ixture":10075,"ĠDelhi":10076,"ĠFinally":10077,"erves":10078,"Ġcomics":10079,"TER":10080,"ĠOx":10081,"Ġbow":10082,"ricane":10083,"Ġsegment":10084,"ĠEff":10085,"ptions":10086,"Ġtempor":10087,"Ġperiods":10088,"lando":10089,"brid":10090,"Ġhelic":10091,"Ġstatist":10092,"Ġcock":10093,"Ġattractive":10094,"ĠReagan":10095,"Ġinstitution":10096,"Ġgenre":10097,"Ġcolour":10098,"Ġpollution":10099,"instein":10100,"unicipal":10101,"Finally":10102,"ui":10103,"Mark":10104,"Ġinfo":10105,"Ġmodule":10106,"ĠTai":10107,"Ġtalented":10108,"Ġconstitu":10109,"Ġsheet":10110,"ĠPhoenix":10111,"Ġunprecedented":10112,"Ġmerch":10113,"ĠWhether":10114,"Click":10115,"Ġgene":10116,"ĠBow":10117,"Ġprincipal":10118,"Ġdramatically":10119,"ĠVe":10120,"PL":10121,"ĠSimon":10122,"Ġeliminate":10123,"arts":10124,"Ġoccurs":10125,"Ġmigrants":10126,"TON":10127,"Ġlanded":10128,"Ġposting":10129,"ĠCharlie":10130,"Ġtoxic":10131,"ĠAnna":10132,"mic":10133,"Ġlineup":10134,"ĠJavaScript":10135,"math":10136,"Ġeconomics":10137,"TP":10138,"Ġcommander":10139,"Ġmaintenance":10140,"ĠMit":10141,"Ġpsychological":10142,"duction":10143,"ĠBrooklyn":10144,"Ġupload":10145,"ĠEst":10146,"screen":10147,"Ġarts":10148,"Ġinstances":10149,"ĠKeep":10150,"Ġencouraging":10151,"Top":10152,"UM":10153,"Ġpill":10154,"Cur":10155,"Ġextraordinary":10156,"ĠEPA":10157,"oting":10158,"Ġpartly":10159,"ĠFinal":10160,"gate":10161,"Ġloves":10162,"ĠMichel":10163,"ĠEver":10164,"Ġcollaps":10165,"Ġridiculous":10166,"apore":10167,"Ġpublishing":10168,"Ġdisplayed":10169,"Ġcollaboration":10170,"Ġelder":10171,"Ġstimul":10172,"throp":10173,"Ġweakness":10174,"check":10175,"Ġinquiry":10176,"cor":10177,"ĠSound":10178,"Ġsits":10179,"Ġcontemporary":10180,"Ġconcepts":10181,"arency":10182,"ĠBelow":10183,"left":10184,"ĠStew":10185,"Ġmask":10186,"Ġhelicop":10187,"ĠBi":10188,"Ġperception":10189,"Ġcheaper":10190,"Ġcens":10191,"Ġ57":10192,"Ġutility":10193,"Ġmystery":10194,"ogy":10195,"Ġgest":10196,"owski":10197,"via":10198,"Ġloop":10199,"Ġrolling":10200,"iens":10201,"amps":10202,"Ġfatal":10203,"rot":10204,"ĠCole":10205,"Ġhomosexual":10206,"ĠBurn":10207,"TR":10208,"ĠMontreal":10209,"Ġfights":10210,"Ġblockchain":10211,"Ġfo":10212,"Ġglad":10213,"Ġ85":10214,"ĠDragon":10215,"Ġarc":10216,"Ġassociate":10217,"istant":10218,"Ġlabour":10219,"Ġcoup":10220,"Ġinsight":10221,"iban":10222,"Ġprompted":10223,"Ġengineer":10224,"Ġconstitution":10225,"Ġlect":10226,"Ġreserved":10227,"necess":10228,"awks":10229,"ĠBM":10230,"grade":10231,"arted":10232,"Ġparallel":10233,"rowing":10234,"Ġheroes":10235,"ĠThompson":10236,"ĠEconomic":10237,"Ġpa":10238,"Ġanalysts":10239,"Ġexport":10240,"ĠPhill":10241,"ĠDigital":10242,"Ġcarries":10243,"Ġparad":10244,"Ġbuck":10245,"ĠVenezuel":10246,"ĠJean":10247,"Ġ59":10248,"Ġunve":10249,"Ġbutter":10250,"Ġcommunicate":10251,"Ġcorrectly":10252,"ĠBol":10253,"Ġlift":10254,"ĠKentucky":10255,"Ġprize":10256,"Ġirre":10257,"Ġprospects":10258,"Ġpunch":10259,"endar":10260,"Ġdreams":10261,"vi":10262,"Ġaccompan":10263,"Ġdisappointed":10264,"Ġdelight":10265,"Ġcamps":10266,"cre":10267,"oca":10268,"Ġmoderate":10269,"Ġinterviewed":10270,"Ġknock":10271,"elle":10272,"Ġtowns":10273,"Ġdistur":10274,"ĠCaptain":10275,"Ġaims":10276,"liest":10277,"abet":10278,"cur":10279,"Ġguests":10280,"bourne":10281,"estyle":10282,"Ġbands":10283,"acre":10284,"Ġinequality":10285,"ĠAntonio":10286,"Ġmanufacturers":10287,"graph":10288,"Ġoppose":10289,"Ġintr":10290,"Ġdefender":10291,"Ġdiplomatic":10292,"Ġinvasion":10293,"Ġdeadline":10294,"ĠTax":10295,"Ġmodified":10296,"Ġperformances":10297,"onz":10298,"Ġdemanded":10299,"Ġbullet":10300,"Ġpregnant":10301,"Ġforum":10302,"ĠGiven":10303,"Next":10304,"gus":10305,"ĠDur":10306,"Ġnotable":10307,"Paul":10308,"Ġdesigner":10309,"Ġadopt":10310,"Ġowns":10311,"isdom":10312,"Ġdeployed":10313,"kee":10314,"ĠTotal":10315,"Ġemp":10316,"ALL":10317,"Ġexplosion":10318,"Ġbene":10319,"150":10320,"Ġcorrupt":10321,"AB":10322,"pack":10323,"ĠFive":10324,"Ġrecommendations":10325,"wed":10326,"ĠSource":10327,"Ġcognitive":10328,"eness":10329,"Dis":10330,"news":10331,"lly":10332,"Ġrelation":10333,"(\"":10334,"Ġoccasionally":10335,"Ġquit":10336,"ĠHitler":10337,"ĠStaff":10338,"ĠAccess":10339,"Ġdrunk":10340,"2017":10341,"à¤":10342,"Ġvolunteers":10343,"Ġingredients":10344,"Ġaccum":10345,"Ġbiological":10346,"oli":10347,"Ġvocal":10348,"2013":10349,"umph":10350,"Ġbirthday":10351,"ailable":10352,"Ġseized":10353,"Ġresolve":10354,"Ġanonymous":10355,"some":10356,"Ġneighbors":10357,"ĠET":10358,"ĠProtection":10359,"Ġlessons":10360,"Ġpleased":10361,"Ġsli":10362,"ĠBan":10363,"Ġsessions":10364,"isition":10365,"abe":10366,"Ġadequ":10367,"ikh":10368,"ĠOrder":10369,"Comm":10370,"Ġecosystem":10371,"Gener":10372,"ĠJenn":10373,"Ġasset":10374,"Israel":10375,"Ġrepresentation":10376,"Ġexclud":10377,"ĠSa":10378,"ĠRussell":10379,"Ġtraveling":10380,"Ġprofessionals":10381,"ĠKnow":10382,"Ġtraged":10383,"Thanks":10384,"Ġviolations":10385,"Ġrecon":10386,"ĠDick":10387,"ART":10388,"rock":10389,"Ġspan":10390,"leans":10391,"Ġlifetime":10392,"250":10393,"ĠBul":10394,"Ġlibr":10395,"Ġrepair":10396,"Ġinterpre":10397,"ĠAuthority":10398,"Ġemployers":10399,"Ġhanging":10400,"ĠCapitol":10401,"Ġintellig":10402,"Ġstro":10403,"ighth":10404,"eling":10405,"Ġstack":10406,"Ġunderground":10407,"Ġsubsc":10408,"ĠGro":10409,"Ġcouples":10410,"wind":10411,"cal":10412,"Ġideology":10413,"Ġelectoral":10414,"Instead":10415,"Ġannoy":10416,"Whe":10417,"Ġnose":10418,"Gu":10419,"Ġterr":10420,"Ġbombs":10421,"early":10422,"Ġclip":10423,"2012":10424,"Ġisolated":10425,"Ġdesktop":10426,"Ġwedding":10427,"Ġconfused":10428,"Ġ</":10429,"ials":10430,"ĠHand":10431,"arson":10432,"ixon":10433,"hattan":10434,"Ġexisted":10435,"Ġda":10436,"âĢ¦.":10437,"CD":10438,"Ġartificial":10439,"ĠOnline":10440,"Ġjihad":10441,"ĠChannel":10442,"97":10443,"Ġimposed":10444,"Ġmaintaining":10445,"ols":10446,"Ġconfiguration":10447,"EG":10448,"Ġvert":10449,"Ġsoldier":10450,"apper":10451,"oga":10452,"Ġminimal":10453,"ĠMissouri":10454,"Ġ72":10455,"Ġrevolutionary":10456,"ĠLibrary":10457,"Ġjumped":10458,"owned":10459,"ĠAlan":10460,"ĠPers":10461,"mir":10462,"atus":10463,"Ġrecalled":10464,"ĠGiants":10465,"acles":10466,"Ġshocked":10467,"Ġsurrounded":10468,"Ġancest":10469,"oub":10470,"ĠCustom":10471,"Ġlogo":10472,"ĠHamp":10473,"ĠConvention":10474,"Ġinspiration":10475,"Ġswit":10476,"ĠBu":10477,"Ġopposing":10478,"Ġ58":10479,"fit":10480,"human":10481,"agen":10482,"Ġlesson":10483,"immer":10484,"imize":10485,"Ġdual":10486,"Time":10487,"ĠNon":10488,"State":10489,"Ġfert":10490,"Ġgirlfriend":10491,"Ġmile":10492,"hist":10493,"93":10494,"Ġyell":10495,"Ġadvocate":10496,"dr":10497,"Ġnurs":10498,"Ġrefers":10499,"bound":10500,"Ġconsciousness":10501,"ĠIM":10502,"Ġdescribing":10503,"strong":10504,"Ġbreast":10505,"ĠTs":10506,"Ġinterior":10507,"Ġbrutal":10508,"Ġfleet":10509,"ĠBarb":10510,"Ġshirt":10511,"ĠMarine":10512,"Update":10513,"Ġnervous":10514,"ĠOcean":10515,"Speaking":10516,"gets":10517,"Ġathe":10518,"Ġscar":10519,"Ġconcerning":10520,"Ġemotions":10521,"Ġintegrity":10522,"Ġbankrupt":10523,"Ġmilitants":10524,"ben":10525,"Ġmomentum":10526,"Ġsubscribe":10527,"ĠNevada":10528,"Ġholes":10529,"ĠOrleans":10530,"Ġmeal":10531,"too":10532,"Ġdesperate":10533,"appropri":10534,"Ġintegration":10535,"Ġ1989":10536,"tra":10537,"tainment":10538,"Ġpeaceful":10539,"94":10540,"ĠHal":10541,"Ġkicked":10542,"starter":10543,"arget":10544,"Ġjournalism":10545,"pg":10546,"ĠSteel":10547,"Ġsinger":10548,"ĠCON":10549,"Ġchoosing":10550,"Ġboxes":10551,"aro":10552,"ĠGh":10553,"ardo":10554,"ulty":10555,"ĠSheriff":10556,"ĠEveryone":10557,"Ġscream":10558,"stop":10559,"Ġelectron":10560,"Ġguid":10561,"Ġreferences":10562,"election":10563,"Ġsne":10564,"ĠSD":10565,"ĠCase":10566,"ĠUb":10567,"Ġrefugee":10568,"Ġconcert":10569,"ĠNS":10570,"Ġteeth":10571,"Ġevident":10572,"Ġdominated":10573,"Ag":10574,"Ġsilent":10575,"ĠCould":10576,"ĠFant":10577,"Ġsteady":10578,"reek":10579,"ĠPant":10580,"Thank":10581,"Ġrefuse":10582,"Ġjustify":10583,"Gl":10584,"ocated":10585,"ĠArsenal":10586,"Ġ600":10587,"Ġembrace":10588,"ĠCoal":10589,"mented":10590,"ĠKhan":10591,"commun":10592,"Ġstruggles":10593,"Ġremoving":10594,"ĠRome":10595,"ĠOcc":10596,"Ġassembly":10597,"Ġacceptable":10598,"Ġdisappear":10599,"Ġwondering":10600,"ĠLear":10601,"Ġburied":10602,"function":10603,"Ġconsiderable":10604,"income":10605,"hr":10606,"Ġcredits":10607,"ĠIntel":10608,"ĠFollowing":10609,"Ġsubsequently":10610,"Ġstating":10611,"isd":10612,"Ġdonors":10613,"Ġcreature":10614,"Ġteammates":10615,"Ġexecuted":10616,"Ġsuspic":10617,"ĠPittsburgh":10618,"Net":10619,"Ġsubur":10620,"Ġroutes":10621,"ĠNether":10622,"ĠMountain":10623,"chell":10624,"Ġcompromise":10625,"Ġkeyboard":10626,"Ġclosest":10627,"Ġpride":10628,"Ġregistration":10629,"ĠNone":10630,"Ġconvert":10631,"ibl":10632,"Ġsummit":10633,"Ġbird":10634,"Ġbriefly":10635,"ĠWarner":10636,"Ġflour":10637,"father":10638,"rend":10639,"Ġgameplay":10640,"Ġorganisation":10641,"ĠLincoln":10642,"ĠLeban":10643,"ĠTrust":10644,"Ġjer":10645,"Ġpodcast":10646,"Ġorbit":10647,"Ġcheese":10648,"ĠSpir":10649,"ĠMove":10650,"Ġoccasional":10651,"oker":10652,"ĠAren":10653,"Ġbacteria":10654,"odge":10655,"Ġhiring":10656,"ĠKl":10657,"Ġcharacteristics":10658,"ĠMun":10659,"Ġengaging":10660,"otte":10661,"Ġprobe":10662,"Ġexpense":10663,"books":10664,"cap":10665,"hero":10666,"Ġabstract":10667,"Right":10668,"Ġoutcomes":10669,"ĠHan":10670,"Ġalert":10671,"Ġtremendous":10672,"ĠPlace":10673,"Ġsustainable":10674,"ĠIndependent":10675,"Ġevac":10676,"ĠAdams":10677,"ĠRest":10678,".]":10679,"Ġembed":10680,"Ġexclusively":10681,"Ġyeah":10682,"Ġsurvived":10683,"ateful":10684,"orneys":10685,"Ġcontrary":10686,"Ġattending":10687,"Ġsophistic":10688,"Ġpromotion":10689,"Ġprofound":10690,"Ġpir":10691,"ĠSU":10692,"actor":10693,"Ġwitnesses":10694,"QL":10695,"ĠIndones":10696,"inge":10697,"ĠRobinson":10698,"mits":10699,"grad":10700,"Ġspeakers":10701,"Ġharsh":10702,"Ġgri":10703,"ĠMail":10704,"Ã³n":10705,"ĠManhattan":10706,"Ġguards":10707,"ĠHug":10708,"ĠHoly":10709,"hire":10710,"Ġrobust":10711,"Ġphysics":10712,"Ġloaded":10713,"Ġutter":10714,"Black":10715,"Ġministers":10716,"merce":10717,"elve":10718,"Ġspeculation":10719,"Station":10720,"ĠTreasury":10721,"Ġinterpretation":10722,"Ġknife":10723,"untu":10724,"ĠSci":10725,"Hey":10726,"Ġprinted":10727,"Fi":10728,"ĠRs":10729,"Ġconfusion":10730,"white":10731,"ĠTaliban":10732,"ophob":10733,"Ġobser":10734,"ĠSingapore":10735,"Ġproportion":10736,"ĠShort":10737,"ĠAndy":10738,"lihood":10739,"Ġfails":10740,"Ġintegrated":10741,"BN":10742,"thood":10743,"Ġnowhere":10744,"ĠJeremy":10745,"Ġspo":10746,"ĠArgent":10747,"ĠTesla":10748,"Ġidentical":10749,"Ġexpenses":10750,"Ġchecking":10751,"ĠChairman":10752,"ĠKit":10753,"Name":10754,"List":10755,"anim":10756,"92":10757,"rett":10758,"rition":10759,"ĠDu":10760,"ĠWrit":10761,"ĠAlliance":10762,"Ġboom":10763,"Share":10764,"Ġcharging":10765,"Ġattracted":10766,"reck":10767,"attered":10768,"Ġsuspension":10769,"ĠEdition":10770,"Ġorient":10771,"Ġvariables":10772,"ĠSupport":10773,"Ġrepeal":10774,"Red":10775,"Ġpatri":10776,"Ġpassenger":10777,"ĠOrlando":10778,"Ġcabinet":10779,"ĠNazi":10780,"Ġbrands":10781,"Ġchip":10782,"ĠKings":10783,"Ġdistricts":10784,"Ġcurious":10785,"Car":10786,"ĠDream":10787,"Ġcycl":10788,"Ġchallenged":10789,"ublished":10790,"Ġwet":10791,"Ġslot":10792,"ĠPortug":10793,"Ġdeemed":10794,"Ġdependent":10795,"rics":10796,"ðŁ":10797,"opt":10798,"Ġhosts":10799,"ĠSH":10800,"ĠNorm":10801,"inst":10802,"ĠMario":10803,"oft":10804,"Ġchaos":10805,"Ġranking":10806,"test":10807,"ĠHu":10808,"Ġbombing":10809,"ĠOfficer":10810,"Ġcriminals":10811,"ĠWord":10812,"Ġoxy":10813,"ĠAlp":10814,"ĠVlad":10815,"Ġscared":10816,"Ġfel":10817,"Ġcaps":10818,"Ġchronic":10819,"ĠLater":10820,"Ġsexually":10821,"Ġdecrease":10822,"nan":10823,"Ġtear":10824,"security":10825,"ĠLes":10826,"Ġhunting":10827,"ĠStudies":10828,"Pal":10829,"Ġcorrel":10830,"Ġmotivated":10831,"ĠArea":10832,"Ġsimultaneously":10833,"Trans":10834,"iar":10835,"Ġpatent":10836,"scar":10837,"Ġmeth":10838,"Ġstrengthen":10839,"Ġassemb":10840,"ishers":10841,"looking":10842,"ĠDoctor":10843,"Ġdropping":10844,"Ġguaranteed":10845,"good":10846,"istle":10847,"ĠHaving":10848,"Ġagreements":10849,"Ġavo":10850,"Ġpresents":10851,"Ġcertific":10852,"Ġbits":10853,"ĠCraig":10854,"Ġsolo":10855,"ĠFA":10856,"ĠMap":10857,"amine":10858,"ĠDuke":10859,"Ġintimid":10860,"ifier":10861,"Ġvisits":10862,"Ġfigured":10863,"Ġpackages":10864,"~~":10865,"aste":10866,"ĠRaj":10867,"âĢ¦âĢ¦":10868,"DR":10869,"ele":10870,"Ġmathemat":10871,"Ġenact":10872,"ĠDak":10873,"Ġ800":10874,"Ġlobb":10875,"700":10876,"ĠStewart":10877,"mble":10878,"terror":10879,"Ġflee":10880,"Ġcinem":10881,"Ġlos":10882,"user":10883,"dict":10884,"Ġinfluenced":10885,"Ġengines":10886,"oned":10887,"ĠCaption":10888,"gly":10889,"ĠGriff":10890,"Ġendors":10891,"Ġproduces":10892,"olid":10893,"Ġtaxpayers":10894,"Ġmonster":10895,"Ġleaked":10896,"Ġric":10897,"ĠWould":10898,"ĠReddit":10899,"Ġrecovered":10900,"Ġhouseholds":10901,"Ġfingers":10902,"Ġdevelopments":10903,"ĠBand":10904,"Ġflights":10905,"ĠOpp":10906,"uter":10907,"ĠEntertainment":10908,"Ġasylum":10909,"gged":10910,"imir":10911,"Ġblocking":10912,"ĠGill":10913,"rah":10914,"Ġresearcher":10915,"Ġeditorial":10916,"Ġsurprisingly":10917,"oup":10918,"Ġpolitician":10919,"Ġlane":10920,"izarre":10921,"Ġpacked":10922,"Ġpublish":10923,"Ġimmune":10924,"Ġhub":10925,"Ġjunior":10926,"Ġengagement":10927,"Ġevolved":10928,"Ġinaug":10929,"Ġaccuracy":10930,"Ġangle":10931,"UC":10932,"ĠRussians":10933,"ĠFuture":10934,"Down":10935,"Ġepic":10936,"ĠModel":10937,"rc":10938,"ernand":10939,"Ġbatter":10940,"riv":10941,"Ġpleasure":10942,"Ġexamine":10943,"inite":10944,"ĠThink":10945,"Ġtanks":10946,"Ġblamed":10947,"ĠMult":10948,"ĠVen":10949,"Ġdoct":10950,"Ġpm":10951,"Ġdefended":10952,"block":10953,"Ġignor":10954,"Ġvent":10955,"Ġoperator":10956,"ĠCommand":10957,"Ġoccasion":10958,"ĠLog":10959,"ERE":10960,"Ġradiation":10961,"Ġlin":10962,"ĠHad":10963,"iere":10964,"Ġmeters":10965,"vas":10966,"ĠWright":10967,"large":10968,"ĠCPU":10969,"ĠHIV":10970,"Ġantib":10971,"Ġprost":10972,"Ġexpects":10973,"Ġearthqu":10974,"ĠTower":10975,"Ġprivilege":10976,"bul":10977,"olitical":10978,"Ġinher":10979,"HP":10980,"Ġventure":10981,"Ġstats":10982,"card":10983,"etheless":10984,"Ġalliance":10985,"kes":10986,"ĠBor":10987,"ĠJane":10988,"ĠShould":10989,"Former":10990,"iden":10991,"Ġapplies":10992,"ĠPerry":10993,"thodox":10994,"Ġrestore":10995,"Ġmirror":10996,"Ġtelephone":10997,"Ġexpecting":10998,"Ġsenators":10999,"Ġburned":11000,"about":11001,"Ġcourage":11002,"Ġvolunt":11003,"ĠAaron":11004,"ĠEb":11005,"reshold":11006,"Ġinevitable":11007,"Ġproductive":11008,"ĠUkrainian":11009,"Ġcontinu":11010,"Ġoccupied":11011,"forward":11012,"Ġreleasing":11013,"ĠUSB":11014,"alid":11015,"Ġdistribut":11016,"Ġalgorithm":11017,"Ġimpacts":11018,"Ġexplicitly":11019,"olas":11020,"Ġsubtle":11021,"KE":11022,"ĠMPs":11023,"Ġkiller":11024,"ĠMother":11025,"ĠSN":11026,"Ġpassword":11027,"JP":11028,"ĠMedicare":11029,"keley":11030,"ĠNetherlands":11031,"Ġinfection":11032,"Ġbacks":11033,"?)":11034,"TE":11035,"Ġforgotten":11036,"ĠMississ":11037,"Ġtower":11038,"omic":11039,"Ġbarg":11040,"ĠTel":11041,"Ġ62":11042,"Ġjet":11043,"aments":11044,"bat":11045,"lynn":11046,"Ġenabled":11047,"bes":11048,"boys":11049,"ĠPoland":11050,"Ġstrip":11051,"Ġtheft":11052,"wich":11053,"ippi":11054,"Ġvit":11055,"ahoo":11056,"dep":11057,"Ġunnecess":11058,"Ġnationwide":11059,"Ġmodest":11060,"ATCH":11061,"Ġbol":11062,"Ġconsecut":11063,"Ġcriteria":11064,"leep":11065,"Ġreluct":11066,"town":11067,"uating":11068,"ĠNO":11069,"MAN":11070,"Ġregarded":11071,"ĠHampshire":11072,"ĠCR":11073,"ĠKr":11074,"Ġmm":11075,"ĠCB":11076,"Ġaccord":11077,"ressing":11078,"ĠOttawa":11079,"ĠLad":11080,"Ġraises":11081,"--------------------------------":11082,"var":11083,"Ġorganis":11084,"limited":11085,"first":11086,"ĠCorporation":11087,"Ġsolely":11088,"erald":11089,"ĠReds":11090,"ĠNiger":11091,"Ġinfluential":11092,"Ġunre":11093,"Ġuncomfort":11094,"aya":11095,"ĠMoreover":11096,"Ġmales":11097,"izations":11098,"ĠDE":11099,"ĠChange":11100,"ĠChristopher":11101,"Ġinsist":11102,"ĠEnt":11103,"Three":11104,"Ġtent":11105,"Ġpromoted":11106,"Ġdesp":11107,"ĠAbu":11108,"ĠJun":11109,"ĠMedicaid":11110,"cott":11111,"Br":11112,"Ġchecked":11113,"Ġwise":11114,"91":11115,"ista":11116,"ĠMorm":11117,"Ġsimilarly":11118,"bin":11119,"otion":11120,"ĠGib":11121,"Gr":11122,"Ġcourtesy":11123,"Ġshops":11124,"ĠEgyptian":11125,"00000000":11126,"ilation":11127,"ĠMarg":11128,"ĠExp":11129,"adesh":11130,"âĸĪ":11131,"Ġprovisions":11132,"ĠFlash":11133,"ulse":11134,"ĠOR":11135,"Ã¨":11136,"Ġuncertainty":11137,"ĠHung":11138,"TO":11139,"Ġ66":11140,"Ġdeparture":11141,"Ġdiver":11142,"ĠPope":11143,"Ġpainting":11144,"Ġscrew":11145,"Ġreass":11146,"ĠLouisiana":11147,"Ġbases":11148,"onduct":11149,"Ġhandled":11150,"ĠBC":11151,"Ġkeen":11152,"Ġqualified":11153,"Ġconflicts":11154,"achment":11155,"Ġfunctionality":11156,"fish":11157,"orate":11158,"Book":11159,"agine":11160,"comp":11161,"ĠDrug":11162,"offs":11163,"ĠCanadians":11164,"ASH":11165,"Ġtransparency":11166,"Ġbackup":11167,"Ġconcentration":11168,"may":11169,"Ġchips":11170,"ĠModi":11171,"ĠTam":11172,"uther":11173,"Ġinvestigated":11174,"Cor":11175,"bian":11176,"Ġflavor":11177,"Ġ63":11178,"rying":11179,"such":11180,"Good":11181,"Ġtransferred":11182,"Ġtrailer":11183,"ige":11184,"ĠMarc":11185,"Ġballs":11186,"Ġought":11187,"overs":11188,"Ġimpressed":11189,"neg":11190,"being":11191,"Ġvoc":11192,"Ġoverl":11193,"Ġlifestyle":11194,"Ġlens":11195,"Ġinvested":11196,"vironments":11197,"Ġanalys":11198,"Obama":11199,"Ġally":11200,"Ġvoid":11201,"Ġbulk":11202,"Ġbabies":11203,"Ġdimin":11204,"ÂĶ":11205,"ĠOlympics":11206,"Ġaccepting":11207,"nie":11208,"Ġcolleg":11209,"âĤ¬":11210,"ĠJerry":11211,"Ġflav":11212,"ollar":11213,"Ġbelt":11214,"Ġprosecutor":11215,"ĠCas":11216,"ampa":11217,"ĠAlaska":11218,"?âĢĻ":11219,"Ġentrance":11220,"Yeah":11221,"Ġ!":11222,"Ġinbox":11223,"rifice":11224,"Ġkiss":11225,"ixel":11226,"leading":11227,"ĠRangers":11228,"Ġ`":11229,"ĠBlood":11230,"assion":11231,"Ġelabor":11232,"Ġparticipating":11233,"Ġformula":11234,"Ġfilter":11235,"ĠRubio":11236,"ĠThings":11237,"Ġresemb":11238,"Ġsynd":11239,"thur":11240,"friendly":11241,"Ġoperated":11242,"SU":11243,"ĠWy":11244,"Ġprosecution":11245,"Ġdrum":11246,"ping":11247,"Ġlean":11248,"urches":11249,"Bar":11250,"llor":11251,"Ġsustained":11252,"Ġpreserve":11253,"ĠAbd":11254,"track":11255,"ĠQueens":11256,"Ġbother":11257,"AAAA":11258,"Ġinex":11259,"lu":11260,"breaking":11261,"Ġjurisd":11262,"Ġgym":11263,"Ġmart":11264,"zone":11265,"unity":11266,"tarian":11267,"Ġbeta":11268,"Among":11269,"Ġexamined":11270,"ĠUnlike":11271,"ĠiPad":11272,"Ġspray":11273,"Ġtheater":11274,"Ġreck":11275,"Ġgarden":11276,"million":11277,"ĠStock":11278,"Ġlaunching":11279,"Ġabsurd":11280,"Ġaccusations":11281,"forced":11282,"Ġgut":11283,"Ġsuck":11284,"Ġexcuse":11285,"ĠStanford":11286,"ĠUnivers":11287,"isms":11288,"Ġrecession":11289,"icked":11290,"atal":11291,"rin":11292,"Ġtears":11293,"Supp":11294,"Ġpolling":11295,"ĠQuest":11296,"ĠCold":11297,"idal":11298,"âĢĿ)":11299,"Ġsecular":11300,"Ġheadlines":11301,"Ġconviction":11302,"Ġdisabled":11303,"Ġcops":11304,"ĠEmer":11305,"Ġconsecutive":11306,"ello":11307,"Ġsurge":11308,"Ġdestination":11309,"ĠTable":11310,"Ġdetention":11311,"Ġcomplained":11312,"Ġfucking":11313,"laim":11314,"Ġobserve":11315,"Ġmandate":11316,"opp":11317,"Ġluxury":11318,"Ðº":11319,"Ġmouse":11320,"imb":11321,"ĠDal":11322,"ĠOil":11323,"Ġrolled":11324,"ĠBeing":11325,"bitious":11326,"Ñĥ":11327,"Ġpolar":11328,"Ġaffects":11329,"Ġleak":11330,"Ġfed":11331,"Ġhes":11332,"ĠNelson":11333,"DC":11334,"Ġneighborhoods":11335,"anyahu":11336,"Ġreflects":11337,"ĠBir":11338,"athon":11339,"Further":11340,"Ġeru":11341,"ugby":11342,"Ġphotographs":11343,"Ġaccompanied":11344,"olitan":11345,"Ġemphasis":11346,"words":11347,"Ġprovider":11348,"ĠEdit":11349,"Ġdocumented":11350,"ching":11351,"Em":11352,"px":11353,"ambling":11354,"ĠFilm":11355,"ĠSoft":11356,"Ġlayers":11357,"wall":11358,"ori":11359,"Ġtension":11360,"Ġguidance":11361,"Ġconsists":11362,"Ġresidential":11363,"usting":11364,"ĠTrek":11365,"Ġpraised":11366,"Ġoccupation":11367,"oning":11368,"Ġsupposedly":11369,"Ġanimation":11370,"ĠWi":11371,"Ġdestro":11372,"ĠLocal":11373,"Ġsake":11374,"ĠManning":11375,"Ġpy":11376,"dog":11377,"non":11378,"ĠHans":11379,"Each":11380,"ĠCC":11381,"Ġadap":11382,"ĠContinue":11383,"ĠPhilippines":11384,"Ġnu":11385,"Ġ67":11386,"Ġanch":11387,"ĠNi":11388,"ouses":11389,"Ġpose":11390,"asm":11391,"ILL":11392,"rike":11393,"Ġrenewable":11394,"gal":11395,"Ġstatic":11396,"link":11397,"itement":11398,"Ġpoet":11399,"Perhaps":11400,"Jo":11401,"ĠMind":11402,"ĠStanley":11403,"Bel":11404,"ĠType":11405,"ĠMcDonald":11406,"df":11407,"Ġcompelling":11408,"ĠCorp":11409,"armed":11410,"Ġposter":11411,"ĠEverything":11412,"Ġneur":11413,"Ġfavourite":11414,"Ġcooking":11415,"Ġlady":11416,"ĠNich":11417,"ĠSche":11418,"ĠJimmy":11419,"oj":11420,"ĠSeveral":11421,"Ġassists":11422,"Ġbags":11423,"Ġtraded":11424,"Ġfut":11425,"una":11426,"Ġexperimental":11427,"ĠImm":11428,"anguage":11429,"Ġmissiles":11430,"Ġseeks":11431,").[":11432,"Ġawards":11433,"Ġimprison":11434,"Ġpreventing":11435,"Ġintrig":11436,"Ġbone":11437,"ĠName":11438,"ĠForest":11439,"ucker":11440,"ĠPlayStation":11441,"ĠNothing":11442,"ĠBlake":11443,"Ġsentiment":11444,"ĠHamas":11445,"Ġshelter":11446,"ĠVin":11447,"Ġstopping":11448,"ĠWinter":11449,"ĠStandard":11450,"Ġinnovative":11451,"Ġrealistic":11452,"Ġpossibilities":11453,"Ġoccasions":11454,"Ġtragedy":11455,"Ġseeds":11456,"Ġtrains":11457,"Ġbeaten":11458,"leted":11459,"shore":11460,"Ġinhab":11461,"ante":11462,"ĠKnight":11463,"ĠTokyo":11464,"Ġmysterious":11465,"Ġsignificance":11466,"Ġdressed":11467,"Ġfinishing":11468,"ĠThird":11469,"âĢ³":11470,"Ġconstructed":11471,"Ġcompetitors":11472,"Ġfits":11473,"Ġmothers":11474,"ĠHTML":11475,"Ġinteractions":11476,"ĠNature":11477,"Ġboards":11478,"Ġbump":11479,"ilst":11480,"Ġreviewed":11481,"ĠVictoria":11482,"Ġkidn":11483,"ND":11484,"ĠChron":11485,"IO":11486,"ĠOrganization":11487,"ĠSport":11488,"ĠDa":11489,"Ġglobe":11490,"Ġpanels":11491,"Ġchocolate":11492,"Ġentity":11493,"ĠNash":11494,"Ġoldest":11495,"Ġgolf":11496,"Ġbeneath":11497,"Ġoutstanding":11498,"ĠProduct":11499,"Ġfer":11500,"Ġwalks":11501,"ĠFinancial":11502,"Ġunfortunately":11503,"Only":11504,"ĠÏ":11505,"Ġtheoret":11506,"Ġconvenient":11507,"Ġenvironments":11508,"Ġadvent":11509,"RO":11510,"citation":11511,"ĠPir":11512,"stra":11513,"Ġdirty":11514,"ĠOthers":11515,"kind":11516,"Ġdealt":11517,"ĠWhit":11518,"century":11519,"Ġspeeds":11520,"Ġmanual":11521,"Ġproductivity":11522,"ĠChampions":11523,"Ġprojected":11524,"lied":11525,"Ġreflected":11526,"rons":11527,"Ġalign":11528,"aco":11529,"ĠSin":11530,"uri":11531,"Following":11532,"Ġreserve":11533,"ĠHeart":11534,"ĠDVD":11535,"Ben":11536,"ĠGrant":11537,"ĠMalays":11538,"ĠAFP":11539,"Ġcircuit":11540,"oyd":11541,"Ġcontainer":11542,"ĠÂ±":11543,"Ġmortgage":11544,"Ġ61":11545,"Ġdisplays":11546,"Ġcreator":11547,"ĠEagles":11548,"Ġhosting":11549,"ĠSwedish":11550,"Ġiconic":11551,"Ġtissue":11552,"Ġrecept":11553,"thal":11554,"ĠSnowden":11555,"puter":11556,"ĠSection":11557,"Mart":11558,"incial":11559,"oria":11560,"Ġanarch":11561,"omer":11562,"Ġdrops":11563,"Ġcalculated":11564,"Ġhiding":11565,"shot":11566,"Ġparameters":11567,"ĠNa":11568,"Ġaddressing":11569,"Ġpainful":11570,"Ġrevenues":11571,"arded":11572,"Ġcoin":11573,"iox":11574,"ĠBlock":11575,"Ġranging":11576,"Ġregret":11577,"Ġcelebrated":11578,"Ġlibraries":11579,"ĠGard":11580,"Ġcrossed":11581,"Ġther":11582,"Ġcleared":11583,"ques":11584,"Ġcease":11585,"Ġwisdom":11586,"Ġwireless":11587,"arios":11588,"Ġlongtime":11589,"Î±":11590,"Ġspotted":11591,"ĠDrive":11592,"agu":11593,"Ġrewards":11594,"Ġwore":11595,"Ġfiling":11596,"ĠCommons":11597,"ĠNik":11598,"Ġlimitations":11599,"ĠAy":11600,"Ġburst":11601,"Ġrivals":11602,"ĠWiki":11603,"Ġlighting":11604,"ĠSEC":11605,"ĠKa":11606,"cular":11607,"rencies":11608,"Ġpregnancy":11609,"Ġawful":11610,"owder":11611,"ĠLarry":11612,"beat":11613,"ĠDomin":11614,"Ġdiscrimin":11615,"Mon":11616,"Ġresort":11617,"ĠSingh":11618,"âĪĻ":11619,"istance":11620,"ĠBah":11621,"Ġtoss":11622,"ĠPoll":11623,"Ġadoption":11624,"Ġbizarre":11625,"Ġearnings":11626,"Ġbip":11627,"ĠMand":11628,"Ġcrossing":11629,"isive":11630,"Ġexploit":11631,"uccess":11632,"seless":11633,"ĠPhys":11634,"mons":11635,"former":11636,"Ġmisc":11637,"UD":11638,"Ġwhis":11639,"Ġgraphic":11640,"burn":11641,"ĠPi":11642,"Ġriders":11643,"ects":11644,"ĠTan":11645,"ĠRh":11646,"Ġslide":11647,"Ġambitious":11648,"Ġcorn":11649,"Ġexploring":11650,"China":11651,"Ġ360":11652,"Ġviable":11653,"Ġrobots":11654,"ĠKurdish":11655,"onds":11656,"gence":11657,"Ġthreshold":11658,"Ġdelayed":11659,"ĠFurthermore":11660,"Ġarrests":11661,"accept":11662,"Ġuncomfortable":11663,"Ġduties":11664,"ATION":11665,"bery":11666,"EMENT":11667,"ĠYang":11668,"ocur":11669,"Ġearning":11670,"ICE":11671,"Ġtrips":11672,"Ġpredec":11673,"Ġpension":11674,"Ġfishing":11675,"ĠFOR":11676,"Ġrelie":11677,"Ġmechanisms":11678,"Ġattorneys":11679,"Ġdevastating":11680,"Ġ1988":11681,"uates":11682,"ĠCollins":11683,"Ġappearing":11684,"Ġamongst":11685,"ĠSE":11686,"winning":11687,"ĠSteam":11688,"Ġbugs":11689,"Ġoperators":11690,"Ġautomatic":11691,"two":11692,"Ġbicy":11693,"Ġdesert":11694,"Ġovernight":11695,"Ġsafely":11696,"Ġcoins":11697,"Ġinfant":11698,"sk":11699,"ĠTR":11700,"Ġdocumentation":11701,"Ġmurdered":11702,"Id":11703,"Ġmeanwhile":11704,"Ġ1000":11705,"Ġindication":11706,"Pat":11707,"kward":11708,"uably":11709,"iah":11710,"Ġacted":11711,"named":11712,"ĠWayne":11713,"Ġdepartments":11714,"ĠSummer":11715,"charg":11716,"Ġconverted":11717,"Ġavailability":11718,"err":11719,"Ġcoord":11720,"Did":11721,"ĠRonald":11722,"Ġliberty":11723,"Unfortunately":11724,"ailing":11725,"ĠPear":11726,"ĠKal":11727,"ĠMagazine":11728,"Ġtale":11729,"Ġcomplexity":11730,"uj":11731,"Ġnewsletters":11732,"government":11733,"Ġbuilds":11734,"Ġcommands":11735,"ĠPa":11736,"Ġradar":11737,"Att":11738,"Ġscrutiny":11739,"ĠCrit":11740,"acies":11741,"ĠMadrid":11742,"profile":11743,"ĠMurphy":11744,"ĠFather":11745,".),":11746,"bu":11747,"ĠAirport":11748,"ĠPython":11749,"uels":11750,"ĠBab":11751,"emin":11752,"ipher":11753,"Äģ":11754,"Ġadministrative":11755,"Ġorg":11756,"Ġfet":11757,"Ġindu":11758,"Maybe":11759,"Ġviewing":11760,"Ġgentle":11761,"ĠFle":11762,"Ġwinners":11763,"ĠJen":11764,"Ġcollecting":11765,"gov":11766,"Ġdemonstration":11767,"Ġsuggestions":11768,"Ġcrown":11769,"ĠCitiz":11770,"Ġiter":11771,"Ġmunicipal":11772,"ĠSac":11773,"Ġsleeping":11774,"Ġcombine":11775,"requ":11776,"ighting":11777,"Ġtoug":11778,"Ps":11779,"outing":11780,"Ġactress":11781,"}}":11782,"Michael":11783,"Ġbeef":11784,"Ġpeer":11785,"Ġvenue":11786,"Ġcommod":11787,"quer":11788,"Ġsophisticated":11789,"Ġinterven":11790,"pin":11791,"ĠMelbourne":11792,"Ġcaution":11793,"Ġchemicals":11794,"vo":11795,"Ã¥":11796,"Ġoxygen":11797,"Ġcontroller":11798,"ĠFO":11799,"IST":11800,"Ġstartup":11801,"Ġpour":11802,"Ġprayer":11803,"ĠDisc":11804,"Ġpreparation":11805,"Ġthemes":11806,"iors":11807,"Ġrice":11808,"Ġquietly":11809,"ĠVar":11810,"Ġrelatives":11811,"Ġsons":11812,"\":\"":11813,"IE":11814,"Ġworlds":11815,"ĠMA":11816,"ĠHuff":11817,"ĠNaz":11818,"Ġhorrible":11819,"ĠBerkeley":11820,"eller":11821,"bet":11822,"Ġnights":11823,"Ġ1984":11824,"pot":11825,"Ġritual":11826,"ĠLady":11827,"ĠPatriots":11828,"count":11829,"ãģ®":11830,"Ġtempt":11831,"ĠHunter":11832,"Ġgolden":11833,"Ġcatast":11834,"Ġintelligent":11835,"ĠSex":11836,"ĠLuke":11837,"Ġabund":11838,"Ġcountless":11839,"Ġstyles":11840,"Ġstir":11841,"Ġcomed":11842,"Ġtorn":11843,"Ġfires":11844,"oda":11845,"ugs":11846,"jamin":11847,"lli":11848,"urities":11849,"atoes":11850,"ĠFederation":11851,"Ġverify":11852,"Ġsinging":11853,"Ġpublisher":11854,"Ġtob":11855,"ĠInn":11856,"Ġequipped":11857,"ĠIV":11858,"Ġdetained":11859,"ernel":11860,"Ġ68":11861,"Ġwrap":11862,"ersion":11863,"ĠCry":11864,"Ġanonym":11865,"ĠCloud":11866,"Ġgrants":11867,"Ġbonds":11868,"Ġtends":11869,"Ġfrustration":11870,"Ġaspir":11871,"Ġtu":11872,"Ġnewspapers":11873,"ĠMississippi":11874,"Ġfirearms":11875,"Ġtechnological":11876,"speed":11877,"Ġpartially":11878,"Ġrestricted":11879,"Ġcruel":11880,"Ġorange":11881,"Ġreign":11882,"map":11883,"ĠKy":11884,"ĠProgress":11885,"Ġimpose":11886,"Ġremembered":11887,"Ġbubble":11888,"ected":11889,"Ġcous":11890,"Ġsuggestion":11891,"Ġdebates":11892,"Ġmeets":11893,"Leaks":11894,"Ġalike":11895,"celona":11896,"Ġdisappeared":11897,"Ġdiscipline":11898,"Ġseparated":11899,"ĠBenn":11900,"Ġdeserves":11901,"ĠClimate":11902,"Ġdelegates":11903,"ĠTrue":11904,"ĠPeace":11905,"Ġcommentary":11906,"Ġcave":11907,"Ġensuring":11908,"Ġhonestly":11909,"arer":11910,"Ġinstallation":11911,"Ġlogical":11912,"ĠExpress":11913,"idth":11914,"Ġdemo":11915,"arently":11916,"ĠQuebec":11917,"Ġendless":11918,"Ġquestioning":11919,"ATED":11920,"bably":11921,"Ġparks":11922,"ĠFig":11923,"ĠChrome":11924,"Ġrebel":11925,"ĠChristianity":11926,"Ġthro":11927,"Ġviolated":11928,"ĠManager":11929,"Ġmic":11930,"py":11931,"Ġpending":11932,"Ġnotably":11933,"Ġhighlighted":11934,"natural":11935,"Ġgradually":11936,")|":11937,"ĠLions":11938,"ĠOw":11939,"Ġinstantly":11940,"chron":11941,"Ġtranslation":11942,"Ġwitnessed":11943,"Ġpoorly":11944,"Ġappointment":11945,"Ġ1986":11946,"ĠSessions":11947,"Ġgrave":11948,"ĠCampbell":11949,"ĠBlu":11950,"ierre":11951,"oop":11952,"Ġcultiv":11953,"Ġmigration":11954,"Ġclimb":11955,"Ġannually":11956,"ĠStorm":11957,"Ġoffseason":11958,"Ġcurve":11959,"ĠImp":11960,"ĠMas":11961,"White":11962,"Ġarena":11963,"/.":11964,"Ġcomplain":11965,"ĠAdditionally":11966,"ĠSafety":11967,"cat":11968,"ĠArena":11969,"Ġchamber":11970,"ttes":11971,"liver":11972,"orer":11973,"Ġplanes":11974,"ĠEC":11975,"SE":11976,"esides":11977,"Ġpraise":11978,"Ġepid":11979,"Ġpricing":11980,"ĠMarshall":11981,"Ġforb":11982,"hill":11983,"Ġexploration":11984,"Ġreactions":11985,"oples":11986,"Advertisements":11987,"Ġincorrect":11988,"Their":11989,"Ġconced":11990,"ĠPod":11991,"ĠVladimir":11992,"witzer":11993,"Ġemployer":11994,"Check":11995,"ĠToy":11996,"THE":11997,"Ġsupporter":11998,"ĠMorris":11999,"ĠCos":12000,"version":12001,"Ġreplacing":12002,"Ġlineback":12003,"ĠCuba":12004,"ĠHP":12005,"ĠCoalition":12006,"size":12007,"arma":12008,"Ġmakers":12009,"ĠOrange":12010,"lected":12011,"Ġenterprise":12012,"Ġcelebration":12013,"Ġpowered":12014,"GM":12015,"ĠPok":12016,"media":12017,"Ġprosper":12018,"Ġfascinating":12019,"ĠLen":12020,"arians":12021,"Ġtransmission":12022,"founder":12023,"omach":12024,"aman":12025,"formance":12026,"ĠNative":12027,"ĠForces":12028,"Ġambassador":12029,"---":12030,"ĠArts":12031,"âĦ":12032,"Ġaltogether":12033,"Ġdrafted":12034,"Ġprotections":12035,"ologically":12036,"ĠFind":12037,"fi":12038,"Min":12039,"Ġfurn":12040,"emit":12041,"elcome":12042,"Ġsizes":12043,"ĠFergus":12044,"Ġshake":12045,"Ġmountains":12046,"ĠWatson":12047,"Ġ700":12048,"Twitter":12049,"Ġderived":12050,"Ġdesignated":12051,"ĠLaur":12052,"atter":12053,"Ġtoll":12054,"ĠGene":12055,"Ġcrops":12056,"Media":12057,"Ġ76":12058,"Ġstarter":12059,"ĠKickstarter":12060,"itivity":12061,"ĠDeep":12062,"Ġscratch":12063,"ĠSaint":12064,"Ġdil":12065,"aucus":12066,"Ġpsychiat":12067,"ĠSpeaker":12068,"lesh":12069,"Ġcourses":12070,"piece":12071,"onda":12072,"Ġash":12073,"ĠWard":12074,"Ġsummary":12075,"Ġtobacco":12076,"Ġdelivering":12077,"Ġelectrical":12078,"file":12079,"Ġagriculture":12080,"ĠCongressional":12081,"Fe":12082,"ĠRap":12083,"asted":12084,"Ġdirectors":12085,"tit":12086,"La":12087,"ĠGre":12088,"ĠGPU":12089,"Ġcarrier":12090,"Ġstunning":12091,"Ġadj":12092,"Ġdevoted":12093,"Ġbathroom":12094,"Ġbuyers":12095,"NT":12096,"Ġfract":12097,"ĠEnvironmental":12098,"ĠReid":12099,"Ġcalendar":12100,"ĠPel":12101,"Ġwound":12102,"ĠRT":12103,"ĠDakota":12104,"ĠBeat":12105,"ĠMuch":12106,")(":12107,"Ġpreview":12108,"Ġflew":12109,"oard":12110,"Ġadvised":12111,"Ġghost":12112,"Ġtrucks":12113,"udeau":12114,"ĠProm":12115,"Ġ1979":12116,"gments":12117,"Ġprevented":12118,"Ġlyr":12119,"110":12120,"itate":12121,"Ġcontents":12122,"Ġweaken":12123,"sur":12124,"Ġduration":12125,"Ġseventh":12126,"Ġgreet":12127,"ĠHispan":12128,"Ġtraveled":12129,"Republic":12130,"Ġpermitted":12131,"Ġmetaph":12132,"Ġpledge":12133,"ĠRoger":12134,"PDATE":12135,"Ġdrinks":12136,"ĠÂ©":12137,"Ġethics":12138,"FS":12139,"Ġhunt":12140,"Ġcomputing":12141,"World":12142,"Ġdamn":12143,"War":12144,"dev":12145,"Ġ);":12146,"Ġfocuses":12147,"group":12148,"Ġmarginal":12149,"ĠNetanyahu":12150,"Ġobservations":12151,"ĠCommissioner":12152,"rait":12153,"ocker":12154,"DAY":12155,"ults":12156,"ĠOxford":12157,"Ġvaccine":12158,"Ġhistorically":12159,"ĠMcCon":12160,"Set":12161,"ĠRow":12162,"ĠLawrence":12163,"dec":12164,"ĠFR":12165,"aughters":12166,"ĠRound":12167,"ĠCorps":12168,"Ġrevealing":12169,"Ġlaptop":12170,"Ġunl":12171,"hyth":12172,"Ġplacing":12173,"Ġsacrifice":12174,"Ġpriest":12175,"Ġaccomplished":12176,"Ġyard":12177,"ĠNap":12178,"Ġconclusions":12179,"ims":12180,"Second":12181,"brew":12182,"Eng":12183,"Big":12184,"bie":12185,"hol":12186,"ding":12187,"umm":12188,"ĠHeat":12189,"orig":12190,"minded":12191,"Ġawkward":12192,"ĠJets":12193,"ĠQual":12194,"Ġarguably":12195,"Ġsauce":12196,"uming":12197,"ella":12198,"Take":12199,"ĠJacob":12200,"mn":12201,"Ġnode":12202,"Ġstressed":12203,"jan":12204,"Ġentities":12205,"ĠBloomberg":12206,"ĠHann":12207,"Ġtablet":12208,"anches":12209,"dam":12210,"anded":12211,"Ġmechanics":12212,"Ġadvocacy":12213,"Ġcompr":12214,"Given":12215,"orical":12216,"Ġpressing":12217,"Ġcam":12218,"Ġcapability":12219,"Ġdepos":12220,"ĠBaker":12221,"ĠKas":12222,"Have":12223,"ĠFCC":12224,"Ġqualify":12225,"drop":12226,"Ġpenalties":12227,"ocus":12228,"Ġprol":12229,"Ġessay":12230,"ĠAgainst":12231,"Ġaudiences":12232,"andy":12233,"Ġdecor":12234,"Ġfrank":12235,"agraph":12236,"ĠHawaii":12237,"ĠTaiwan":12238,"ĠEditor":12239,"Ġinvesting":12240,"ĠDean":12241,"Ã£":12242,"LO":12243,"XX":12244,"appropriate":12245,"Ġpor":12246,"Ġhaz":12247,"Ġtutorial":12248,"di":12249,"Ġbears":12250,"Several":12251,"ogg":12252,"ĠRoc":12253,"Ġpainted":12254,"vol":12255,"NG":12256,"Ġassumption":12257,"ĠTea":12258,"ĠUI":12259,"rup":12260,"ĠChall":12261,"witzerland":12262,"ĠPosts":12263,"ĠHus":12264,"ĠUC":12265,"Ġadvertisement":12266,"Ġsword":12267,"specific":12268,"Ġrespective":12269,"Ġhappiness":12270,"Ġboundaries":12271,"Ġspy":12272,"Ġcitizenship":12273,"ĠRaid":12274,"Ġcircles":12275,"Ġstun":12276,"written":12277,"Ġfaculty":12278,"Ġshooter":12279,"Ġgrocer":12280,"supp":12281,"ĠLevel":12282,"ĠMitchell":12283,"Ġzomb":12284,"half":12285,"Ġmild":12286,"Ġcoordinator":12287,"Ġquantum":12288,"Bre":12289,"mid":12290,"atin":12291,"Ġmonetary":12292,"Ġoperates":12293,"Ġunderstands":12294,"Ġgaining":12295,"ĠSmart":12296,"uto":12297,"Ġoversight":12298,"mother":12299,"Ġsupplement":12300,"encer":12301,"âĦ¢":12302,"uez":12303,"Ġineff":12304,"mare":12305,"Ġdistant":12306,"ĠChap":12307,"Ġprinting":12308,"SD":12309,"prot":12310,"ĠRecords":12311,"Ġscary":12312,"Ġacquisition":12313,"Ġtill":12314,"ĠMotor":12315,"gary":12316,"storm":12317,"Ġinterrupt":12318,"Ġillegally":12319,"Ġhearts":12320,"Ġlone":12321,"ĠTodd":12322,"2010":12323,"Ġresponding":12324,"Ġattendance":12325,"ĠNCAA":12326,"Ġfeminist":12327,"Ġapplying":12328,"Ġsuprem":12329,"irs":12330,"Ġbitter":12331,"zb":12332,"ĠEve":12333,"Ġfrustrated":12334,"otypes":12335,"zes":12336,"2011":12337,"Ġmotivation":12338,"Ġshocking":12339,"ĠFlynn":12340,"âĢĭ":12341,"Ġincomp":12342,"Ġhostile":12343,"Ġpatrol":12344,"Ġsafer":12345,"Ġexchanges":12346,"ortunate":12347,"Ġexpertise":12348,"ĠFerguson":12349,"Ġtum":12350,"Ġears":12351,"\",\"":12352,"ĠRain":12353,"ĠGab":12354,"lements":12355,"ĠJess":12356,"Ġenjoying":12357,"formed":12358,"Ġbund":12359,"liminary":12360,"boards":12361,"Ġunnecessary":12362,"DE":12363,"ĠBeh":12364,"Ġexperiencing":12365,"vious":12366,"raham":12367,"TIS":12368,"ĠCL":12369,"Ġwings":12370,"ĠKu":12371,"ĠHotel":12372,"Ġconfirmation":12373,"ĠResp":12374,"string":12375,"Ġjokes":12376,"Ġdesired":12377,"Ġvague":12378,"ĠSide":12379,"Ġfilling":12380,"Ġemerge":12381,"atre":12382,"Ġfastest":12383,"Ġscenarios":12384,"icut":12385,"connect":12386,"abling":12387,"Ġorientation":12388,"deg":12389,"stan":12390,"Ġachievement":12391,"Ġcontributing":12392,"Ġcounties":12393,"asting":12394,"outheast":12395,"Ġpopul":12396,"Ġharvest":12397,"Ġ1985":12398,"owell":12399,"Ġbio":12400,"Ġmamm":12401,"Ġbreach":12402,"km":12403,"Ġprototype":12404,"Med":12405,"ĠElection":12406,"Ġimperial":12407,"WS":12408,"ĠRy":12409,"initely":12410,"Ġoverd":12411,"auc":12412,"Ġhacking":12413,"ĠRemember":12414,"flow":12415,"ĠGa":12416,"Ġstrongest":12417,"Men":12418,"Ġdivide":12419,"borne":12420,"ivan":12421,"Ġtreating":12422,"Ġpedest":12423,"orient":12424,"Ġagricultural":12425,"data":12426,"fs":12427,"ĠIndians":12428,"leton":12429,"Ġconversion":12430,"ĠSM":12431,"igers":12432,"Ġsla":12433,"story":12434,"ĠMedicine":12435,"isode":12436,"econom":12437,"iary":12438,"ĠBlog":12439,"Ġcomposed":12440,"acular":12441,"Hist":12442,"Ġnull":12443,"pling":12444,"ĠHide":12445,"Ġmandatory":12446,"?'":12447,"ĠLegisl":12448,"Ġlongest":12449,"Ġaddiction":12450,"comed":12451,"Ġtune":12452,"Ġmanufacturer":12453,"Ġhier":12454,"verning":12455,"Ġreceives":12456,"Ġinitiatives":12457,"Ġdistinction":12458,"Ġpione":12459,"Ġlanes":12460,"Ġshorter":12461,"Ġ1987":12462,"product":12463,"ĠPur":12464,"Ġdensity":12465,"utt":12466,"ĠSwiss":12467,"ĠRio":12468,"Ġintensity":12469,"umbled":12470,"matic":12471,"Ġugly":12472,"Ġstomach":12473,"valid":12474,"ĠLie":12475,"ĠPhilip":12476,"ĠDJ":12477,"ĠBuck":12478,"Ġoperational":12479,"because":12480,"ĠMD":12481,"Ġceiling":12482,"ĠModern":12483,"Ġreserves":12484,"Ġtar":12485,"Ġcrude":12486,"uerto":12487,"think":12488,"Ġbalanced":12489,"ĠFif":12490,"Ġrifle":12491,"Ġpressed":12492,"Ġacquire":12493,"Ġportfol":12494,"Ġequity":12495,"Ġrehab":12496,"ĠGray":12497,"USA":12498,"imens":12499,"usters":12500,"Ġresigned":12501,"Ġ69":12502,"Ġserial":12503,"Ġflexible":12504,"erer":12505,"Ġrespected":12506,"ĠSong":12507,"Ġchurches":12508,"ĠFro":12509,"PI":12510,"ĠParker":12511,"Ġinsane":12512,"iva":12513,"Ġtransformation":12514,"ĠBrus":12515,"Ġbuzz":12516,"Ġpanic":12517,"Ġsentences":12518,"acer":12519,"ĠArctic":12520,"esis":12521,"ĠKrist":12522,"Ġdrones":12523,"iciary":12524,"ĠSaints":12525,"Ġraid":12526,"ĠAbbott":12527,"Ġsubsidies":12528,"ĠFried":12529,"Ġheaven":12530,"Ġacceptance":12531,"onia":12532,"Ġjudicial":12533,"mart":12534,"Ġlung":12535,"ĠHend":12536,"ryption":12537,"Ġfright":12538,"Ġideological":12539,"Ġfreely":12540,"Ġhumanitarian":12541,"ĠTemple":12542,"Ġdirections":12543,"ĠBrandon":12544,"Ġcats":12545,"Ġharmful":12546,"ĠSmall":12547,"ĠLaure":12548,"Ġcrowds":12549,"ĠFarm":12550,"Ġcomposition":12551,"Ġpays":12552,"ĠIan":12553,"Ġcontrolling":12554,"Ġspacecraft":12555,"Ġdeliberately":12556,"Data":12557,"Figure":12558,"Ġnaked":12559,"Ġparticipated":12560,"Ġcompletion":12561,"Ġdifficulties":12562,"Best":12563,"actory":12564,"Ġpeers":12565,"roc":12566,"Ġanticipated":12567,"Ġsher":12568,"Ġcultures":12569,"ĠBarcelona":12570,"ĠAwards":12571,"izard":12572,"Ġgrateful":12573,"Ġvolunteer":12574,"bart":12575,"Ġcake":12576,"ayed":12577,"ĠMitt":12578,"Ġhighway":12579,"Ġexplosive":12580,"Ġpink":12581,"handed":12582,"Ġfluid":12583,"Ġresidence":12584,"Ġparticles":12585,"Har":12586,"idding":12587,"Ġheritage":12588,"Ġspreading":12589,"Ġexem":12590,"Ġcondemned":12591,"Ġcryptocur":12592,"Ġslavery":12593,"Ġeconomies":12594,"arettes":12595,"Ġflexibility":12596,"ĠMov":12597,"ĠMaine":12598,"Ġtoile":12599,"Ġformally":12600,"Ġadvantages":12601,"Ġtel":12602,"glas":12603,"Ġclever":12604,"Ġconsequence":12605,"ĠED":12606,"Ġtouched":12607,"Ġvegan":12608,"icts":12609,"ockets":12610,"Ġworthy":12611,"ĠDraft":12612,"urned":12613,"Ġappeals":12614,"Ġattributed":12615,"when":12616,"amped":12617,"AV":12618,"ĠNeed":12619,"ĠTampa":12620,"Ġ1930":12621,"Ġpreserv":12622,"Ġdispar":12623,"ĠRice":12624,"North":12625,"Ġsecured":12626,"Ġquotes":12627,"start":12628,"ĠNatural":12629,"peror":12630,"Ġnonprofit":12631,"sized":12632,"Euro":12633,"oons":12634,"Ġviral":12635,"Ġpriorities":12636,"code":12637,"Â£":12638,"Ġmutual":12639,"Ġdign":12640,"Ġreaches":12641,"fox":12642,"Ġincons":12643,"ĠPrin":12644,"ĠChance":12645,"Ant":12646,"Ġlun":12647,"NEW":12648,"incinn":12649,"Ġstocks":12650,"ĠDor":12651,"ocate":12652,"Which":12653,"ĠTalk":12654,"dale":12655,"eor":12656,"iated":12657,"Ġalternatives":12658,"BR":12659,"ĠSud":12660,"ĠMcM":12661,"nor":12662,"western":12663,"Ġ77":12664,"Ġapprove":12665,"Ġpursuit":12666,"Ġlegendary":12667,"Ġfinan":12668,"main":12669,"Ġtechnically":12670,"Ġconservation":12671,"UTERS":12672,"ĠCommunist":12673,"crat":12674,"pace":12675,"ĠFDA":12676,"Ġwidth":12677,"Ġzones":12678,"chi":12679,"Ġimmigrant":12680,"Ġconj":12681,"ĠCentury":12682,"ĠVenezuela":12683,"Ġnick":12684,"ĠArticle":12685,"Ġrumors":12686,"Ġarmor":12687,"ĠBarry":12688,"Ġrotation":12689,"Ġdivorce":12690,"Ġbones":12691,"Ġ74":12692,"ĠBeng":12693,"best":12694,"Ġexped":12695,"Ġfare":12696,"Ġbreakfast":12697,"ĠBenjamin":12698,"rane":12699,"Ġwrapped":12700,"Ġtrapped":12701,"Ġmixture":12702,"Key":12703,"Ġteenager":12704,"Ġrespondents":12705,"Ġgrip":12706,"atile":12707,"ĠCohen":12708,"ĠEvans":12709,"Ġbrows":12710,"Ġdisturbing":12711,"ĠKerry":12712,"Ġfloating":12713,"incinnati":12714,"Ġ73":12715,"Ġdetected":12716,"Ġfitness":12717,"Ġelderly":12718,"ĠDub":12719,"udge":12720,"never":12721,"Ġtendency":12722,"Ġabol":12723,"Ġmagical":12724,"len":12725,"Ġrefusing":12726,"Ġexcitement":12727,"Ġtunnel":12728,"Ġinstinct":12729,"ĠVery":12730,"isen":12731,"ĠBart":12732,"ĠMobile":12733,"Ser":12734,"gt":12735,"itably":12736,"orph":12737,"ationally":12738,"eren":12739,"ĠKirk":12740,"Ġdeclare":12741,"Ġdeclaration":12742,"eu":12743,"whe":12744,"Ġtensions":12745,"Ġrocks":12746,"ĠPartners":12747,"Ġdisclosure":12748,"Ġsatisfied":12749,"Ġgrasp":12750,"azy":12751,"controlled":12752,"Ġknocked":12753,"ĠIC":12754,"ĠTa":12755,"Ġaffair":12756,"Ġliberals":12757,"ĠSwitzerland":12758,"charge":12759,"ĠHarvey":12760,"Ġhopeful":12761,"Ġdispos":12762,"Ġreson":12763,"Ġinfring":12764,"Ġposed":12765,"oner":12766,"ĠCa":12767,"Ġislands":12768,"ĠCampaign":12769,"Ġrall":12770,"Aust":12771,"Orig":12772,"prising":12773,"Ġshifted":12774,"Ġresolved":12775,"Ġassuming":12776,"rust":12777,"ĠAw":12778,"ulpt":12779,"Ġavoided":12780,"Ġattitudes":12781,"Ġtoken":12782,"Ġtriggered":12783,"ĠBears":12784,"Ġtraditionally":12785,"mi":12786,"ĠMom":12787,"Ġtransparent":12788,"Ġinstruments":12789,"Ġreply":12790,"Ġgreenhouse":12791,"Ġdeciding":12792,"Ġbarrier":12793,"Ġcondemn":12794,"Ġimmense":12795,"Ġidentifying":12796,"VERTIS":12797,"Inter":12798,"llers":12799,"Ġhatred":12800,"Ġanimated":12801,"ĠEarly":12802,"Ġtexts":12803,"('":12804,"tics":12805,"Free":12806,"byn":12807,"ĠJe":12808,"ĠAmb":12809,"bage":12810,"Ġreminded":12811,"store":12812,"Ġconstrain":12813,"Ġabsent":12814,"Ġrushed":12815,"school":12816,"las":12817,"Ġexcessive":12818,"Having":12819,"ousing":12820,"stock":12821,"Never":12822,"ĠAlt":12823,"Ġsends":12824,"ilateral":12825,"ĠBund":12826,"ĠKeith":12827,"ĠCircuit":12828,"Ġwelcomed":12829,"ĠBuilding":12830,"ĠAlberta":12831,"Ġfest":12832,"quality":12833,"ĠDoug":12834,"Ġmechanical":12835,"Ġdefenders":12836,"Ġpledged":12837,"âĸĪâĸĪ":12838,"Ġromantic":12839,"Ġsocialist":12840,"Ġdesigners":12841,"ACK":12842,"ĠTun":12843,"abil":12844,"Ġwaited":12845,"Ġthrows":12846,"anking":12847,"Ġbrains":12848,"Ġ82":12849,"Ġchap":12850,"ĠBuffalo":12851,"acent":12852,"seud":12853,"Ġshar":12854,"Ġannouncing":12855,"Ġmasc":12856,"health":12857,"ĠFisher":12858,"Ġaggreg":12859,"Ġeditors":12860,"Ġtemporarily":12861,"ĠChristie":12862,"Ġwallet":12863,"value":12864,"Ġthereby":12865,"ĠAnti":12866,"Ġcolleges":12867,"Par":12868,"Ġcolleague":12869,"Ġsuitable":12870,"Ġhybrid":12871,"Ġtourists":12872,"ĠLynch":12873,"Ġhabits":12874,"Ġindicating":12875,"Ġobservation":12876,"Ġprovincial":12877,"Ġpenet":12878,"Ġprobability":12879,"Ġathletic":12880,"Ġcompliance":12881,"Ġessence":12882,"Ġclicking":12883,"Ġbuttons":12884,"ĠEli":12885,"keeper":12886,"ĠMcConnell":12887,"Ġinterrog":12888,"Ġcasting":12889,"Ġlifted":12890,"Ġsecrets":12891,"Ġassured":12892,"ĠStein":12893,"cs":12894,"Ġlake":12895,"Ġparliamentary":12896,"ĠWikiLeaks":12897,"rien":12898,"plan":12899,"ĠNorway":12900,"Ġsquee":12901,"Ġgrows":12902,"ĠFun":12903,"Ġchampions":12904,"ollah":12905,"Ġhorm":12906,"ãĢĤ":12907,"ĠWarriors":12908,"Ġdeployment":12909,"Ã£o":12910,"ĠCho":12911,"ĠDeputy":12912,"lib":12913,"Through":12914,"CNN":12915,"ĠDom":12916,"nered":12917,"Ġbeloved":12918,"Ġsteep":12919,"Ġminorities":12920,"Clinton":12921,"opard":12922,"fil":12923,"ĠIRS":12924,"Ġsparked":12925,"Ġrib":12926,"Ġreminder":12927,"RT":12928,"step":12929,"ighed":12930,"Ġgrabbed":12931,"ĠPokÃ©":12932,"Ġtat":12933,"zo":12934,"Sch":12935,"Ġcluster":12936,"Ġeconomists":12937,"ĠColumbus":12938,"Ġimagination":12939,"abl":12940,"Ġtreatments":12941,"Ġsuppose":12942,"Ġediting":12943,"ĠKyle":12944,"Ġoptimistic":12945,"ĠTerry":12946,"Ġstrain":12947,"Ġtrusted":12948,"Ġwhistle":12949,"ridge":12950,"Ġpursuing":12951,"around":12952,"Ġpreference":12953,"Ġbarriers":12954,"ĠBou":12955,"ĠOccup":12956,"Ġhumor":12957,"Ġunfortunate":12958,"normal":12959,"Ġpreval":12960,"Ġmeantime":12961,"sign":12962,"ĠMoney":12963,"Ġpresumably":12964,"Ġworship":12965,"Ġeconomist":12966,"ropolitan":12967,"Ġtrop":12968,"fold":12969,"Ġbass":12970,"beit":12971,"ĠRaven":12972,"Ġmetab":12973,"Ġtong":12974,"ĠMorning":12975,"second":12976,"Ġlegislature":12977,"Ġinhib":12978,"ĠYahoo":12979,"Ġdamaging":12980,"Ġurge":12981,"than":12982,"Ġcompos":12983,"Ġdetain":12984,"Ġinfected":12985,"Ġfont":12986,"Ġfemales":12987,"ĠTrudeau":12988,"ski":12989,"enc":12990,"Ġearliest":12991,"Ġfrozen":12992,"Tom":12993,"ĠKarl":12994,"Ġdecreased":12995,"Press":12996,"Ġsurvivors":12997,"Ġdece":12998,"ructive":12999,"ĠIslands":13000,"Ġsacrific":13001,"ECT":13002,"Ġcapitalist":13003,"Ġlicensed":13004,"istani":13005,"ĠOscar":13006,"Ġfru":13007,"Ġnons":13008,"ĠMM":13009,"Bet":13010,"ĠPuerto":13011,"Ġundermine":13012,"ĠWikipedia":13013,"Ġwarnings":13014,"Ġembedded":13015,"ĠThunder":13016,"irk":13017,"ĠUniverse":13018,"big":13019,"Ġplanets":13020,"afi":13021,"ĠUbuntu":13022,"izable":13023,"ĠLiberty":13024,"ĠMormon":13025,"Ġreconst":13026,"Ġempire":13027,"Ġexpend":13028,"Ġ78":13029,"Ġwhites":13030,"enna":13031,"ĠSciences":13032,"Ġunity":13033,"Ġdecides":13034,"ĠFranklin":13035,"ĠConnecticut":13036,"olk":13037,"Ġexports":13038,"ĠTreat":13039,"Ġbreakdown":13040,"Ġsensor":13041,"dig":13042,"opes":13043,"tail":13044,"Ġregulators":13045,"Ġstructural":13046,"inging":13047,"Ġsued":13048,"utical":13049,"Ġpurely":13050,"ĠMemorial":13051,"Ġconducting":13052,"ĠEmb":13053,"Ġ71":13054,"Ġtang":13055,"ĠÂĵ":13056,"LY":13057,"Ġsocieties":13058,"Ġintentions":13059,"bles":13060,"Ġapproaching":13061,"have":13062,"vation":13063,"forcement":13064,"cend":13065,"Ġscrap":13066,"ifferent":13067,"Ġwinds":13068,"Ġconclude":13069,"Ġhill":13070,"ĠFigure":13071,"ĠBrady":13072,"ĠRogers":13073,"Ġalph":13074,"Ġaest":13075,"Ġdiagnosed":13076,"ĠUntil":13077,"ĠConservatives":13078,"Ġaccountable":13079,"ĠText":13080,"ĠProfile":13081,"advant":13082,"ĠCz":13083,"ĠGuide":13084,"Sy":13085,"sky":13086,"ĠKind":13087,"Ġwishes":13088,"ĠDNC":13089,"Video":13090,"estone":13091,"Ġdose":13092,"ĠSep":13093,"Ġvertical":13094,"ĠBrussels":13095,"Ġsilly":13096,"otton":13097,"Ġethical":13098,"Ġdraws":13099,"master":13100,"gi":13101,"Ġstabil":13102,"Ġpurchases":13103,"oline":13104,"Ġbless":13105,"ĠURL":13106,"ĠSpirit":13107,"Ġcort":13108,"ADVERTIS":13109,"Ġfarms":13110,"ĠJu":13111,"Î½":13112,"Ġoffset":13113,"Ġbatteries":13114,"ĠMission":13115,"ĠRoom":13116,"Ġgifts":13117,"tha":13118,"powered":13119,"icials":13120,"Ġinnings":13121,"ĠJefferson":13122,"ĠNort":13123,"iots":13124,"Ġbell":13125,"abetes":13126,"120":13127,"ĠCarson":13128,"tech":13129,"Ġinsurg":13130,"Ġsucceeded":13131,"ĠTurner":13132,"ĠSalt":13133,"ĠAB":13134,"Ġflip":13135,"Ġexecute":13136,"ĠPrize":13137,"ĠPed":13138,"Sign":13139,"Ġidentification":13140,"Ġbeneficial":13141,"Ġsooner":13142,"irable":13143,"Ġtragic":13144,"ĠMcL":13145,"ĠEss":13146,"five":13147,"public":13148,"isers":13149,"fly":13150,"ĠStudios":13151,"oni":13152,"ĠCambridge":13153,"Ġinterference":13154,"Ġcontacts":13155,"ools":13156,"arding":13157,"perial":13158,"mouth":13159,"Jan":13160,"ĠIss":13161,"olo":13162,"arents":13163,"Ġmagnitude":13164,"Ġfailures":13165,"Ġheadline":13166,"Ġvel":13167,"acceptable":13168,"Ġverdict":13169,"Ġhackers":13170,"gian":13171,"Ġdispro":13172,"Ġdaughters":13173,"Ġdisorders":13174,"Cap":13175,"ector":13176,"Ġauction":13177,"Ġdemol":13178,"Ġ1983":13179,"South":13180,"ĠWorks":13181,"ĠWWE":13182,".:":13183,"Ġtenure":13184,"visor":13185,"Using":13186,"ĠRodrig":13187,"Ġdisg":13188,"anked":13189,"ĠCrown":13190,"Ġwondered":13191,"Game":13192,"ĠGarden":13193,"live":13194,"Ġarriving":13195,"Ġstreak":13196,"ĠDog":13197,"Ġfinancing":13198,"anka":13199,"ĠDate":13200,"Ġadvances":13201,"Ġretailers":13202,"Oct":13203,"rint":13204,"urred":13205,"ĠCowboys":13206,"Ġfeeding":13207,"Link":13208,"ĠHolland":13209,"Ġdys":13210,"Ġlasted":13211,"Ġpassionate":13212,"path":13213,"Ġsmugg":13214,"Ġboyfriend":13215,"ĠFel":13216,"Ġrecy":13217,"Ġcomparing":13218,"Ġexempt":13219,"Ġcorresponding":13220,"Ġaired":13221,"Ġprocessor":13222,"();":13223,"oler":13224,"pop":13225,"Ġbeers":13226,"note":13227,"Ġscreening":13228,"Ġcomply":13229,"Ġgamers":13230,"ĠGuy":13231,"Ġpleaded":13232,"Ġvillages":13233,"Ġpilots":13234,"Ġriot":13235,"wal":13236,"cribed":13237,"Ġfraction":13238,"Ah":13239,"Ġtaxpayer":13240,"Ġentrepreneurs":13241,"ĠVermont":13242,"Os":13243,"Ġgoverning":13244,"$$":13245,"ĠNav":13246,"Ġagrees":13247,"ĠBuy":13248,"Ġinclusion":13249,"Ġ1982":13250,"Ġpermits":13251,"ĠCass":13252,"ĠJoy":13253,"ĠChuck":13254,"James":13255,"stage":13256,"ĠCommunications":13257,"Ġcartoon":13258,"AG":13259,"orses":13260,"arenthood":13261,"Ġtemplate":13262,"ĠPlayers":13263,"home":13264,"cha":13265,"Ġlaser":13266,"Ġdonated":13267,"Ġemotion":13268,"anto":13269,"Ġmillenn":13270,"Ġcheer":13271,"Ġretreat":13272,"Make":13273,"Ġpupp":13274,"ĠZh":13275,"BER":13276,"ĠCorn":13277,"Ġsteam":13278,"Ġdecks":13279,"Work":13280,"backed":13281,"hammad":13282,"Ġencount":13283,"owners":13284,"Ġgenerous":13285,"itbart":13286,"Ġcontam":13287,"ardless":13288,"Ġanime":13289,"ĠRobin":13290,"Ġlip":13291,"Ġadmits":13292,"Ġorganisations":13293,"Ġencountered":13294,"Ġcounting":13295,"Ġpsychology":13296,"Ġleverage":13297,"Ġenhanced":13298,"ucc":13299,"ĠStars":13300,"ĠOliver":13301,"ĠArkansas":13302,"Ġmock":13303,"Ġbelieving":13304,"ĠFormer":13305,"Ġcub":13306,"Ġunders":13307,"ĠGhost":13308,"Ġlacking":13309,"Ġampl":13310,"Ġfeared":13311,"ussion":13312,"coins":13313,"earchers":13314,"direct":13315,"giving":13316,"source":13317,"Ġindict":13318,"ĠBrand":13319,"Ġlib":13320,"Ġtraits":13321,"haul":13322,"ĠDM":13323,"ĠNeil":13324,"Ġdestroying":13325,"Islam":13326,"Ġouter":13327,"Ġgrace":13328,"Met":13329,"Ġboring":13330,"ĠCincinnati":13331,"Ġunh":13332,"aceutical":13333,"Ġslower":13334,"points":13335,"ĠAMD":13336,"ĠAdvent":13337,"ĠIslamist":13338,"Rober":13339,"Ġclimbing":13340,"Ġgenet":13341,"Ġdoubled":13342,"ĠGallery":13343,"Ġaftermath":13344,"Val":13345,"ĠTyler":13346,"ĠREUTERS":13347,"Ġawa":13348,"Ġsuspicion":13349,"elta":13350,"ĠMerkel":13351,"Ġsolidarity":13352,"Four":13353,"Ġhypothesis":13354,"God":13355,"Ġinsect":13356,"Ġdumb":13357,"Ġterminal":13358,"ĠBradley":13359,"Ġcollapsed":13360,"ÃĹ":13361,"Ġconsiders":13362,"ĠMadison":13363,"Ġvariation":13364,"Ġpizza":13365,"ĠMember":13366,"Ġdiscour":13367,"ĠMilitary":13368,"Ġinstitutional":13369,"ĠShan":13370,"aukee":13371,"ä¸":13372,"Ġmedian":13373,"ĠDownload":13374,"width":13375,"Ġtrash":13376,"plex":13377,"eded":13378,"Ġdenial":13379,"2009":13380,"ĠBh":13381,"ĠSenior":13382,"Ġmasses":13383,"ĠCountry":13384,"Ġsequel":13385,"ĠPrinc":13386,"Ġcareers":13387,"Ġreun":13388,"ĠHunt":13389,"angelical":13390,"Ġft":13391,"Ġnan":13392,"ĠSusan":13393,"Ġfierce":13394,"Ġtransformed":13395,"claimed":13396,"ĠElsa":13397,"ĠSW":13398,"IVE":13399,"image":13400,"ĠSpeed":13401,"aha":13402,"ĠSolar":13403,"inance":13404,"Ġfence":13405,"ĠAth":13406,"ĠPeters":13407,"ĠCharlotte":13408,"idays":13409,"rained":13410,"rer":13411,"Ġspawn":13412,"ĠBros":13413,"ĠGlass":13414,"Ġcivilization":13415,"Ġsuspicious":13416,"Ġdirectory":13417,"astically":13418,"Ġjustified":13419,"issa":13420,"Ġincentives":13421,"Rich":13422,"Ġcomparable":13423,"Ġkingdom":13424,"shirt":13425,"Ġjumping":13426,"ĠRail":13427,"ĠEX":13428,"aton":13429,"urable":13430,"Start":13431,"urse":13432,"Ġsponsored":13433,"Ġrecruiting":13434,"UI":13435,"Ġfib":13436,"ĠWithin":13437,"Ġbottles":13438,"ĠTob":13439,"Ġrecount":13440,"Ġinvented":13441,"Ġmagnetic":13442,"Ġglob":13443,"Whether":13444,"ĠEbola":13445,"Ġroutinely":13446,"Ġcompiled":13447,"ĠColomb":13448,"Ġlyrics":13449,"Ġcelebrity":13450,"Ġcodes":13451,"unct":13452,"ĠBE":13453,"Ġaging":13454,"ĠThor":13455,"aws":13456,"Ġcleaning":13457,"ĠFantasy":13458,"ahl":13459,"Ġtranslated":13460,"Ġoutright":13461,"Ġinvite":13462,"Ġtreaty":13463,"ĠKam":13464,"Å¡":13465,".âĢľ":13466,"ĠMarco":13467,"isible":13468,"Ġdonation":13469,"Ġwheels":13470,"Ġlobbying":13471,"Ġmotorcy":13472,"Ġslave":13473,"Ġedited":13474,"Ġeducated":13475,"ĠTheatre":13476,"NY":13477,"Alex":13478,"Ġ()":13479,"Ġlicensing":13480,"Ġaccurately":13481,"Ġincentive":13482,"lie":13483,"Ġwarfare":13484,"Ġvisa":13485,"Ġisolation":13486,"UPDATE":13487,"waukee":13488,"Ġfounding":13489,"Ġsensors":13490,"Ġ==":13491,"ĠVA":13492,"Ġcompound":13493,"iph":13494,"Ġseparation":13495,"Mal":13496,"Ġworkplace":13497,"Ġmonsters":13498,"Ġacres":13499,"Ġtemple":13500,"Ġlau":13501,"Ñı":13502,"Ġmeals":13503,"Ġorganizing":13504,"Ġcredibility":13505,"General":13506,"Ġthirty":13507,"Ġnegotiate":13508,"itative":13509,"aux":13510,"ĠEV":13511,"Ġnit":13512,"Ġmidfielder":13513,"render":13514,"Ġmerc":13515,"Ġshifts":13516,"Ġhoney":13517,"ĠHills":13518,"ĠRams":13519,"ĠScar":13520,"Ġwillingness":13521,"Ġcreators":13522,"ĠCorbyn":13523,"alog":13524,"ĠHub":13525,"writer":13526,"Ġpist":13527,"ĠInterest":13528,"Ġadequate":13529,"ĠJake":13530,"Ġregards":13531,"Ġmonop":13532,"Ġbranches":13533,"adows":13534,"Ġfuneral":13535,"Ġtrace":13536,"Ġurging":13537,"Ġcrying":13538,"Ġswimming":13539,"Ġrushing":13540,"ĠBash":13541,"arest":13542,"Ġproceedings":13543,"outube":13544,"Ġrealm":13545,"illo":13546,"atherine":13547,"ĠMaria":13548,"ĠHindu":13549,"igma":13550,"Ġye":13551,"Ġcontinuous":13552,"roduction":13553,"Ġauthorized":13554,"Ġevaluate":13555,"table":13556,"uced":13557,"Ġmentally":13558,"ĠLucas":13559,"Ġenables":13560,"Ġfirmly":13561,"Ġcommissioner":13562,"Ġearthquake":13563,"Ġcreativity":13564,"ĠPolitical":13565,"Ġhence":13566,"Ġgrain":13567,"Type":13568,"Ġpreliminary":13569,"ĠIndonesia":13570,"ADVERTISEMENT":13571,"Hill":13572,"ĠPap":13573,"Ġvacation":13574,"Day":13575,"Ġshed":13576,"ĠTitan":13577,"sson":13578,"BL":13579,"ugged":13580,"Ġchains":13581,"Ġeleph":13582,"Ġintu":13583,"Î¿":13584,"Ġfiref":13585,"driven":13586,"Ġlabels":13587,"ĠRC":13588,"Ġteens":13589,"Â®":13590,"Ġbust":13591,"Ġintroducing":13592,"Ġvibr":13593,"WA":13594,"heric":13595,"Ġhelicopter":13596,"Ġdirt":13597,"days":13598,"ateur":13599,"ĠMort":13600,"Ġstatistical":13601,"Ġalbums":13602,"PN":13603,"Ġ''":13604,"ĠBulls":13605,"Ġmatching":13606,"Ġdetermination":13607,"Ġeliminated":13608,"ĠNixon":13609,"Ġconvinc":13610,"Ġplaint":13611,"Ġindigenous":13612,"Ġindirect":13613,"Stud":13614,"ĠDest":13615,"feld":13616,"ordable":13617,"Ġsnaps":13618,"aters":13619,"Ġ110":13620,"essional":13621,"ĠStudio":13622,"Ġdivers":13623,"Ġinstruction":13624,"ivic":13625,"Ġtoy":13626,"Ġnovels":13627,"Ġunveiled":13628,"ĠLED":13629,"aley":13630,"Ġtriple":13631,"SM":13632,"ĠQaeda":13633,"Ġaudit":13634,"ĠVerizon":13635,"ppy":13636,"rowth":13637,"ĠCut":13638,"people":13639,"Ġparagraph":13640,"Ġexceptions":13641,"Ġshoulders":13642,"Ġdubbed":13643,"Ġbreathing":13644,"ĠPence":13645,"Ġscreaming":13646,"umbling":13647,"Ġ1967":13648,"Ġfict":13649,"References":13650,"Ġdamages":13651,"Ġ88":13652,"ĠLebanon":13653,"Ġvon":13654,"ĠGarc":13655,"Ġinteractive":13656,"eches":13657,"Green":13658,"Ġultra":13659,"Ġwildlife":13660,"ĠFab":13661,"Ġseverely":13662,"Ð²":13663,"Ġfolder":13664,"ĠSeah":13665,"qual":13666,"Ġpeoples":13667,"OST":13668,"ĠBernard":13669,"oa":13670,"ĠDanny":13671,"ĠPolish":13672,"Ã©s":13673,"Ġkills":13674,"Ġoverlook":13675,"kg":13676,"Ġtouchdowns":13677,"Tunes":13678,"Ġcommented":13679,"âĪĴ":13680,"ĠFriends":13681,"ĠCart":13682,"Ġ1981":13683,"Ġgravity":13684,"Ġrhyth":13685,"Ġlikelihood":13686,"Ġcompassion":13687,"Ġpartial":13688,"ĠAve":13689,"ueller":13690,"Ġlayout":13691,"Ġsculpt":13692,"Ġavoiding":13693,"READ":13694,"High":13695,"pur":13696,"ĠCreek":13697,"Ġdism":13698,"ĠDR":13699,"Ġjew":13700,"ĠClar":13701,"ĠLeaf":13702,"ĠAnim":13703,"Ġcounterparts":13704,"iliation":13705,"Ġbetray":13706,"ĠØ":13707,"ĠBlues":13708,"Ġspecialist":13709,"cules":13710,"ellar":13711,"ublin":13712,"Ġcounted":13713,"Ġairline":13714,"Ġtraditions":13715,"ĠMi":13716,"Dep":13717,"lash":13718,"roller":13719,"Ġmusicians":13720,"Ġappealing":13721,"ĠRosen":13722,"ĠStre":13723,"ulative":13724,"ĠArthur":13725,"Ġlengthy":13726,"Ġpaths":13727,"Ġlawsuits":13728,"Ġsectors":13729,"ĠLane":13730,"Writ":13731,"Ġcents":13732,"Ġsheer":13733,"ĠPinterest":13734,"Ġadmission":13735,"Ġunst":13736,"ĠBroncos":13737,"ĠGonz":13738,"Ġwooden":13739,"riving":13740,"Ġshifting":13741,"Jack":13742,"Ġtrafficking":13743,"Ġendorsed":13744,"Ġquery":13745,"olphins":13746,"itated":13747,"Ġsmartphones":13748,"Ġthreaten":13749,"Ġreasoning":13750,"Ġpowder":13751,"tees":13752,"jar":13753,"Ġrelating":13754,"ailand":13755,"West":13756,"ĠGate":13757,"rose":13758,"resa":13759,"Ġtradem":13760,"Ġportfolio":13761,"Ġpub":13762,"Ġinvestor":13763,"ĠGates":13764,"itial":13765,"Ġesp":13766,"Ġimplementing":13767,"Ġworkforce":13768,"Ġobligation":13769,"affe":13770,"...\"":13771,"ĠGlenn":13772,"ifting":13773,"ths":13774,"engu":13775,"Ġconnecting":13776,"Ġslip":13777,"Ġdemon":13778,"hal":13779,"Ġtwist":13780,"Ġdisappointing":13781,"DB":13782,"Ġaffecting":13783,"ĠShadow":13784,"ĠTribune":13785,"Ġinch":13786,"Ġunderway":13787,"MI":13788,"prom":13789,"Ġbrave":13790,"ĠEdd":13791,"vals":13792,"Ġdelays":13793,"iang":13794,"Ġlesser":13795,"Ġsie":13796,"Ġthoroughly":13797,"Ġpants":13798,"Ġfolk":13799,"keys":13800,"Ġworn":13801,"Ġwherever":13802,"hell":13803,"Super":13804,"Ġarranged":13805,"Ġlocals":13806,"Ġfundraising":13807,"Ġunrest":13808,"ĠPokÃ©mon":13809,"ĠAnne":13810,"ĠDouglas":13811,"UE":13812,"Ġprecious":13813,"Ġsubscription":13814,"Ġunch":13815,"ĠMust":13816,"ĠUniversal":13817,"iology":13818,"Ġ1973":13819,"2000":13820,"Ġconsultant":13821,"ĠJa":13822,"Ġ180":13823,"wart":13824,"Ġdivid":13825,"ĠSerge":13826,"Ġbankruptcy":13827,"ĠBJP":13828,"Ġrenewed":13829,"ĠÙ":13830,"Ġaccompany":13831,"munition":13832,"Ġarrangement":13833,"Muslim":13834,"Ġsheriff":13835,"esity":13836,"Ġimpress":13837,"Ġaveraged":13838,"Ġforming":13839,"ĠSystems":13840,"ĠTD":13841,"alin":13842,"gel":13843,"Ġproblematic":13844,"ĠSad":13845,"Ġpredictions":13846,"airy":13847,"Ġattacker":13848,"ĠBooks":13849,"Chris":13850,"Sometimes":13851,"Ġtransf":13852,"Ġtriumph":13853,"Ġvegetables":13854,"ĠBrooks":13855,"Japan":13856,"Ġoffshore":13857,"viol":13858,"orns":13859,"Ġclassical":13860,"ĠSox":13861,"Ġestablishing":13862,"Ġgods":13863,"ĠâĨ":13864,"Ġleagues":13865,"cker":13866,"CR":13867,"cup":13868,"Ġ84":13869,"Ġfilming":13870,"================":13871,"nik":13872,"kees":13873,"Ġ130":13874,"Ġgenerating":13875,"Ġforums":13876,"acious":13877,"Ġmarine":13878,"iasm":13879,"issance":13880,"ĠWeiss":13881,"Ġdescript":13882,"MB":13883,"ĠFinance":13884,"Ġmarry":13885,"ĠLtd":13886,"]:":13887,"Ġshore":13888,"Ġwrestling":13889,"Ġmaker":13890,"OV":13891,"closure":13892,"Ġhij":13893,"neath":13894,"arthy":13895,"uv":13896,"levant":13897,"itis":13898,"ooting":13899,"ĠJoh":13900,"ocaly":13901,"rape":13902,"Ġmatched":13903,"pse":13904,"Ġcorners":13905,"Ġorigins":13906,"ĠTell":13907,"ĠHum":13908,"Ġaccounting":13909,"Ġdoctrine":13910,"Ġamend":13911,"rament":13912,"iosity":13913,"ĠBrazilian":13914,"Ġspare":13915,"Ġrecalls":13916,"Ġclinic":13917,"Ġox":13918,"redict":13919,"aku":13920,"Ġ79":13921,"ĠWoman":13922,"Dec":13923,"lude":13924,"addy":13925,"bull":13926,"ignt":13927,"selling":13928,"Ġcocaine":13929,"ĠHat":13930,"ĠLess":13931,"Russian":13932,"Ġcompatible":13933,"Fig":13934,"Ġsupportive":13935,"ĠBos":13936,"ĠBond":13937,"Ġstatue":13938,"ĠPT":13939,"Ġtestified":13940,"Ġgray":13941,"Ġholy":13942,"Ġfarming":13943,"iop":13944,"ĠBelgium":13945,"ĠRoth":13946,"Ġshaped":13947,"Ġmortality":13948,"German":13949,"ĠCher":13950,"ĠCelt":13951,"Ġorganize":13952,"Ġcontinent":13953,"Ġconsumed":13954,"ĠGoldman":13955,"ĠBY":13956,"Ġautism":13957,"umbl":13958,"Ġadjusted":13959,"Ġpurchasing":13960,"Ġì":13961,"Ġ1920":13962,"ĠKle":13963,"Ġbite":13964,"Ġliterary":13965,"ĠReed":13966,"Ġspecified":13967,"ĠLiving":13968,"Ġphotographer":13969,"aghd":13970,"Ġunanim":13971,"Ġ1976":13972,"Ġteenage":13973,"Ġdisadvant":13974,"Ġ1968":13975,"Americans":13976,"Ġvessel":13977,"Ġwreck":13978,"Ġsounded":13979,"ugging":13980,"feed":13981,"HD":13982,"ulum":13983,"Ġhed":13984,"Ġlocally":13985,"Ġshootings":13986,"Russia":13987,"olan":13988,"Ġ1972":13989,"ĠAgree":13990,"Ġgarbage":13991,"Ġelaborate":13992,"uum":13993,"Ġcertificate":13994,"ĠRaiders":13995,"ĠIsa":13996,"Ġautonomous":13997,"Ġcycling":13998,"ĠPakistani":13999,"Ġprohibited":14000,"pring":14001,"Ġindependently":14002,"Ġescaped":14003,"Ġtub":14004,"ĠVeter":14005,"Ġ::":14006,"ĠMason":14007,"Ġgallery":14008,"Tor":14009,"Ġcostly":14010,"pered":14011,"blem":14012,"Ġreflection":14013,"Ġmounted":14014,"Ġfuels":14015,"Class":14016,"ĠSeahawks":14017,"Ġlaboratory":14018,"Åį":14019,"Ġgrat":14020,"eting":14021,"Ġadaptation":14022,"Ġskilled":14023,"Ġvulnerability":14024,"Ġsuits":14025,"Brit":14026,"Ġbehaviors":14027,"insula":14028,"NET":14029,"Ġattributes":14030,"Ñĭ":14031,"Ġ1940":14032,"ĠReading":14033,"asi":14034,"Ġswift":14035,"Ġroyal":14036,"Ġlisting":14037,"izont":14038,"Ġpepper":14039,"Ġinsists":14040,"Ġphotography":14041,"ĠSandy":14042,"ĠHighway":14043,"ĠBrun":14044,"RES":14045,"funded":14046,"hew":14047,"Ġdiox":14048,"Ġpractically":14049,"Ġreset":14050,"lay":14051,"ĠMMA":14052,"Ġdarkness":14053,"Ġassumptions":14054,"ĠSomething":14055,"ĠACL":14056,"Ġexhaust":14057,"help":14058,"idges":14059,"apy":14060,"black":14061,"INE":14062,"Ġsail":14063,"ĠNin":14064,"Ġlimiting":14065,"Does":14066,"abel":14067,"Ġhalt":14068,"Ġlaughing":14069,"Ġpublishers":14070,"ãĢģ":14071,"ĠWalter":14072,"Ġconsolid":14073,"Ġencryption":14074,"Ġcharts":14075,"Ġdated":14076,"ĠExchange":14077,"ĠAmy":14078,"ullivan":14079,"ĠHem":14080,"Ġresignation":14081,"his":14082,"Ġafterwards":14083,"Ġinmates":14084,"Ġmobil":14085,"ĠAgr":14086,"Ġrated":14087,"Ġintercept":14088,"ahn":14089,"Ġtranscript":14090,"Ġfame":14091,"Ġleaf":14092,"Ġunfold":14093,"ĠAuto":14094,"ioned":14095,"ĠMuhammad":14096,"ĠInv":14097,"Ġaggression":14098,"ĠParenthood":14099,"olutions":14100,"City":14101,"Ġlinebacker":14102,"Ġdemonstrations":14103,"ĠAqu":14104,"marks":14105,"wealth":14106,"ocity":14107,"Ġneat":14108,"Ac":14109,"Ġabused":14110,"oubted":14111,"Ġuncons":14112,"reach":14113,"lementary":14114,"tor":14115,"Ġaccommodate":14116,"je":14117,"INGTON":14118,"Ġhealing":14119,"Ġsearches":14120,"ĠSoftware":14121,"ĠAlf":14122,"ignty":14123,"Such":14124,"ĠOd":14125,"mination":14126,"ĠPrint":14127,"Ġfrustrating":14128,"wer":14129,"lient":14130,"acker":14131,"Europe":14132,"Ġbesides":14133,"four":14134,"ĠSel":14135,"Ġresume":14136,"ĠCoach":14137,"Ġtimeline":14138,"Ġports":14139,"ĠSor":14140,"ĠVirt":14141,"writing":14142,"ĠSoul":14143,"Ġpredomin":14144,"Ġrepublic":14145,"chair":14146,"ĠSubscribe":14147,"auer":14148,"Ġapology":14149,"Ġswitched":14150,"Ġprox":14151,"ĠWonder":14152,"Ġalternate":14153,"ĠBetween":14154,"Ġtier":14155,"Ġ^":14156,"Ġoutbreak":14157,"ĠPalestine":14158,"ĠHockey":14159,"cca":14160,"ĠArgentina":14161,"ĠPhone":14162,"ĠPalin":14163,"Ġleather":14164,"Ġcrashed":14165,"Ð¼":14166,"Ġbroadband":14167,"Ġ81":14168,"Ġcelebrating":14169,"roots":14170,"Ġcher":14171,"Ġstraightforward":14172,"IDS":14173,"Ġdetection":14174,"Ġkernel":14175,"bean":14176,"ĠHomeland":14177,"Ġprivately":14178,"ĠGMT":14179,"anium":14180,"ĠTry":14181,"ĠEc":14182,"Ġobservers":14183,"ĠBudget":14184,"Ġpile":14185,"Ġleaks":14186,"Ġsacred":14187,"Article":14188,"ĠChapter":14189,"ĠResources":14190,"respons":14191,"Ġkillings":14192,"Ġfines":14193,"Ġstrings":14194,"Ġspotlight":14195,"Ġbedroom":14196,"wear":14197,"Ġintend":14198,"AK":14199,"Ġexagger":14200,"Ġnominated":14201,"Ġembassy":14202,"Ġprest":14203,"Ġveto":14204,"Ġimagined":14205,"Ġsisters":14206,"Ġsuperhero":14207,"âĪĻâĪĻ":14208,"Ġheter":14209,"ĠJS":14210,"ĠMovement":14211,"Ġlecture":14212,"Ġinsure":14213,"Play":14214,"Mike":14215,"asa":14216,"ĠPAC":14217,"Ġbuses":14218,"ĠDenmark":14219,"ango":14220,"iche":14221,"Ġhash":14222,"Ġammunition":14223,"proof":14224,"2008":14225,"ĠMichelle":14226,"Ġshy":14227,"Ġ83":14228,"ãģĦ":14229,"Ġinfamous":14230,"Everyone":14231,"Ġmetres":14232,
[...]
